#version: 0.2
e n
e r
i n
c h
t h
o n
e s
a n
i s
u n
a t
i t
i e
th e
o r
a l
r e
i ch
i on
d er
s t
a r
r o
en t
l e
b e
a s
t o
g e
o f
un g
e in
t e
d ie
an d
a u
d e
o m
w i
d en
un d
u r
in g
i g
s e
a m
l l
w e
s ch
i m
z u
v e
f or
i c
o u
ich t
v er
i es
o l
om m
e d
t en
t er
a b
at ion
ro p
e m
r a
g en
l ich
d a
n o
b er
s o
i l
h e
th at
c t
h r
l y
w h
ü r
n e
is ch
wi r
u t
u rop
is s
is t
k e
c on
p ro
u m
er e
i r
E urop
i d
r es
u s
d ies
i er
a re
au f
omm iss
h a
f ür
da ß
c e
th is
t s
v on
l d
t r
m ent
w er
ommiss ion
p e
d es
al l
a ch
or t
m e
ein e
V er
i f
g es
o p
u l
no t
U n
n icht
m en
k t
m it
l a
wh ich
I n
d as
a f
isch en
ou ld
t z
de m
au s
o ur
t a
wi th
s u
in d
g r
s en
es t
i ve
at e
o s
ha ve
Europ e
ung en
l i
R e
u st
v or
e x
c k
s p
au ch
am ent
l ie
P ar
en d
id ent
a d
wer den
st e
i al
c o
es s
B e
ä n
b en
m a
ü ber
an t
p ort
it y
q u
s h
wi ll
s ich
n en
W e
i v
f e
T he
a g
ung s
f a
h al
A n
a h
z e
un s
T h
b y
C ommission
h t
0 0
er r
Europe an
Un ion
sch af
ig en
w ie
u ß
i b
c om
an n
d o
M r
p ol
ion s
h as
er n
h en
it s
w or
th er
al s
S t
l o
a p
H err
p ar
h at
K ommission
ab en
ein er
i en
f en
i k
f t
j e
w as
r ä
E n
ie l
wir d
P ro
I ch
ll en
s ind
ou t
p o
ch te
D ie
A us
st r
M it
re g
m ö
u p
te d
h aben
e l
m an
be i
a y
le g
S ch
w ould
al so
W ir
isch e
e t
en n
E r
z ur
Europ ä
ke it
w o
es e
d ar
g er
schaf t
is e
w ar
im m
for m
th ere
g an
ab le
f ü
f er
9 9
or d
a c
on e
g o
lich en
ein en
o b
t ra
V or
he it
p r
b es
ch t
b r
f in
A r
s ie
in ter
der n
A b
sh ould
B er
c an
h er
P res
u e
l t
hr en
at es
u re
un ter
rä s
o w
we it
m or
v o
er s
l ament
p rop
pol it
at en
u g
En t
em ber
m o
c omm
in c
i p
m ust
en s
räs ident
b le
ation s
ro m
i ge
Par lament
s am
be it
li ament
ä r
par t
ö n
Pres ident
c ial
ur ch
F r
co un
f rom
i re
ation al
l in
ic al
b ut
ü s
r it
dies e
d u
k en
st a
p res
F ra
ul t
omm en
ct ion
p os
n ach
ch en
ig h
se l
ver y
be en
Par liament
Ber icht
it ion
E in
f r
ou s
as s
I t
G e
P räsident
al le
s pe
y ou
S ie
k ann
ve l
an der
p re
d is
k ön
h in
A u
dies er
p le
i ll
d urch
a ge
t re
G r
ut ion
n ational
l an
M ember
e it
üs sen
ar y
E U
no w
mö chte
lich e
o d
mor e
Europä ischen
ö r
ar d
t ro
no ch
ä t
u te
f f
o un
m üssen
coun tr
g ro
p er
i de
wor k
o ther
i h
c il
ge m
ü n
g lie
l ic
1 99
i z
li ke
ier en
m uß
Re g
w ä
p t
c ess
se d
ct ive
te l
ch e
is h
for e
an s
n ah
ier ung
so ll
Th is
w ur
zu m
wh o
con c
an ce
ig ht
D as
2 00
th ese
er st
e ar
k on
n ur
al ly
re port
Mit glie
con s
gr am
m ar
u d
h o
h and
om e
le gen
y st
an k
sch en
ment s
o k
t im
l ä
in st
o g
dies em
E s
yst em
ein em
C oun
g lich
s er
ge gen
re at
h l
s icht
te il
c au
kön nen
Coun cil
tz t
ble m
e f
w enn
kt ion
o der
s ib
ü ck
C omm
re ich
ne ed
at ive
pol ic
un der
ab er
ig keit
g t
the ir
ge l
uns er
a hr
Fr au
an z
wh at
be t
h men
Mitglie d
ier t
St ates
s ol
c r
w ay
d r
U m
a st
ge b
im port
s a
lie ß
the y
in t
at ed
k ommen
l ar
v ent
f ol
an y
s ein
su p
cau se
igh ts
i ous
st and
n ung
a k
st en
a ct
m in
s ome
ta in
vel op
f re
se hr
d am
M en
c ed
b ar
u b
p or
en z
se tz
m y
urop ä
s it
le ich
de c
Mitglied sta
ges ch
K on
ab out
ge t
us s
me hr
y ear
w icht
prop os
ne w
ar beit
countr ies
i der
M a
n is
an ge
Un ter
fü hr
ut z
än d
ic e
it te
on ly
da y
sch ließ
e uropä
fa ct
d ire
z w
at ter
i a
D e
Vor sch
as sen
n er
Z us
v ie
weit er
it ies
c y
qu est
de velop
D ies
u ch
dies es
Men schen
pres ent
t schaft
ein es
ck l
t y
d s
be cause
R at
is m
op le
ges e
f o
h ier
ag re
o ch
on der
e con
le ar
c es
j ust
an g
o se
p la
Ä n
o ver
je ct
tim e
wi ckl
s on
Än der
pro v
k ing
S o
part ic
Mitgliedsta aten
on g
import ant
f ir
in s
e ben
re as
hal b
te t
iv en
un ity
tr ä
Gr und
polic y
F or
K ol
de d
ber e
b o
em ent
il ity
su ch
um ent
200 0
ib t
ra p
th ing
conc ern
um an
K o
ig t
u ation
l and
ig n
pe ople
su b
ul ar
In ter
än der
Ent wickl
Au f
it ät
s ystem
D er
ne hmen
com e
ag a
f ä
G em
p f
ust r
l os
m er
t ing
pro du
it e
i ß
g u
ie d
at t
es ch
ste ll
v en
ta ke
c ur
d if
w end
de ut
op er
sch e
Gem ein
p on
z ial
st ü
am men
b as
i den
r ights
pro gram
z ie
pro blem
in to
c lear
de b
ah l
the m
hal ten
nah men
itte e
ur es
wir k
there fore
re ad
s ay
v iel
ge ben
Ar t
wur de
Zus ammen
ch ts
in v
ol it
ma ke
econ om
be ing
te ll
c our
for der
ih re
g leich
b est
ä m
ch n
un kt
pe ct
Ü ber
in k
la g
d ing
al t
Fra ge
j ed
l le
ste llen
f all
sib le
em p
Europ a
k te
R icht
ig er
partic ular
sam e
B ere
Ma ß
sup port
br auch
m on
bes onder
is ation
ig ung
i hr
199 9
iv es
h uman
we ver
h ar
we l
Europä ische
h ör
it i
ra g
ur al
f u
den en
S ta
olit ik
A s
g ibt
Z eit
w ür
gem ein
ver n
ol og
ne u
we il
if ic
c as
F in
we en
wh en
re l
is ion
po int
bet ween
an sp
at s
ma de
o t
l au
Änder ungs
su re
r icht
w en
str u
Ar beit
zw ischen
le d
or der
ou g
wh ere
at z
form ation
son dern
res pon
it ution
fir st
k now
r at
H aus
en ce
ve d
th an
polit ical
dam it
v ir
st änd
dies en
jed och
ä ch
d ann
ze it
reg ard
so cial
w ere
th ose
ion en
o c
we lt
L and
wir tschaft
c er
h ere
ge hen
at er
gro ß
we ise
Commission er
i ent
cons ider
Bere ich
u al
x t
stü tz
p ub
iss en
Z u
m ich
ent r
am end
ord nung
m s
is ten
ke t
hal t
Herr n
J ahr
ander en
ef fe
ce pt
I h
Aus sch
ap p
fa hren
europä ischen
B ür
u es
n at
ar t
ge ht
Entwickl ung
k eine
ges t
sp re
gan z
F re
on ment
of f
la st
quest ion
vie w
C on
f und
f ra
com p
at ing
den n
tra g
h n
qu al
as k
man y
ord ne
th en
inter national
vir onment
ge ordne
ion al
go vern
b st
with in
in nen
ach t
so wie
se e
m al
ol le
am e
th ink
sich er
g reat
ha be
mo st
ic ult
he ute
or s
r ight
ate g
propos al
sch ie
bere its
k l
mit tel
uns ere
b al
Richt lin
v ing
br ing
ad d
iss ue
deb ate
p en
w ant
de t
Mit tel
T e
l u
S e
st imm
develop ment
l ess
v es
M in
S tr
ul ation
f ar
am en
Comm unity
w ort
ach en
Comm ittee
än dern
b ess
f est
fin an
Parlament s
Maß nahmen
b in
wo hl
lo y
cer tain
i le
bes te
be lie
Ab geordne
ch ten
b ie
is ed
la gen
w es
f fen
st er
do es
dis c
ex am
con t
i an
er g
p ra
bes ch
schaf ts
t t
t un
b is
p a
in e
hand el
is k
Fra ktion
res ol
read y
le tz
ple ment
ste hen
w a
Re chts
can not
K ommiss
Vorsch lag
is l
or gan
pro te
sa gen
year s
ent lich
all en
d ra
c ould
o h
me as
l es
con d
B esch
Th ere
Mr s
k omm
mö glich
ow n
G ro
wicht ig
we is
A l
u se
res s
ud get
c it
wie der
in n
te chn
Kommiss ar
e ven
en vironment
inc ip
a de
d an
ke l
pr incip
ro ug
ah men
econom ic
m atter
ad op
agre ement
pos sible
imm er
z we
ser v
R ahmen
p iel
Bür ger
H o
pub lic
re chte
cour se
le vel
dar auf
is ter
nah me
unser er
gr und
trä ge
gen ommen
ne t
leg isl
ich er
we ll
pos ition
soll ten
al ready
aga inst
r i
ä tz
to o
e le
Richtlin ie
p lan
Um welt
sit uation
p ut
t wo
re cht
so zial
W ie
il d
m ir
Pro gram
oug h
re al
L e
ter n
oper ation
ut ions
belie ve
dire ctive
emp loy
mar ket
cit iz
y our
da für
M e
vo te
l uß
Kol legen
c ted
do ch
se t
soll te
zu g
S it
spre chen
al th
alle m
P olitik
wä hr
vent ion
Th at
im in
leg al
re d
re qu
or y
fü hren
l icht
v om
ab l
go od
p l
I m
iti ative
a ction
t ion
k er
s atz
D a
be g
Z iel
ma in
ta ken
W enn
e very
ke hr
com pe
M ar
polit ik
dif fer
spe c
m eine
m uch
ha d
ver s
u ro
fu ll
D em
or ity
sel f
vo ll
i o
ap pro
f ul
ha p
ges tell
ok rat
countr y
sel bst
N ach
n um
besonder e
reich en
isch er
ers on
w n
pro cess
ho pe
O r
finan cial
b re
N o
h ow
ma y
setz en
im plement
to day
g ent
sa id
l assen
ihr er
Th em
lar ge
b udget
tr ansp
kl är
J a
it ed
inc reas
hal ts
meas ures
st ill
comm on
en g
is ierung
G en
f ut
c ar
are a
cas e
sche id
H er
setz ung
ant rag
G es
Fin anz
pla ce
a id
is piel
roug h
of fen
p unkt
S icher
C har
Pro blem
ä ft
wo llen
je tzt
cont in
los sen
c ent
k s
t al
be wer
gen er
so c
ein ige
Ih nen
M ein
st itution
ier ungs
da zu
ür lich
ü ß
la ge
H in
h ol
cur r
Ho wever
h ä
num ber
fut ure
reas on
bess er
w issen
are as
res pect
wür de
u ck
ant wort
gan gen
ll ow
Bericht erst
citiz ens
ber al
ö s
in formation
ind ustr
por te
exam ple
ab ility
A fr
wur den
neu en
an ges
st at
D es
ne cess
v al
st im
l ong
ct s
bo th
oh ne
h is
lich er
th rough
it ä
Gro up
heit en
pres s
t i
pos it
Berichterst atter
B ut
g ar
h igh
ö l
str ument
aus ge
lie gen
Ge bie
F l
at te
all er
en sure
wh y
gro up
inv ol
be gr
ac cept
ical ly
L änder
fa ir
führ t
amend ments
porte ur
n un
ber eit
program me
fall s
la w
te gr
es sen
ze ich
ur ing
Ko so
abl ish
Ver ein
sp ra
au th
ou se
kt ur
disc uss
Dies e
est ablish
ach ie
sch on
Ent schließ
rap porteur
be its
M on
in ce
hal f
se it
ent ial
govern ment
il fe
pro ced
ic es
ze l
wor den
gestell t
dar f
op in
Änderungs an
L eben
G ese
d i
g a
nis se
I f
re t
ne ue
rit t
a ges
th ank
m achen
ma j
Koso vo
reg ional
compe t
h än
he l
tr if
glich keit
ge leg
tr ans
a ck
ß t
m einer
ag t
Ab stimm
Fra gen
ten s
trif ft
N e
im p
M ö
es ts
re present
ins besondere
it al
ur ther
r if
me ans
Ja hren
h ö
kön n
z en
f ung
z ahl
E uro
Re cht
program m
H and
particular ly
resol ution
ge w
necess ary
K r
l im
entr al
2 0
re e
co operation
Haus halts
wä re
ä ß
F all
k lar
Ar beits
or ities
con tr
g iven
te xt
problem s
employ ment
ff ic
et was
dec ision
ein mal
polit ischen
wor ld
tre ten
ß er
prov ide
au m
Ent scheid
st att
be fore
Sta aten
ä uß
Pro ble
ass ung
Te il
g ive
k un
not wend
best imm
ist r
ander e
K in
z ip
str ateg
T reat
a v
s c
re form
o cr
om en
ac c
prote ction
with out
Mö glichkeit
H e
ö ff
ism us
N amen
tt bewer
f le
s ätz
Be it
fer enz
c ing
he ther
H ouse
Ver brauch
ze ug
re fer
lich keit
Str u
aga in
ä hr
ig ten
opin ion
ttbewer b
G er
vor sch
Sch utz
princip le
l er
T r
pro m
St and
Aussch uß
se ct
con f
men d
s eine
Zusammen arbeit
re i
S ystem
i kel
w hether
an te
ord in
sam en
h ang
l us
po in
s or
letz ten
ter ms
Member s
uss es
ir d
i um
iss ues
w ish
der ung
Re gel
sh ip
ges am
ate ly
weis en
d ür
at ic
el s
hand l
A ll
fin den
differ ent
B r
k äm
curr ent
z un
le icht
cons um
Menschen rechte
z war
al ten
re m
ser ious
Mein ung
W as
wirk lich
concern ed
Art ikel
öl ker
ho wever
nat ürlich
comm un
ament al
fol gen
s af
ex tre
sib ility
s ign
unter stütz
requ ire
ll schaft
1 0
g ung
g ere
be half
ik a
gese hen
Abgeordne ten
P r
fa hr
S te
re du
ac coun
Unter stütz
n al
is ions
con tro
rap h
A m
in ner
lo ok
stell ung
st är
im e
tra gen
ill ion
propos als
gr icult
inv est
W er
f un
Reg ierung
De b
Gemein schaft
bring en
f ind
g lau
A mend
spe ak
n äm
gan g
näm lich
k ten
s s
handel t
zwe i
Unterstütz ung
ste ht
a ir
kt or
stim men
L ändern
M ad
de fin
ul es
vie le
j a
wer t
beste ht
E ben
j en
L i
v ious
p end
ch ange
it ions
inst it
z ü
sp r
alt ung
of fe
We lt
fo llow
1 5
a gen
We ttbewerb
R ates
st ar
se hen
u er
re if
Des halb
pro ject
Änderungs antrag
b an
man age
imm t
who le
Kol leg
Zusammen hang
stru ct
Proble me
ra ft
m il
o sed
s ince
aus sch
Änderungsan träge
k o
ge hör
go ing
y ing
de al
ien st
k ur
c rit
ier ten
sel ves
gese tzt
gr ö
führ ung
Vorsch lä
Präsident in
se qu
ver schie
Verbrauch er
reg ulation
zur ück
dar über
- ,
B est
O n
k ün
ie ty
So zial
c or
ah re
prop osed
Abstimm ung
c re
k es
lo bal
ment ion
ach e
fe w
it t
dif f
Sit uation
am b
ne h
ke y
Mad am
i hren
mö g
comm it
zie h
r isk
in zip
sicht lich
bas is
diff icult
ne xt
op port
ück sicht
Them a
f assen
er forder
be trifft
es en
Unter nehmen
instit utions
j o
w är
lie gt
f urther
b au
ic t
ab il
W hat
n or
ein ge
iv il
stell t
1 2
B ed
F und
g aben
pro chen
s einer
on ds
ie le
fa v
pra ct
F e
way s
ma ß
fin anz
spra che
contr ib
gen d
Sicher heit
ex ist
lic k
wend ung
G esch
c all
af ter
ma king
inc lu
legisl ation
p ay
adop ted
T o
m ed
u sed
u ally
Deb atte
ie den
war ds
in de
com ple
Afr ic
am il
ib le
ges agt
sub ject
b t
v ar
Ver trag
rif ten
g ut
in itiative
ar ante
ent lichen
da her
ein zel
se cond
Ver antwort
co st
qu ite
cur ity
environment al
b ack
ic le
deut ung
spec ific
M ill
v is
if e
da von
extre me
W o
c al
Be deutung
por ts
P unkt
in tegr
all ow
In stitution
ame work
full y
Treat y
c ap
ent ion
ing s
pr i
fo od
d one
en th
gegen über
sh all
E m
mar kt
fav our
A ber
e igen
me et
reg ions
lin e
lan g
inst itution
Leben s
gu arante
St ate
it en
kun ft
be l
a ce
agre e
ex t
gesch lagen
ein f
zu sam
Re chte
Besch äft
appro ach
A uß
do wn
clear ly
An sicht
Aus sprache
ac cess
national en
st ate
res our
g ress
n ie
es pe
ta x
T ur
In formation
dr uck
accoun t
1 9
v i
ver fahren
hel p
soc iety
E R
J ahre
t schafts
ver ständ
ze ß
go ti
Frau en
be zug
au ßer
ed om
pr ü
qual ity
y s
ra ther
Kon tro
begr üß
f ör
v an
Ver fahren
po wer
Reg ionen
c lo
der en
geb ra
komm t
wi er
are d
äch st
effe ctive
geleg t
unser en
zusam men
L ös
z weit
pro mo
war d
fr amework
c olle
w omen
ne goti
unterstütz en
Pro du
ent s
im pro
ver kehr
arbeit en
V ol
EU R
Min ister
Un d
prop ri
r u
s weise
Un ited
ap propri
sp olitik
po st
contro l
if ied
pf ung
I s
C h
F isch
s m
w ater
kon k
g ern
reg ul
car r
ge geben
Ver ordnung
An d
gen au
work ing
p erson
vor geschlagen
00 0
Or gan
Z ust
p ens
des halb
dem okrat
ap pe
iel en
ding s
at ives
it self
ze pt
r än
ich te
ur n
dar an
i ar
ier te
iv id
techn olog
sozial en
er k
An t
St ra
199 8
a gricult
to wards
op en
kann t
T ages
at ten
sch ein
str eng
cial ly
teil ung
some thing
res ult
L u
e p
r ules
s id
it or
hän g
add ition
resour ces
D isk
so llen
fer ence
fä h
A 5
il t
ial og
ik an
zie hen
D urch
G leich
f te
ro le
be de
dire ct
programm es
Stru ktur
D ar
b u
ess ential
B es
s um
wi esen
lin es
fol g
Art icle
3 0
icht s
su c
schaf fen
europä ische
dür fen
A f
L age
e ig
Re form
hal te
respon sibility
S E
T O
We ise
e ach
w ach
al e
igkeit en
proced ure
W i
gener al
posit ive
in strument
ste p
Th ese
gesch lossen
espe cially
o gen
kt iv
polic ies
dan ken
ze u
währ end
poin ts
a il
o st
polit ische
tro ffen
bas ed
Me hr
könn te
käm pfung
l ud
m illion
le t
comm ittee
glau be
is ing
le ben
se curity
tra de
pf licht
S eit
z ung
Gemein schafts
groß en
K om
ab ly
gr if
Kolleg innen
dem ocr
ob ject
Europ as
Wir tschaft
fund amental
h ät
for ce
sta at
under stand
w ün
un de
re cent
h au
ta king
Vorschlä ge
Q u
p ur
ge legen
he its
Aussch usses
gent le
A t
der zeit
ind ivid
Er geb
war en
cr imin
d uring
f ts
j ob
Reg ierungs
ktion en
Entschließ ung
sect or
Eben e
c ult
m one
ein zu
ic ial
Pro je
A ustr
H a
b ind
v ölker
he alth
ct ions
The y
erst en
bet ter
lud ing
w are
be d
sch utz
ex per
fol gt
fra gen
mo ve
achie ve
extreme ly
P ort
In d
industr y
R ights
b ur
g lobal
pro gress
Mar kt
notwend ig
le ast
fe hl
ob je
prop er
iden cy
gentle men
a im
ge ther
pre c
serv ices
compet ition
re co
Be ispiel
et y
k ein
er t
fair s
ein igen
ard s
var ious
5 0
M an
nicht s
gr at
Li beral
mone y
ber ücksicht
Program m
u f
om ent
ier ungen
tr au
inter ests
F ir
l on
ar ge
ge führt
ing en
for ward
ex press
dar in
sche iden
itä ten
le ad
wi c
se em
inter nal
mer k
ster reich
acc ord
E C
h offe
commun ic
Institution en
th ree
se i
ef for
fra ge
reif en
k le
re ally
da bei
concern s
hä lt
Tages ordnung
R olle
k ind
in ten
wer de
pr iv
e hmen
un den
to gether
her vor
fre edom
Port ug
ent sprechen
wel che
effe ct
H au
an im
or e
re chts
for dern
import ance
Stand punkt
i od
in ess
so wohl
An gelegen
b us
be ding
we gen
Ver w
fe el
kon ferenz
need s
W h
W or
ab sol
Wir tschafts
schließ lich
beste hen
d id
e hr
f onds
ter m
We g
wel come
in tro
ch an
on ce
at iven
N at
S ol
ü br
be ispiel
gen ann
Er weiter
gebra cht
schaf ten
com es
intro du
m ut
ic k
Dem okrat
contin ue
Kin der
s ur
pe ace
enn t
m ember
sp räsident
ben ef
mon th
saf ety
F ort
l auf
an ts
inc luding
Zu kunft
ffic ient
pre vent
Au ch
manage ment
H ilfe
d rei
ist s
U N
b lick
la ck
Pro di
brauch en
app lic
N ot
Z ahl
Be i
Verantwort ung
impro ve
E x
com ing
fä hr
grat ul
in form
ation en
Aus druck
Amend ment
ter s
af fe
reg ion
kon tro
econom y
N or
ent wic
ge d
ger ade
a ware
su chen
auth orities
Fir st
th ird
an other
Ab kommen
quest ions
besonder s
B innen
tz e
ass er
deut lich
oug ht
B ar
al ways
ver sch
per iod
Gen er
p rä
En erg
Inter net
konk re
ab häng
M ed
b il
en large
dr en
For m
forder t
wär t
e vent
is es
den ken
il dren
Be völker
tre ffen
J ust
l ight
invol ved
inner halb
L is
In itiative
cond itions
transp ort
ä d
we d
sol che
fund s
transp ar
te i
ou th
act iv
groß e
stat ement
beispiel sweise
1 1
n äch
sch ne
ad min
enz en
maj ority
z ogen
al k
id ar
des t
des sen
ga be
Lös ung
sm all
dem and
wa ste
p ers
tra d
Gebie t
B em
iden ce
Jahr es
object ives
sh ort
Um setzung
Entwickl ungs
produ cts
y l
be come
la dies
Mill ionen
P erson
f ang
i ben
o ll
re le
re ach
Gr ün
ih nen
wirtschaft lichen
Afric a
i ther
v ision
re icht
so ur
un kte
sch ied
ra cy
er halten
ch ildren
ro w
vor gesehen
dar um
bus iness
Erweiter ung
ro ad
se its
teil en
Char ta
s im
en ces
er b
un i
de l
me an
project s
Regierungs konferenz
übr igen
l en
ß en
an zu
Ein e
bere ich
rel ation
certain ly
organ is
kün ft
reco g
as pect
ll ig
ex p
äuß erst
D ienst
F ör
j ud
wh ile
tr ie
einzel nen
d ort
g ilt
i ation
re ce
le isten
hin aus
F ol
l ife
es se
sch wer
ass ist
gro w
great er
dra w
ild ung
Z iele
c reat
t able
do c
suc cess
f l
en cy
auf ge
Tr ansp
doc ument
l änd
y et
1 4
C O
S p
an ces
Er klär
ans wer
zeit ig
comple te
l ück
m als
up on
kur z
A spe
g ra
ie f
te m
ig r
Ver handl
po se
W ort
en erg
ein deut
opport unity
obje ctive
R es
Ver tre
fin det
inter est
sub st
is en
ra chten
il y
amend ment
hn t
group s
B 5
le a
ein ander
m ult
v ic
Sch af
ip fe
F ä
as e
gem acht
R ück
b our
r en
u ten
er reichen
increas e
Z we
re gel
ha ving
lo cal
imp ly
democr atic
m äß
den ke
if iz
Au ff
E G
le ist
rit te
ch ar
il fen
Be kämpfung
tell ung
ie llen
ge währ
ak zept
Con vention
P ol
T ür
ent scheiden
le is
wor ds
ult ur
zun ehmen
I I
p op
att ention
l än
be im
ol d
Herr en
e th
st o
cre ate
A mer
ch er
li beral
vor liegen
An wendung
Reg ion
conc lus
comp an
maj or
E rachten
H ier
i x
he iß
co ver
av ail
Erachten s
D ank
er mög
ge fähr
all es
fre e
wen ig
matter s
f ight
k ung
con st
Abgeordne te
un t
dec isions
system s
respon sible
follow ing
C our
ie ld
pro f
mar k
Char ter
mention ed
enlarge ment
e v
n ing
we g
eben falls
ster dam
serv ice
hap pen
Am sterdam
mil it
admin istr
. .
1 3
D en
S tellung
w uß
und heit
weit ere
M il
Fre i
s imply
ü h
En de
Wi th
d ou
s ing
z iel
ap er
par liament
Ih re
dra ft
Cour t
ide d
wen iger
C 5
h on
of ten
spe cial
Hin blick
ein z
Be hör
act ions
Über ein
grö ß
e ded
k r
v ier
at ast
isch es
ex ce
hat te
Fin ally
verschie denen
be zü
and id
we iß
bei den
Ko sten
viel leicht
implement ation
agen da
B alk
n ame
st art
wicht ige
W asser
all gem
ex c
lo w
mor gen
Ge ld
other s
utz en
gemein samen
Entscheid ung
d ien
ent er
act ually
hap s
zieh ungen
atast rop
con tain
In strument
einf ach
appropri ate
2 5
at or
gegen wärt
Grund lage
m oment
ig in
am t
ed u
po sed
wirk ungen
wür den
ats äch
Fl ug
Schaf fung
m eines
t ask
um fassen
if y
ander er
dr ück
gese llschaft
international en
K rit
M al
c l
p ast
in er
the less
sing le
L A
er klär
auf grund
Ver pflicht
Wie der
verständ lich
S ub
b on
l ändern
ie g
sch re
for tun
Inter essen
cas es
Program me
gangen en
Gener al
Y ou
ent ly
Fr ieden
eigen en
U S
a kt
c ivil
Sch luß
organ isation
legisl ative
M y
W ahl
p ass
v ö
ch allen
is ik
stand ards
princip les
m ight
an genommen
D ah
M o
l ig
Arbeit sp
hin sichtlich
I hr
c are
viel en
Verein igten
Wettbewerb s
wur f
colle ag
Dah er
s einen
we e
ra gen
gem äß
app ly
Gese tz
Disk uss
Af fairs
G ipfe
c en
on t
ute t
schließ en
thing s
oc racy
rece ive
D amen
f ield
Ö sterreich
ro ss
Be ih
Con ference
th ough
st ens
au er
Aus wirkungen
fü n
comm end
It al
over n
gemein schaft
Tur key
c ut
sh ow
do ing
wes en
U r
f amil
ke i
con gratul
alth ough
Em p
compan ies
t atsäch
or igin
ent en
wi der
po ll
pre p
avail able
Auff assung
de ta
ur s
con text
res tr
Par t
ag o
je der
aussch uß
J e
n ess
so gar
sta in
pla y
stü tzt
regard ing
vi ol
Demokrat ie
För derung
h ist
ständ ig
sozial e
gehör t
C hin
k einen
er wä
to ur
Ver besser
af fen
qu e
aller dings
Beit rag
individ ual
G overn
er ste
it em
de ter
su g
pre vious
neu er
far m
dan ger
Gese llschaft
agricult ural
je den
partic ip
consum er
erforder lich
Tür kei
heiß t
h end
re fu
he ad
ne g
sh of
ien ce
200 1
increas ing
accept able
conf lic
Binnen markt
e h
k ut
am oun
con stru
Ver kehr
Par ty
vo ted
So cial
jen igen
negoti ations
. )
f our
t es
ne ver
Gesch ä
d ist
be kannt
ig ungs
gemein sam
agreement s
government al
schne ll
B o
F est
s us
te id
alle d
gro und
weiter hin
mon itor
Bed ing
näch sten
D och
F ür
m einen
our selves
Re i
vor zu
fre i
eben so
ific ation
fle x
b it
ges prochen
Inter esse
Ste uer
Best imm
Beschäft igung
Information en
I r
W ähr
n on
St abil
ün d
stand en
schließ end
inde ed
enth alten
ch o
au d
el le
ff ice
ihre m
gest immt
co ordin
gemein same
itä ts
Fort sch
m den
an u
be tra
off icial
Kommissar in
S econ
l änder
en de
at ent
ver b
no thing
he b
ke ep
up pen
Grund rechte
rel ations
prote ct
Fisch ere
w ahr
no v
ih m
month s
Bevölker ung
Secon d
sch wier
aus zu
halt ung
Govern ment
Geschä fts
A C
K ultur
P os
k om
in ing
Bericht s
trä gen
m acht
s ag
st ra
dem ocracy
fer t
gu ide
sign ific
Mehr heit
LA F
fün f
am p
iv ing
ze hn
min ister
govern ments
jo int
lon ger
vö llig
1 6
B SE
E A
L eit
m iss
in ge
ich tet
am ong
Be l
str ong
Lebens mittel
communic ation
L iss
e ver
ö t
ab on
mit t
Be ziehungen
Pro zeß
leg ation
enn ung
Is ra
Lis bon
Liss abon
I N
O ffice
S ü
tz en
üs se
dis ast
m b
m ind
al en
sub sid
effor ts
energ y
t urn
an al
st ates
be wuß
ex pect
war ten
Ge gen
fir m
concern ing
besch äft
maß nahmen
D am
R isik
r uck
v ol
it er
or g
Ver fü
wor ten
po t
bar en
Kontro lle
Not wend
D ire
T ext
g ute
s y
s he
in ne
ob lig
fr ist
vorsch riften
prec ise
c alled
e qu
ä u
to mor
ig es
ze igt
ble iben
lin ien
teil t
them selves
Sit zung
strateg y
öff entlichen
clo se
Rei he
tomor row
b order
of t
im um
rit ts
ition en
dis kut
Land wirtschaft
current ly
Ant wort
f li
t ung
ch es
ic s
ver treten
ck en
pr inzip
unter stützt
lan gen
develop ing
Rat spräsident
Her aus
P ri
h u
l ies
in iti
on str
at is
ta g
richt ig
bis her
d ue
t on
Ö ff
an a
as ed
ide a
weiter en
har mon
O LAF
S el
Z un
h es
z entr
to p
gr ar
sol ution
Str ateg
cost s
h im
st re
me t
könn ten
itt le
merk sam
Z weit
r aum
en ough
in dem
der t
of fer
se ver
lie d
rit ten
ff iz
regul ations
Austr ia
L et
l ittle
lo k
tel le
emp has
Entschließ ungs
neh mer
guarante e
Verhandl ungen
Pri or
) )
S um
d isch
ü cht
Pres idency
Präsident schaft
hät te
Ind ustr
leis tet
L in
is her
ut es
ir c
gr enz
ma kes
mar ke
Dies er
led ge
A grar
J u
j ähr
unter schied
Ge fahr
Reg ierungen
sicher heit
Al s
consum ers
member s
Notwend igkeit
f ish
p h
s om
le it
ra c
än de
gel ten
absol ute
Amer ic
Beding ungen
c irc
g ument
ch anges
le i
com b
per haps
Lu ft
H uman
S icht
T ats
u ese
der s
ar r
qu o
dr ing
discuss ion
Ger icht
Portug uese
entwic kel
Gipfe l
P al
c lar
v est
er reicht
ll t
we der
wicht igen
last ung
S erb
h lt
re main
An trag
part ies
fo und
bas ic
Auß er
job s
seem s
Behör den
Arbeitsp lä
Second ly
re quest
ab zu
res ul
Ver trau
wen den
reason s
C o
n immt
un er
fol ge
Menschen rechts
schie den
fäh igkeit
table d
fortun ately
O b
Th ank
od y
gem essen
kon n
Auf gabe
gleich en
komm ens
Auß en
guide lines
S pra
st u
st um
de f
unser em
richt ung
handel n
gesam ten
N A
d om
at ory
ll ent
tr y
fa ßt
forder ungen
fall en
bede utet
bezü glich
J anu
r as
an e
ent liche
con sequ
In form
up pe
ken nen
P e
V iel
199 7
val ues
N ahr
ch nung
re ct
for t
ol ate
sp richt
tre at
hl en
Sta ats
stru ktur
Pr inzip
appe ar
M iß
Z um
m einem
it ing
ver antwort
port ug
lä u
proced ures
provide d
portug ies
a th
f ern
k rit
en cour
re commend
vo ting
pres sed
Organ isation
B as
P unkte
U hr
b uch
h nen
at iv
re pe
to m
he ar
ne eded
res t
produ ction
Energ ie
exce llent
en ch
an ted
Kommission s
ty pe
bur g
grow th
T ag
b zw
sh are
üs sel
lä ßt
Kon fli
Vorsch riften
Bereich en
inclu de
activ ities
pop ulation
1 7
1 8
D ok
f ive
re ports
se x
zu sätz
ab o
auf genommen
ach ten
In vest
ib ility
hat ten
comm er
Gemein samen
wür d
Vol ks
2 4
M är
f ten
ch oc
Par tei
ob vious
Berichterstatter in
meet ing
eindeut ig
I ra
K ap
M E
c ation
be teil
con ne
res pe
ce ed
dem onstr
sie ht
prov id
prov isions
Min der
main tain
Hand el
bestimm te
Vertrag s
eig entlich
Erklär ung
Dam it
Nahr ungs
P ost
e as
it im
zu stellen
lan ge
sol chen
agre ed
sub mit
ater ial
zun ächst
disch arge
Außer dem
K ön
N icht
m üß
re in
te ile
ig lich
se tzt
su stain
ex ten
ste ad
Ge legen
commit ment
genann ten
Beih ilfen
Part ner
O ur
Q ual
m is
u ld
le tzt
ver fü
ver hin
fa il
sta ge
Änder ung
le ment
part ner
berücksicht igt
Verfü gung
Dok ument
choc olate
i ans
m and
r ing
y o
y es
or r
der art
ge wiesen
us ing
af f
com prom
gleich zeitig
Haus halt
adop t
eth n
k rä
s an
in ed
it u
su fficient
sen se
qu ick
gese tz
led iglich
ask ed
techn ical
Möglichkeit en
crit er
ialog ue
unt il
A ktion
W ar
ch ter
se en
ver ein
ind ic
ug os
day s
Fre mden
bal ance
establish ed
Sel bst
D ER
L EA
b lo
er inn
im ens
ok ol
arbeit et
anges ichts
Verbesser ung
IN T
LEA DER
o wed
re p
et wa
Them en
hon our
signific ant
Inform ations
ent ire
demokrat ischen
prep ared
i led
ü hr
me th
me chan
ta ck
ad van
ungs verfahren
Mit teilung
Te chn
Fl ücht
N r
b ody
e ither
ll ing
he ut
mo tion
reich e
utz ung
just ice
prü fen
kle in
rele v
Chin a
Zweit ens
H els
R EG
W TO
m ere
en or
at ors
it z
im es
ra d
Un s
Reg ional
ink i
Dem ocr
promo te
carr ied
schein t
streng then
deter min
Hels inki
P f
a ctive
d ialogue
h ne
i ze
s einem
be troffen
ra ised
so on
ex pressed
who se
por ted
get an
INT ER
P len
S an
S or
z entral
iel le
Sch ul
erst er
wirtschaft liche
ele ct
conf idence
sag te
INTER REG
er fü
to tal
res ear
In tegr
Pro to
Sch we
fin al
unter nehmen
plan s
zweit e
accord ing
D ialog
h err
pro zeß
arbeit ung
read ing
compet it
Struktur fonds
aspect s
resear ch
R om
w and
en den
un ities
tr ue
if el
vor gelegt
ih n
cr u
present ed
fä lle
Entscheid ungen
Nat ur
benef it
Vertre ter
Öff entlich
h ung
m ein
le ider
ein gehen
ed on
En g
Sch ritt
Fr ench
fr aud
lan gu
Bür gern
add ress
pens ion
Frei heit
Zun ächst
r ang
er ien
be ant
tr u
leg ung
Er stens
wo bei
wes entlich
congratul ate
O ne
d at
h ard
if f
Sch okol
mo dern
pra kt
Emp fehl
Gelegen heit
i op
st ress
be für
sch t
ver gangenen
For sch
contrib ution
Seit e
Bestimm ungen
resul ts
P re
S outh
l ist
un abhäng
ent e
se c
fund ing
ade qu
through out
n ü
o ten
be ar
sch luß
Re chnung
fa ce
ass ess
sol idar
dec ided
Tats ache
g raph
l ö
r ural
s age
ver stär
fa cil
ult ure
human it
nat ure
mittel n
Verein bar
k tr
s ide
th iop
ich en
Be tr
Richt ung
istr ib
require d
Ergeb nis
Proje kte
trad ition
refu ge
Strateg ie
marke ts
8 0
F amil
b ank
p ite
st op
ge wä
he ben
fa st
Zu gang
pract ice
för dern
addition al
hau pt
Öffentlich keit
P ra
R aum
S inne
er ne
al ität
ir gend
ges sen
ün g
Mitglie der
land s
sor gen
neh m
exist ing
integr ation
wün schen
tatsäch lich
Isra el
bewuß t
ha ft
ag raph
Mitgliedsta at
Zeit punkt
zeich ne
ennt nis
recog n
sever al
imens ion
l ung
on d
he ld
ess ion
mo del
unser es
setz ungen
grund legen
Regel ung
ikan ischen
4 0
a vo
s atis
ü lt
fore ign
fo c
Se ktor
Besch luß
spr uch
Angelegen heit
applic ation
c kt
s k
in nov
an no
ie ll
su cht
li k
co unter
ger ungen
hin weisen
Amend ments
crimin al
Fischere i
an gemessen
ter rit
mit glie
part y
cr is
sit ting
pend ent
uf ig
assist ance
allgem einen
N os
zu stimmen
ab ge
leg t
Ab schließend
Ein führung
pre par
say ing
Afr ika
achie ved
institution al
transpar ency
amoun t
criter ia
H ö
b ildung
c entral
i ver
ch st
ge hend
res er
co her
We l
dis crimin
produ ct
implement ed
zeich net
Kr ieg
saf e
quick ly
b itte
e llen
de la
sch em
ab our
wir ken
conc lu
ho ch
geb ie
Ko ordin
Inter governmental
los igkeit
appro ved
cor rect
ren e
Sum mit
NA TO
F ern
N ationen
as soc
ta ge
po ver
Vor aus
är m
lan gt
level s
bre it
First ly
Leit linien
f fer
h ilfe
p ted
ch ild
it err
ig te
um e
je dem
contin u
tal k
verschie den
cap ital
complete ly
" .
l ive
su ffer
end lich
br u
prov ision
ständ igen
regard s
groß er
stehen den
every one
sätz e
Beit ritts
pri ority
bede uten
ermög lichen
T i
n issen
for men
po or
el se
sel s
inclu ded
Kom prom
Angelegen heiten
Diskuss ion
AC P
abo ve
A K
O s
s inn
ct ural
ist ischen
Re de
dam age
wen det
represent atives
Stru ctural
crit ic
begrüß e
grif fen
Grün den
Transp ar
Stellung nahme
dou bt
conflic t
AK P
E N
E ast
S ache
W ach
f il
g ing
k einer
is on
is se
le ge
be treffen
ur gent
auf zu
br it
inc or
inc iner
ple ased
gesam t
gere cht
struct ure
Sp an
anal ys
relev ant
K raft
P P
t est
er en
on en
re fle
wer te
An satz
Grund satz
spec if
anges prochen
Fe bru
organis ations
H altung
L es
V ielen
a i
b are
g re
n ommen
ver standen
work ers
anz ös
Land wir
besch lossen
tal king
begrüß en
D aten
T ät
er heb
ar ian
ann ual
imm igr
Ab satz
comm unity
Rechts vorschriften
hol d
priv ate
A L
B rit
P aper
d ienst
h ind
an gen
am er
am pf
ic y
icht en
op h
ex cept
leg itim
Sch wier
ob il
Gro ß
Da bei
poin ted
Verw alt
s of
y r
is iert
le ft
änder t
know ledge
Hand els
bestimm ten
beding t
Dienst leist
farm ers
ugos la
dat a
Transpar enz
R u
S telle
T our
b ür
c andid
lich es
kt ions
imm ung
alle in
consider ation
budget ary
fun ktion
zieh ung
name ly
pover ty
er folg
ein d
res sed
iven ess
olog ie
ext ent
Med iterr
Vertrau en
0 2
G ar
V ölker
r ate
ch end
ein heit
ver l
hör en
lim it
cult ural
Bem erk
absolute ly
ane an
erinn ern
Mediterr anean
D ritt
O p
m iß
w in
ä l
ex pla
sp ar
form ul
cht ung
rem ind
Fund s
Verw altung
akzept ieren
comprom ise
f ig
te le
no te
me isten
ble ibt
durch aus
besch rän
Pol icy
colleag ues
Bel g
M ex
c ord
p ts
u ted
de li
sch l
ver gessen
no graph
Er fahr
ac ce
geb ung
ism s
rap id
forder ung
consider ed
refer ence
access ion
M eine
b l
n a
o und
ic les
ist ic
ier s
Be teil
An g
An frage
mo t
kon zentr
wes entlichen
ko ll
clo sed
wee k
hist or
danger ous
constru ction
precise ly
A pr
d istrib
t ar
zie ht
Le g
tern al
Vol k
Durch führung
sour cen
Industr ie
Apr il
P atten
h inter
t in
an ken
imm ed
ord n
De velop
app lied
atte m
berücksicht igen
milit ary
drück lich
Verpflicht ungen
Schluß fol
) :
C hr
D inge
H af
K atastrop
e uro
f isher
p fen
or en
ta kes
ob wohl
pract ical
Zust immung
Wh ite
Person en
conne ction
meth od
Schokol ade
w ise
in dest
re view
Ver teid
inter ess
fr anzös
bal d
imp act
Ergeb nisse
Fol gen
cris is
G re
a den
e qual
de fen
he ard
sp ir
lo t
par agraph
comm ents
og raph
sit zen
dan ke
Sicher heits
val ue
require ments
bu il
grif f
pers ön
US A
receive d
2 1
L ast
T at
es ted
ein g
ver ab
ber u
Kon ferenz
trä cht
As yl
Mittel me
invol ve
pot ential
immed i
v olle
Ver gangen
su per
We iß
tra ining
her aus
rel ating
wieder hol
every thing
stat us
bour g
län ger
solidar ity
Develop ment
s ent
sch ü
ck s
En vironment
Ar mut
prop ose
Ent lastung
ass ismus
Änder ungen
sc ient
Fe hl
Liberal isierung
kontro ll
vorliegen den
initi atives
Nahrungs mittel
th in
is men
ge troffen
we ist
gen et
all oc
über haupt
ag ing
Er zeug
Ab sicht
hin gewiesen
tim es
Se p
Ges undheit
handl ung
zeu gen
hät ten
Qu est
konkre te
gewähr leisten
conclus ions
verhin dern
yo ung
specif ically
Les ung
Schwier igkeiten
U R
b ro
r aten
y n
un bedingt
it ure
die jenigen
ke its
ste lle
Be am
fr ü
ish ed
zum indest
Zus atz
roug ht
Fund amental
zweit en
Zust änd
technolog y
länd lichen
tour ism
Wach stum
Vergangen heit
6 0
R o
W ider
in ation
un employment
be handelt
pro ceed
por nograph
Dies es
Richtlin ien
grö ßer
opport unities
Balk an
coordin ation
entwickel n
Integr ation
Betr ug
P atent
R uss
d ate
g ült
r un
x en
re mo
man u
Er folg
inter pre
lin ie
spe zie
tro tz
ieren den
over all
For derung
respon se
beg lück
discuss ions
finanz iellen
instrument s
circ um
K omm
O f
g iving
ä lt
be hind
to t
te en
sch le
ür z
sich ern
wo gen
Au gen
any thing
gesch affen
cont ent
increas ed
stär ker
Beschäft igungs
agricult ure
pur su
Entschließungs antrag
c ies
m ass
as se
ge wicht
au ern
inter vention
lä ss
äm t
auth ority
staat lichen
Aspe kte
dring end
manu fact
K enntnis
R assismus
b i
for d
men sch
Ein w
fr ieden
meas ure
pl ann
Gebie te
redu ce
struct ural
pri orities
carr y
cult ure
Geschäfts ordnung
Proto koll
avo id
0 3
K ampf
ä ter
er ung
un acceptable
zu setzen
ne l
develop ed
ins gesamt
beg inn
Wer te
fun den
power s
lauf en
creat ing
poll ution
Arbeitsplä tze
incor por
) .
F R
a z
e il
g än
m aterial
u ine
z ö
er weise
be darf
ge fordert
li ving
lie be
co hes
Pro z
comm ent
sta aten
fr ont
hin zu
cr ime
prov ing
Hin sicht
Gebie ten
sect ors
rei ben
affe cted
bil ater
üh ungen
edu cation
deta il
Gericht shof
Komprom iß
F urther
N ie
h under
s ession
sch o
ver suchen
ut ter
In de
Vor gehen
Ent wurf
Gr enzen
200 6
Auf gaben
spre chend
invest ment
pend iture
nor mal
pur pose
konkre ten
bit ten
sustain able
adequ ate
Koordin ierung
2 3
B udget
D o
e c
m ü
be zogen
as yl
des pite
dem n
Aus führ
Unter such
risk s
ru le
recent ly
subst ant
vic tim
sug gest
consequ ences
encour age
Minder heiten
Plen um
G M
M än
W hen
c red
f lo
f eind
m ess
st ability
be ziehen
wi de
im men
kt ive
An nahme
Fr ance
ho ben
Finanz ierung
auth or
Mon aten
geleg ten
bind ung
liberal isation
honour able
candid ate
Weiß buch
B A
m ann
v ia
in f
on es
gen cy
il legal
ex penditure
co pe
je weil
igh ted
work s
Arbeit nehmer
effe cts
beding ungen
trie ben
tem ber
exc lus
monitor ing
asyl um
W issen
a way
j ahr
r imin
ar ound
so und
con v
Ver träge
la ß
li ability
has e
mö chten
Ge w
spe e
pre hen
europä ischer
Kol lege
bess ern
wichtig sten
selbst verständlich
Regel n
star k
kontro lle
Fä llen
Fortsch ritte
ffiz ient
A chtung
f ach
n ern
is ieren
der al
ent schieden
ge kommen
ge tragen
gen uine
la im
go es
lin k
pres idency
ün ft
lim ited
Ste llen
Stra ß
entsprechen den
elect r
refuge es
discrimin ation
oph ob
Chr ist
D rit
d ut
or n
be vor
zu führen
ter day
ab kommen
us sed
Auf merksam
pf lich
olog ical
know n
Änderungsan trägen
trans fer
gesam te
ehr te
künft ig
rene w
cohes ion
Aufmerksam keit
E l
n utzen
ver se
pro b
tr itt
nach halt
val u
refer red
enth ält
exper ience
Nat ürlich
challen ge
Lin ie
erne ut
circum st
P rä
c ers
c laim
f al
h ab
th af
an er
ou ts
Ver änder
Ver hält
wo ll
ger ing
reich end
De c
att le
Politik en
ret urn
gehör en
accord ance
Sol idar
Just iz
Krit erien
Frieden s
cru cial
ktr on
Ausführ ungen
F le
G C
H ow
I GC
P er
c ol
e ign
k ts
th y
th us
st ud
ar ch
und heits
ver bessern
con tra
In iti
sp er
ger ichtet
beit ragen
per fe
200 2
dire ction
wirk sam
Bereich e
thank s
verkehr s
inten ded
N un
R and
f assung
h ome
v ital
z ä
un ver
ge funden
au t
de ath
sch lä
ve h
ke lt
Fr ank
pos sibility
my self
brauch t
oc cas
pub lik
serious ly
Bem ühungen
Überein kommen
disast er
N ational
Z ivil
s ämt
on nen
de ll
ver ur
ver stehen
li z
ex er
ma x
jed es
disc ussed
Besch l
ausge zeichne
Wo che
conclus ion
rac ism
Qual ität
M ay
l ing
p un
s ix
ex tens
St at
tra ffic
sup ported
vern ünft
fest stellen
dra wn
There fore
establish ing
invest ig
cap ac
außer dem
Just ice
creat ed
official s
circumst ances
F alle
H ar
e fficient
g reifen
s ive
u ter
en able
in tens
le iten
te ien
gr ant
ex act
lo se
str ö
ue llen
prop ort
Fraktion en
good s
struct ures
Verkehr s
fish ing
PP E
UR BA
tot ally
URBA N
B an
G el
S pe
c le
j ur
n ä
to ok
sch uld
ges undheit
see k
speak ing
recog nis
hu ge
partner ship
lö sen
G ed
I de
L I
P ub
W ahr
r ie
z if
er warten
st ated
st offe
gr uppen
Über wach
app lies
ateg or
möglich st
set ting
business es
prof it
Sep tember
E ind
M ore
P lan
R ed
e ffizient
x is
il ar
ir es
Ver wendung
gr ünd
ous ly
produ ce
best ät
wissen schaft
zeug t
reach ed
administr ation
Prior itäten
Kön ig
verein bar
klein en
xen ophob
Further more
A gen
L assen
M einer
f fe
ist ische
ach tet
fre ue
Auf nahme
oper ations
möglich keit
bau en
Hau pt
gegenwärt ig
Schlußfol gerungen
Agen da
b rought
ö st
at isch
ein iger
sen sit
ure au
mor ning
noch mals
Land es
ele ktron
No ve
contr ary
Regel ungen
parliament ary
eh m
Kommissions mitglie
M ac
T ier
o il
y p
er hö
in spe
an ced
st aff
ar ily
be tre
ra hmen
vent ions
beg in
implement ing
gar ant
administr ative
Pe ople
Uns ere
scho ol
9 0
E con
n ation
re f
ver pflich
da durch
ik en
age ment
ün st
cons ult
erg reifen
Treat ies
wert ung
Pos ition
Ju gend
Solidar ität
Econ om
B ö
D A
V O
b road
h offen
ä um
ü ro
al ong
ge ts
me l
Be g
ma g
ern s
Wir k
br ief
fin ally
nat ural
Wer t
mil k
proper ly
som it
heut igen
" ,
G ree
N ations
R O
W es
b ig
or ient
and s
än den
form s
ac io
är en
conc entr
ok raten
pla ced
produ cers
Transp ort
ziel t
Pal acio
san ctions
foc us
exer c
n one
al most
des ign
ben öt
com prehen
war um
ob tain
är enz
bar keit
olog y
Ges prä
offen sichtlich
regional en
Ha ider
Balk ans
comb at
yes terday
Pub lic
F E
V on
b ung
c ross
k auf
m ber
s cope
in stead
at ik
se par
sch lossen
for ces
ac ross
bet onen
sit z
wicht iger
rel ated
richt en
pa ck
resol utions
Da zu
notwend igen
Pr ü
look ing
fun ction
post al
dien en
schre iten
Ihr er
itu de
outs ide
Nove mber
ch em
be y
am ber
sch äd
ver folgen
con demn
In st
ste ts
par ts
et ary
dar stellt
first ly
fest gelegt
industr ie
hel fen
zahl en
cre ation
vorgeschlagen en
entsprechen de
Komm un
Frank reich
capac ity
2 7
M io
g ab
k ulture
re ag
ent sprechend
ein gesch
ll os
da fr
um welt
ex ternal
sp o
mor al
polit isch
hand en
tern ative
citiz en
19 8
B ildung
C y
F un
I T
N ow
a ke
b illion
c ke
y e
z ielen
em er
us h
Un ser
ad v
reg ular
durch geführt
De legation
gu ard
difficult ies
med ium
direct ives
zeu ge
particip ation
König reich
3 7
h nung
k raft
an en
un anim
der ungen
ge lt
em iss
il f
all owed
An streng
str ict
Ein satz
alle l
int ention
bo dies
gu ten
bring t
Mittel n
ele ctions
press ion
Arbeits losigkeit
inde pendent
sum mit
move ment
effor t
bür ger
Verteid igung
F a
K ern
N ord
c ame
g lichen
un ge
ent scheid
sch ätz
199 5
pt ion
cau sed
dec lar
consider able
right ly
bie ten
Program ms
real ity
lang frist
Portug al
affe ct
Kap ital
Pf licht
LI FE
verpflich tet
E lement
K ur
f ug
i end
l abour
on s
al es
ge wesen
ig ungen
il ities
ess es
ungs an
pr ice
Ab schluß
199 6
min imum
Sta at
lau b
rem ember
Disk rimin
bestehen den
cover ed
leit et
buil ding
victim s
mess age
rie ben
B ank
S we
Z e
t ät
or al
be kommen
se ktor
con cept
af r
qu ant
sh own
Th ird
ien ste
bo t
qual ifiz
acht ung
gang s
aussch usses
Afric an
Austr ian
document s
Wieder auf
obvious ly
Ira q
San ktionen
analys is
defen ce
D ruck
K u
N G
b ill
g liche
l ater
th reat
ein gere
tr ying
wer k
op ol
kt iven
end ing
über nehmen
fe ed
dar stellen
Ber lin
view s
add it
.. .
mitt l
arr ange
coher ence
Quest ion
bey ond
H off
f if
it ation
it ious
au sch
ll er
zu frieden
ra k
con du
In halt
ive ly
ex change
ap point
gan ze
pr im
ens uring
Ko h
direct ly
anim al
einz ige
krä ft
Aktion sp
dela y
inciner ation
perfe ct
1 00
A gricult
y se
no ck
vor handen
ah n
iel t
Aus gaben
bes ten
ire d
pres sure
Ein zel
cr i
Ges undheits
ko sten
effective ly
Ha ar
ermög licht
neg ative
verb unden
enor m
Beteil igung
Ang ol
prob ably
a in
e her
r ong
er sch
ver w
da gegen
la be
ex plan
ze igen
ib il
fr iend
ander s
cons ist
De ut
stell er
oper ate
ihr es
Abgeordne ter
Mar ch
gent eil
sc ale
speak ers
entwic kelt
sim ple
repe at
Anstreng ungen
K ar
N iel
a da
d iv
no ise
us sels
ier ter
our nal
Par teien
Er ika
Vor bereit
Ein haltung
polic e
ganz en
schie de
discuss ing
Br ussels
gemeinschaft lichen
famil y
ethn ic
Sor ge
Forsch ung
humanit arian
recogn ise
fisher ies
2 6
H O
T err
w rong
ge leistet
om é
ges che
sp äter
Ab fall
Maß e
use ful
reform s
Br üssel
commun ities
commit ments
ife llos
Dire ctive
Americ an
konn te
Mär z
submit ted
acce pted
Inde ed
A ktiv
F onds
S to
l ier
m ist
wor d
lo g
ese it
ac qu
ho hen
cy cl
fä llt
bess ere
finan cing
Me er
Or t
reason able
prü ft
diskut ieren
Eind ruck
A R
p ing
r ig
r ise
ar gument
de legation
ul s
ze p
Ge genteil
national e
dire kt
fest gestellt
pa in
stim me
const it
restr ict
miss ion
assess ment
Tät igkeit
scient ific
A ktionen
K l
L a
S ince
Z ur
c los
in fra
be hör
de alt
ne ar
ant i
nen nen
Sch l
sib ilities
Ma i
lear n
bere cht
welt weit
isten ce
pa id
Al ban
zeich nen
All er
Vorschlä gen
Sol ana
milit är
ME P
Democr ats
Verwalt ungs
eingesch rän
b ab
h ig
s ort
au ms
ver me
um s
um gesetzt
mit tag
vor aus
fe ar
cil iation
kommen den
bo ard
viel mehr
respon d
gest alten
wish es
amb itious
erforder lichen
Tur k
Zwe ifel
Gesetz gebung
erwä hnt
Sü dafr
Pra xis
Op fer
frü her
conv inc
Haar der
E Q
S ome
U AL
b ad
s agt
ä hn
un fortunately
it ors
de ad
zu folge
ver t
con stitution
Ver halten
op tim
sp ielen
St re
kon om
ak a
utz t
grund lage
rif t
zahl reiche
redu ction
Mill iar
Proje kt
jud ge
challen ges
müß te
exact ly
Koh ärenz
gesche hen
EQ UAL
D an
G lobal
M os
p ed
at ure
or gung
be ziehung
ge worden
Ver sch
Ver br
vo tes
lä ß
Um fang
sit u
olog ien
ständ ige
international e
sicher lich
bie tet
commit ted
person al
Dar über
sim ilar
schwer wie
success ful
mäß ig
Famil ien
Initi ativen
Econom ic
A d
A lle
D enn
F ahr
at ically
al ter
re je
der er
den ce
ur spr
ver sucht
gen ug
pro z
Ver bindung
our s
chte t
leg ungen
Ar gument
stand s
Zeit raum
stimm t
requ ires
All i
deal ing
för dert
exp lo
Fol ge
Janu ary
commer ce
Brit ish
beglück wünschen
Niel son
C he
G VO
S inn
h or
i or
n u
w onder
ö k
in it
le hnt
ge äuß
se ch
ges tern
op pe
vor her
ted ly
Ber ichte
Grund sätze
Entscheid ungs
Kin nock
strateg ic
Wo chen
Lu x
inten d
anim als
Res sourcen
sug ges
erfü llen
assoc i
nä her
labe lling
Aller dings
A c
M acht
S P
S piel
th re
un ion
al one
re ject
ro und
ent spricht
am pa
ab sicht
Be denken
St är
ap prov
Ein beziehung
ud gets
lä ne
fä llen
He ute
Kontro llen
Gleich gewicht
Heraus forderungen
Heraus forderung
Gar ant
spir it
thin king
init ial
D i
I st
c aus
k eines
th ought
at ch
ie ht
ur ge
Re formen
Re publik
fe llow
reg ret
form er
Ge b
ser ve
act ual
min orities
Rat s
Jahr hunder
organ ised
hap p
bre ak
käm pfen
Bar n
demand s
cycl ing
I C
s outh
be mü
ge ograph
au tom
gr ün
vor legen
über ein
spe zif
Au d
develop ments
off ice
comp any
Wor ld
erklär t
Janu ar
portugies ischen
provid ing
mere ly
konzentr ieren
attem pt
erns thaf
2 8
c ampa
g ives
k oh
n es
re den
im proving
for th
he art
Ver letz
ien cy
Präsident en
gesch ieht
Maß nahme
beg innen
Ch amber
bil den
activ ity
Währ ung
Konfli kt
Empfehl ung
inf lu
Fun ktion
Turk ish
ök olog
) ,
I P
R ules
d ise
d ank
d auer
be in
se le
ll schaften
ver folgt
ber icht
gr anted
Sch ließ
spe ed
pre fer
For derungen
qual ified
contrib ute
Stra f
bu ild
event s
schwier ig
Invest itionen
beteil igt
spee ch
Dec ember
veh icles
sensit ive
comprehen sive
Milliar den
E S
L ud
S ach
d ient
i que
k ürz
l ant
m ä
t ür
ö konom
er griffen
in o
on ic
al er
as bourg
for ced
ver gen
ter r
ne igh
pe t
sen d
Be handlung
iv al
An ges
ap prec
pr ison
her z
vo c
gel ungen
son st
gleich e
Str asbourg
cent ur
Ne ver
zeug ung
erk ennung
trie b
Aspe kt
Krit ik
Verpflicht ung
Sub sid
colleag ue
langu age
yn am
manufact ur
jeweil igen
Agricult ure
Lux em
Barn ier
neigh bour
3 5
K aka
in come
un sch
un mittel
ent wurf
sch n
ol ution
af fairs
Re public
ob serv
gel öst
ak ter
lau se
pen al
wes end
grund sätz
pl en
main ly
vers al
hä ufig
ti ket
Pr iv
step s
zeu ger
let ter
Seit en
communic ations
Volks gesundheit
Pre is
Vereinbar ung
ordn ungs
mann er
Veränder ungen
Überwach ung
thre aten
campa ign
I hren
P ap
f es
n öt
w ent
w anted
er v
un ch
st abil
be finden
ein schließlich
zu dem
he im
des er
wor tet
ear lier
trä gt
produ ced
Haus es
io de
industr ial
posit iv
vorsch lä
defin ition
crit ical
Gesch ichte
institution ellen
nie dr
appropri ations
gegeben en
iar ity
Af ter
wach sen
Wor te
Erklär ungen
lea ve
eh em
amp ere
konn ten
treat ment
Mittelme er
dut y
Har mon
situ ations
Anges ichts
3 2
B lick
E tiket
F ühr
G ra
N utzung
T ro
n ers
t land
z ember
ent gegen
ver bind
ra ise
ly ing
la bel
An erkennung
com bin
Vor haben
Fr i
lin ge
fr ied
Gr uppe
sup plement
De zember
ele ment
ausge wogen
establish ment
ack now
jen e
wär en
finanz ielle
demokrat ische
absol ut
inform ed
CO M
andid aten
erklär en
kom p
portugies ische
provid es
sinn voll
Nie der
substant ial
strö m
xenophob ia
S onder
T ampere
d lich
j üng
r up
er kennen
ch ance
an cen
sch lagen
end gült
et imes
räs ent
mo dif
Gr unde
wä lt
gel assen
att itude
Bere it
pl ant
sor ge
contain s
org nis
grenz ung
verfü gen
betroffen en
schü tzen
Beam ten
beginn ing
Verhält nis
addit ives
A k
E re
F o
z edon
or re
re ffen
be zieht
as king
de pend
sch et
ver tre
ist isch
os s
ex port
ex cess
über zeugt
ger ung
fin de
ass ungen
har m
add ressed
adop ting
vers ity
comple x
derzeit igen
Hau se
transpar ent
Ital ien
immedi ately
A p
H inter
L ärm
L omé
Z w
d re
f luß
h aus
t arge
w it
ä den
an ten
un e
re te
as sure
ein setzen
ein gesetzt
ic tion
ste uer
An fang
ern st
lo sen
cau tion
sup p
wirk lichen
compe ten
bre chen
Ges amt
invol ving
Verein ten
gew alt
System s
kün d
außer ord
Ch ance
künft igen
char ter
cl ass
Fest legung
Stabil ität
ras ch
Flücht l
verschieden e
Cy pr
convinc ed
C om
E ing
G A
c raft
d ro
i ere
k aum
z one
ö sterreich
an wesend
re ma
be halten
ge eig
co a
Gr ü
ff end
ear ly
fre ien
Kon tin
Con sum
möglich erweise
high ly
hän gt
statt finden
wee ks
subsid iarity
Drit tens
Südafr ika
Lud ford
tür k
Subsid iar
plen ary
schet schen
rema ins
N ur
Z yp
f la
f alt
t ief
y er
it ag
be coming
ul ated
aus führ
ex istence
Ber ücksicht
mehr ere
fact or
cond ition
recht lichen
hö ch
redu cing
mög lichen
pri or
Produ kte
Fisch ler
introdu ced
const ant
größ ere
territ or
feind lichkeit
Fa ktor
Aktiv itäten
approv al
2 2
B ild
D ann
G est
I re
N utzen
P ers
Y ugosla
l it
at tack
am m
so z
urop a
us w
li ves
rä um
sol utions
wickl ung
stimm ung
zeich nung
He alth
vorsch lag
Kolleg in
Best and
Gleich zeitig
Person al
relation ship
gegenwärt igen
close ly
commer cial
Straß burg
Ban anen
Schließ lich
l isten
w ants
th ous
ar a
as ch
se tt
con trad
la id
aus schließlich
ste t
An al
Mit arbeit
tro l
komm e
ele cted
hö her
hö hung
Ger man
Wo hl
Wi llen
EC HO
Fremden feindlichkeit
französ ischen
renew able
Beg inn
Third ly
happ y
Never theless
ehem al
Cypr us
D E
P l
S w
b ild
p assen
w ahl
un kten
re ch
be fassen
im bab
for get
pe op
Ver ständ
ive au
ident s
Sch if
ob in
sam m
bal anced
Al ters
zwe ifellos
Me th
voll ständig
jud icial
regel n
Instrument e
task s
mb ly
War um
anno un
Erfahr ungen
Katastrop he
möglichkeit en
komp liz
Ire land
peop les
S en
S pain
V oll
er neuer
an geb
un sten
ein verstanden
ex tra
co coa
Kommission spräsident
je de
fü gen
Vor sitzen
pr ices
dec ide
ty p
Le ist
posit ions
ffic iency
kun fts
Em iss
schein lich
Res olution
eas y
Rechnung shof
Ti bet
critic ism
fig ures
stud y
Berücksicht igung
2 9
3 1
d imension
h off
s ult
ü hren
an f
ar m
be absicht
ur ban
se he
im it
ver an
ver teid
pe ctive
In sel
gr enzen
os p
Re vision
Be zug
ap par
Aus bildung
Er wä
lle d
richt ungen
kl are
wa it
Umwelt schutz
begr enz
spra ch
Risik en
border s
som etimes
blo ck
verme iden
Global isierung
Etiket t
k ret
s es
ge gangen
ge zogen
de p
zu legen
Un fortunately
gr unde
sp ent
Er höhung
Au to
per mit
Reg ulation
erst ör
Um st
führ ungs
qual ität
Al though
put ting
bre iten
bereit et
regional e
jo in
call ing
Minister s
Ch ancen
introdu ce
Lis te
Mil ch
Wettbewerbs fähigkeit
quo te
schem es
More over
hig her
sech s
9 5
C ar
C entral
E thiop
G o
P o
U K
W ill
kt ors
aus reichen
Be wertung
will ing
wor th
lo st
Pro ced
str en
reg ime
war t
conc rete
ließ en
stand ard
Ma zedon
oc cur
Rechts grundlage
net works
licher weise
Ne u
To day
prü fung
statement s
diskut iert
verantwort lich
keiner lei
cord ing
Fehl er
Ro th
sämt liche
max imum
Angol a
Harmon isierung
Proced ure
B y
D imension
E ven
J o
M or
l om
z ah
er folgen
er läu
ent it
and els
de g
wh om
qu ot
polit ischer
ander ung
itte es
Fre itag
comp ens
letz te
adop tion
gew isse
maß en
eigen e
guarante es
vorgesehen en
happen ed
Den noch
parliament s
origin al
ground s
mb ol
Spra chen
Spra che
stu ff
rep ly
ize i
Hö he
Voraus setzung
Span ien
Mex ic
deli ver
interpre t
plann ing
GM Os
recognis ed
D is
L o
P T
Z entral
g h
un able
st or
ur ance
we ak
im ately
con ciliation
Re a
Sch wer
kon stru
fre u
fä lt
Con trol
zip lin
öff entlich
sor g
unterstütz e
redu ced
air craft
mög liche
promo ting
wün sche
Wh y
Fä lle
anderer seits
vorzu legen
betra chten
exten d
advan tage
competit ive
safe guard
expla in
wiederhol en
Wissen schaft
enorm ous
Aud itors
imbab we
3 00
e quality
h op
p aper
un zu
zu ständigen
ver wendet
la unch
gr uppe
über schreiten
ik ation
Sch aden
go al
part ners
Ein fluß
Gr enz
ide as
propos es
propos ing
Zus ätz
bo und
ign or
Inter national
system e
car s
begr ün
trans ition
öff entliche
außer halb
Med ien
Mo z
betra chtet
harmon isation
Eng agement
Gew alt
electr onic
Mazedon ien
C or
H ä
M oment
Y et
a ktiv
b ra
p as
p atent
w ind
y a
al ternative
be ef
be kämpfung
se a
zu grunde
ver br
ver urs
gen ü
auf merksam
In fra
An liegen
je tz
out come
Sch ritte
go t
inter ven
pos es
age d
Mitglied s
dr am
Auf bau
mon opol
richt ige
ele ments
achie ving
represent ative
lim its
Proble men
Kin dern
stär k
To des
med ia
fäh ig
enter pr
Ital y
increasing ly
competit iveness
Dienstleist ungen
Tour ismus
exerc ise
läß lich
schwerwie gen
samm lung
B ro
C an
L at
M ir
S a
c ement
h y
h re
m id
p unkte
w an
if t
ta int
est im
ive d
St im
par lament
Unter schiede
weiter er
say s
nat ur
io x
Mein ungs
curr ency
äuß ern
spr ü
sequ ently
CO S
Zwe ck
II I
Wahl en
hist ory
Ir an
Risik o
Prior ität
Organisation en
zusätz liche
langu ages
sec ure
immigr ation
MEP s
Moz amb
Infra struktur
B ird
P unkten
T un
k atastrop
u elle
v it
in a
st reichen
ge iz
te te
sch rän
im possible
ver besser
Europ ol
all gemein
fe deral
wor fen
sel ben
per man
ieren de
min ority
De fin
cer taint
disc ip
appro ve
Mon ate
dür fte
Produ kt
vorgeschlagen e
bur den
express ion
inten ds
Nor men
pers pective
Mal ta
frei heit
wahr scheinlich
def end
mechan isms
conclu de
Febru ary
Erzeug nisse
woll te
Beschl üsse
u fen
en ze
re chten
be handeln
ver änder
ver letz
em bar
gen ere
aus drücklich
ib i
ger ne
ac ter
ip lom
iz ed
mar ks
support ing
zug unsten
Hand l
sign ed
Lös ungen
technolog ies
Struktur en
bed au
global isation
Bevölker ungs
char acter
emphas ise
Serb ia
Rom an
unabhäng ig
continu ing
Febru ar
sof ern
Kommissionsmitglie d
quot as
K lar
f lag
or f
im ent
no on
iss ens
con firm
us es
aus sprechen
aus reichend
wor r
Sch re
ac y
ure ly
unter nommen
Gr uppen
lan zen
ho he
int ent
high light
Abstimm ungen
guarante ed
akzept iert
cho ice
appear s
müß ten
Flücht linge
facil it
centur y
Priv at
Consum er
Bird al
7 0
K ü
b ureau
c to
u als
an ischen
an gebracht
an schließen
ent schlossen
ig keits
ver ehrte
ol z
ab stimmen
so genannten
op posed
Commission ers
vo llen
mo der
pre caution
Mitglie dern
sib ly
ose vic
best and
Da für
vers ion
law s
ga in
imp lic
fle isch
Beit ritt
tax ation
introdu ction
oll ar
Grün de
gewähr leistet
Mil osevic
umfassen de
care fully
flex ibility
unterschied liche
comb ating
def ic
läu ft
schem e
Mac edon
reag ieren
Ac cording
Zyp ern
I S
O ffen
c a
i ate
Ä thiop
re ib
om b
ing t
im at
ct or
ne ben
des ire
Un abhäng
ad ded
ien z
Ber at
ander em
ill ar
other wise
199 4
Men sch
Über legungen
Über zeugung
wes halb
Me chan
exper ien
fehl en
benef its
CO D
ev idence
oblig ations
ffiz ienz
Techn ologien
Schwe iz
Empfehl ungen
territ ory
breit ung
ai ro
Bemerk ung
Zuständ igkeit
Budget ary
Fle x
Prü fung
ibil ität
Meth o
deg ree
Stim me
parlament ar
Mozamb ique
K ing
W unsch
e fficiency
i ö
n ight
o ben
en h
er war
an nehmen
ar i
ar es
be hau
ein bezogen
ver z
ab geschlossen
ra il
wir kt
des tro
dem okraten
ad voc
fe ld
ob ser
Vor red
ander es
ange ht
erg än
techn ischen
Ges am
nun mehr
ga ve
Kr isen
vorsch lagen
defin ed
manage d
call s
inclu des
Liberal en
hervor heben
flex ible
Währ ungs
Ratspräsident schaft
Ira k
Regional politik
Landwir te
behau p
S he
T schetschen
k ennt
m utzung
r ates
s ized
Ö l
er fahren
ge be
ge ändert
sch we
em it
da cht
il st
he av
Ver f
ind ire
ate ful
ben ach
über tragen
An spruch
Ein richtung
200 3
inst ance
vent ionen
dec is
Über prüfung
As se
Se attle
Min dest
bereit en
klar en
Ger many
System e
Sozial schutz
nie mand
konk ret
draw ing
Serb ien
Wider spruch
proport ion
Ged anken
Diskrimin ierung
perfect ly
clos er
Stär kung
zah lt
F ün
H igh
d t
l ate
m är
u gen
v ig
der e
le iden
wi d
im pression
con ference
pe ten
err ing
pre vention
min e
dec l
ful fil
gestell ten
gener ally
integr ated
nie der
Dar um
Wor ten
prä z
subst ances
strong ly
Lebensmittel sicherheit
disast ers
beschäft igen
recommend ation
Rom a
Bemerk ungen
eingere icht
ada pt
reje cted
urspr üng
herz lich
außerord entlich
ibi ot
Äthiop ien
% .
A gre
D ef
H ung
L anno
T obin
W icht
W ür
d on
p ft
u ern
ß e
ch air
und es
so le
ere cht
auf zunehmen
Ver gleich
op ou
Re chten
lie ben
ad mit
Be weis
fa cing
el imin
Er n
comm ittees
Ein ige
iz on
tim et
gel n
sol cher
gesch rieben
führ ten
ang s
deb ates
chn ya
richt linie
know s
techn ische
Tr ans
zü g
sequ ent
contrib utions
Kontro ll
impro ved
control s
aim s
improve ment
aufge fordert
länd liche
happen ing
dien ste
organisation en
constru ctive
stre ben
Bas is
Informations gesellschaft
sof ort
spar tei
hab it
schlä gt
arrange ments
Vorbereit ung
Che chnya
King dom
Agre ement
S y
j em
k rat
s achen
ü ben
re action
ge fü
and al
den noch
ce il
Ver zö
if ying
ta bel
dis h
dis pos
ör per
che ck
teil weise
ak zep
just ified
stell ungen
bas e
neu es
wen igen
Ih rem
off iz
Te le
employ ed
vers orgung
Or d
contin ent
Ne w
represent s
Kr imin
glau ben
star ting
post pon
bind ing
ehr geiz
Ex per
mean ing
übrigen s
Mo dern
Stabil itäts
oblig ation
erfolg reich
persön lich
none theless
afr ikanischen
condu ct
Mos amb
Grü nen
Tschetschen ien
Asse mbly
Lanno ye
akzep tabel
D imit
L auf
N S
S c
c ou
c ust
d ict
m igr
r ange
z er
ü b
er geben
ent stehen
to ld
to ler
ge halten
ein trächt
wi ß
ou ver
ter t
bei de
ser ies
dr än
Gemein same
respon sibilities
comp uls
international er
Hin weis
high l
Kr ank
allow ing
Bes orgnis
sur pr
sour ces
deta iled
particip ate
)) .
nehm bar
satis f
Betrug s
spezie ll
Wirk lichkeit
pack age
ordnungs gemäß
Anal yse
Ethiop ia
stuff s
opou los
D on
T ra
V iele
c up
c lim
d ynam
u cht
en jo
er folgt
al tet
re iter
be trächt
ge fördert
den k
zu lassen
ver weisen
con sen
ul ierung
co ast
über nommen
Er zeuger
Ab kommens
Pres se
lin ed
reich ung
Um wel
Kon sequ
ins of
wel cher
Sta dt
Fin n
Entwicklung spolitik
Umwelt fragen
Le ider
Char akter
Br enn
understand ing
sour ce
del ighted
Mo dell
Partner schaft
derart ige
Sektor en
amer ikanischen
verl oren
Gre ens
Red ner
supp ly
Defin ition
Def iz
compuls ory
4 5
D ienste
E very
K rä
O ber
at tet
re v
be auf
be ha
as h
ge ber
im al
ver eign
ab or
so vereign
il o
des cri
me ant
gr ateful
sen sible
Re alität
Be trifft
St ud
Sch iff
ue ll
national er
199 3
fre cht
fact ory
For men
Min utes
folgen des
nor th
pens ions
staat liche
interest ing
lea ders
lok alen
unterschied lichen
Voraus setzungen
distrib ution
ausgezeichne ten
fug nisse
Wiederauf bau
rak opoulos
Deut sch
eingeschrän kt
Ere ig
precaution ary
Dimit rakopoulos
4 8
B yr
J une
K O
M any
M art
R ind
W ales
n ungen
s ser
ä re
ö hn
ent wicklung
ein ig
se ven
se cut
ab les
pro sper
us ion
all zu
ul ations
aus gesprochen
über w
An fragen
An laß
leg ally
Vor sorge
Ab fälle
ens wert
under taking
any one
wirk ung
comp at
Ho hen
employ e
differ ences
Kr ise
wün sch
individ uals
Zahl en
Sub ject
subsid ies
erfü llt
Wel che
pornograph y
flo or
influ ence
certaint y
Mosamb ik
consen sus
Byr ne
4 4
A kte
G anz
K ür
L einen
d le
m ach
m ünd
p les
er zielen
un ru
it ten
st ip
au ßen
sch ritt
ne ither
id ing
An forderungen
dar aus
bet ont
ange hör
besonder en
pub l
exam ine
Her zen
zahl reichen
sätz en
promo tion
Überein stimmung
größ te
mitt ler
grenz überschreiten
recommend ations
Fremden verkehr
Dritt ländern
na he
tar get
consult ation
declar ation
nu clear
geäuß ert
oppe l
B os
B üro
E ffizienz
H ul
J uni
T agen
r ück
u ct
v a
v ast
it ime
te lt
ig ent
so eben
ist an
pro je
um fang
Ver mittl
op tion
Re port
Er wart
fin e
polit ics
nach drücklich
Gr ie
gegen seit
uropä ischen
get ting
oper ators
Sta uner
rel ig
spre che
Fre edom
fra gt
real istic
folgen de
person s
technolog ical
lead ing
erwä hn
Fest stellung
protect ing
stra fe
respe ctive
beschrän ken
Gre en
exclus ion
Christ ian
design ed
Verletz ung
entit led
KO M
A re
K at
K re
b ahn
f rag
l is
p räsident
r ich
r ational
t ut
at o
al te
ge langen
de te
de leg
ver ste
ab ol
ab end
em pf
ke pt
Be für
En ts
Aus grenzung
fin ance
polit ic
nach zu
fre ut
Ko hä
att ach
schie det
Vorschlag s
recht liche
invol ves
seit ens
Eben so
einge gangen
einge führt
appe al
ev a
ziel le
einz igen
show s
viol ations
conflic ts
Binnenmarkt es
Fortsch ritt
beschäft igung
tack le
verab schiedet
elektron ischen
consist ent
Macedon ia
Kohä s
B udgets
J ugosla
M ü
M eines
N RO
S ter
S co
T er
V P
d iplom
k lang
t äu
en e
er zielt
in es
an che
is p
at ur
ver trau
op t
mit einander
ta il
vor ange
ex pe
sp ät
We ge
We iter
iv ity
fa ced
Pro f
there by
sam keit
Ge währ
durch zuführen
wel chen
dra st
Sit z
Her steller
spra chen
Teil en
notwend ige
erforder t
Verfahren s
Organ e
Nor th
sim pl
mult i
Frei heiten
vol ution
hu ber
Arbeitsplä tzen
ME DA
respe kt
Sor gen
tru ly
else where
East ern
Volk spartei
method s
Gree ce
Aktionsp lan
forth coming
Fri day
soz i
Verständ nis
hoff entlich
jetz igen
natur ally
timet able
dispos al
Erwart ungen
Jugosla wi
h m
t ie
en vis
is emit
un less
st off
le bt
ge k
ge prüft
den kt
se ien
sch au
ic ip
ou l
pro of
ha ften
sp ie
Mit entscheid
mö gen
Er arbeitung
ger s
ob st
stand ing
Über gangs
gest attet
pen dence
Se curity
amen ded
pa th
Ziel setzungen
bre ite
Gen eva
val uation
di versity
invest ments
defin e
genann t
näch ste
allgem eine
famil ies
Je tzt
never theless
Bo tschaft
sy m
itz er
determin ation
Schwe den
counter fe
erheb lich
tar iff
alloc ated
größer en
mass ive
bilater al
link ed
erhö hen
behör de
dise ase
Yugosla via
Mexic o
4 2
F rom
M c
W affen
n ations
w ing
er inner
an statt
is ierungs
the it
be unru
of in
de ep
am a
ve get
il ater
ach s
Un gleich
ate ver
sp unkt
An teil
An gaben
ann t
wor se
pres ence
Au ft
like ly
bar er
ins urance
ansp r
political ly
oc cup
see king
bin den
Ziel en
change d
star ted
open ing
Bes onder
bed ro
inform ieren
restr ic
Social ists
Agrar politik
Selbst verständlich
Vereinbar ungen
abge lehnt
betreffen den
Russ ian
occas ions
Stat us
wissenschaft lichen
sugges ted
schn itt
Modern isierung
ouver än
Tra de
% ,
3 8
K ategor
T SE
Z oll
c rop
m i
p illar
t ies
w rit
er ör
th or
ar dis
be kräft
dies bezüglich
op position
aus gehen
vor genommen
sp ielt
end or
co decision
com par
com pla
bei zu
sup posed
min des
So ll
comp ly
resol ve
Nach bar
posit iven
opin ions
strateg ie
He imat
letzten dlich
exist s
Qu oten
contain ed
Diskuss ionen
Ir land
among st
Viel leicht
herr scht
Pra kt
Hö chst
brit ischen
Span ish
Russ ia
Bö sch
spo ken
emer gency
modif ied
fla x
Schif fe
pas sed
cust om
enjo y
Hul ten
Grie chen
K enn
f angen
h ilfen
p assung
ä st
er maßen
ch ner
at ischen
it el
re ten
re vision
re construction
re cycling
au st
sch ef
im posed
zu gelassen
ver lei
ste chn
co ll
Be if
Be griff
fe hlt
fa iled
An zahl
einer seits
pre m
cons ol
some what
fact ors
ang ing
wirtschaft ung
fest gelegten
loy ment
besser en
gew iss
accoun ts
aussch au
colle ctive
genann te
gra du
regel ung
sto ck
vorliegen de
fight ing
Ital ian
amp ag
letzt lich
Pf lanzen
Famil ie
win den
Last ly
spezie llen
benöt igen
Deutsch land
A I
C NS
K op
S ign
Z if
r y
s cr
w on
ó n
er öff
ar f
ar ded
sch ung
ver folg
ver ring
ver langt
ut in
Ver lauf
ges icher
ad o
ad just
Union s
lo wer
tre ated
ide t
ins ist
cept ion
differ ence
hol ding
seit en
gew öhn
pract ices
leben s
Energ ien
uni versal
Prinzip ien
assoc iation
suffer ing
Ti ere
legitim ate
Mex ik
Leg al
incorpor ated
aner kannt
jur is
tät ig
hor izon
competen ce
geeig ne
thous ands
perman ent
Schre yer
decis ive
M U
P a
R uß
S V
S wo
T A
a head
h ü
h und
r uss
ü ter
er weiter
er lau
ch sel
th ir
be long
ge zeigt
we ttbewerb
he er
wh ilst
isch em
ce lon
me ld
tz ung
li able
Aus nahme
geb oten
bo da
fä llig
wirtschaft licher
wichtig ste
wieder um
Fl or
Mon etary
Bar celon
künft ige
Pol izei
weg s
exc lu
schre ck
ende av
emphas is
demonstr ated
verfü gt
herr schen
tradition al
refle ct
funktion iert
separ ate
Swe den
targe ts
Fün f
jem and
Vorsorge prinzip
Bos n
consol id
Swo boda
Barcelon a
7 5
E L
E igen
H ere
H ilf
L ien
T ai
f and
h ours
k ungen
k ap
k orre
m obil
z erstör
st ö
ic ks
ver age
em ann
ach er
Ver s
Ver sammlung
sp olit
ben e
ma k
über zeugen
The ato
St u
St äd
Vor be
Fr ist
Ein klang
forder e
rel ative
great est
Se e
even ing
requ ested
represent ed
ital ien
cap able
Bes te
subst ance
regel mäß
größ ten
umfassen d
famil iar
beschäft igt
Americ a
Viel falt
advan ta
recogn ition
proceed ings
Ide e
concentr ate
NG Os
Hoff nung
Stre it
nöt ig
Krimin alität
B en
J ournal
M obil
S yr
V ice
b ir
d ign
i j
i ra
p i
u che
w ann
an as
it ologie
re marks
be deut
to wn
and el
om it
ur gency
we alth
sch rift
ol k
ab gestimmt
vor be
sp ace
sp ending
Be gründ
über all
Sch äden
et c
wo h
199 2
lä ufig
Kon zept
weiter es
wirk same
being s
lau tet
vir t
consider s
consider ations
isten z
Mittel punkt
wes entliche
resol ved
komm un
high est
require ment
nie mals
ru fen
Kom itologie
exper ts
kle iner
grow ing
Mil it
draft ing
amoun ts
sy mbol
stu dies
prakt isch
grundlegen den
Katastrop hen
involve ment
ec ological
fal sch
occas ion
cle an
kulture llen
caus es
supplement ary
Hinter grund
enterpr ises
obst ac
Beif all
Mexik o
Lien emann
D S
R ent
e valuation
h emp
k am
m m
is land
to ol
se h
zu letzt
ver m
ver sichern
gen ehm
ber aten
pro spe
wer ten
op pos
mit telt
vor rang
Be ob
00 6
war m
mehr eren
rap ie
bring ing
fest zulegen
letz ter
20 10
folgen den
speak er
zü glich
ban anas
bu ilt
rele ase
dou ble
viol ence
clar ify
zusätz lichen
entire ly
innov ation
immigr ants
mensch lichen
cred ibility
betre ffend
Meer es
infra structure
constitution al
manufactur ers
penal ty
Tro tz
Mitarbeit er
sorg fält
implic ations
5 3
A ktions
D ring
F er
F utter
P act
c ret
g lück
m ill
p räsent
t ests
er ous
is ierten
ein gebracht
zu ständig
ver k
gen utzt
id es
Ver sicher
vor gelegten
end s
ant worten
ah ara
European s
weit gehend
nach dem
work ed
under taken
sup ports
Kon sult
ange künd
fo ll
For eign
Se cret
stehen de
wa iting
Rechts staat
plan ts
appro x
offen bar
Mon ti
hän gen
Haushalts kontrolle
statt ung
On ly
vis it
ikan en
kle ine
ix ed
Behör de
heb ung
schwier igen
Dire ctor
jähr lich
Miß brauch
Tag ung
nü tz
innov ative
Zusatz stoffe
remo te
verur teilt
extens ion
emiss ions
feed ing
eseit igung
judge ment
Verbr ennung
Jo int
Zusätz lichkeit
verbesser t
Flex ibilität
Ord nung
horizon tal
D ub
E D
M id
R ural
V ier
V itor
h om
p at
ü ckt
ch anging
re cord
be zeichnet
de ten
de part
se ts
im ag
for es
con ce
con ta
con vention
Ver breitung
ges te
su it
An y
An ders
com it
Aus arbeitung
form al
Vor ausschau
mo ving
inc lus
pos sibly
hin der
sol d
Kon ta
cour age
As sozi
groß es
prote cted
real ise
voll kommen
Nach druck
Problem s
Hin dern
Berichterstatter s
hö chst
defin ite
pay ment
cal c
sid es
introdu cing
Entwicklungs länder
lea der
sto od
mark ts
prep are
pot ent
dom in
respe cted
additional ity
Nahrungsmittel hilfe
territor ial
intent ions
benach teil
erinner t
Dub lin
E ffe
F P
K ou
K lim
S uch
a str
a verage
g one
n erst
s ha
z ieren
un be
be einträcht
as es
ge wissen
se ction
se kret
ver we
il le
pro ble
dies bezü
ts ein
tr ib
la d
Re al
sp ür
will igen
fe il
ah en
sie ben
Ein igung
mehr fach
econom ies
Gen ehm
Regierung schef
Verbraucher politik
Stra ßen
At lant
aim ed
effect iveness
bereich e
ifiz ierung
prof ess
expect ations
Bas que
würd igkeit
Handel n
Democr at
gewä hl
fig ure
Untersuch ung
brief ly
vergen ce
jüng sten
wält igen
announ ced
Umst änden
Dis ziplin
dign ity
woh ner
Kou chner
3 4
B undes
M ann
M ot
O sten
W est
c ard
f ats
g in
s al
in ts
ein stimm
and a
om in
ver sicher
pro ve
In nov
In stead
ex em
schaf ft
Sch ro
ger ufen
Ab änder
mo dell
beit rä
spe zielle
ill ustr
cons erv
sein es
act ing
fre und
dec kt
uch s
oper ational
Zusammen halt
wel chem
Zeit plan
wen ige
exam ples
wichtig es
zwe ifel
hap pens
Li ikanen
meet ings
ehr ten
mut ual
improve ments
sto ßen
Social ist
sufficient ly
Forsch ungs
mensch liche
Gel der
nation als
ref erring
Wes tern
Ze ichen
Todes strafe
Vorred ner
clim ate
thor ough
AI DS
0 16
4 6
B au
H och
M and
c ities
e ast
m ob
n ut
s ach
u ll
ü g
er arbeitet
in zwischen
is ol
le y
be kämpfen
ver dient
da c
iss u
con fir
con ven
con vergence
ha fte
tr ial
mit teilen
Be wer
Be cause
Be isp
fe lt
An lagen
Th en
Aus richtung
el ig
part ly
iz üg
zw ungen
produ cing
lau t
Arbeit en
finan ced
Program men
Da v
air ports
Wettbewerb spolitik
einge halten
einge leitet
gut es
vi our
Zust and
appe ll
exper t
inform iert
eindeut ige
equ ip
gelten den
repe ated
ühr t
prepar ing
Tour ism
Proz ent
detail s
extens ive
bestät igt
österreich ischen
erneuer baren
beha viour
Rind fleisch
compat ible
politic ians
expe cted
mindes tens
Beisp iele
D ro
D än
L ie
M ol
P H
S ouverän
Z ul
a be
b a
b io
d ent
d ritten
f are
i for
l if
s ü
Ä r
in ational
re tain
au ton
ic ation
ver langen
ter en
wh atever
um zusetzen
me at
aus einander
sen s
ck x
An griff
An passung
wor te
Sch reiben
ger t
lin ks
ass ume
ör t
hand s
sol ve
sol id
ub a
consider ably
wa hren
inn ere
Le ft
rapporteur s
Bed arf
subject s
begrüß t
person ally
Organ ismen
kurz em
kr imin
apply ing
head ing
Gegen satz
Luft verkehr
Ob wohl
würd ig
War en
gebie te
except ion
Wachstum s
Einw anderung
bestät igen
ernsthaf t
unmittel bar
gegebenen falls
Flüchtl ings
Pers pe
secut or
Ster ckx
beunru h
Prakt iken
verlei hen
Begründ ung
B eseitigung
D ary
P ens
Z B
c ast
g ünst
w s
en gen
ch ung
it zen
ro o
ro om
ge ehrte
de z
we ap
sch w
sch reiben
ed ter
da hin
pro to
tz eit
aus gaben
end t
ident ity
reg arded
Er nen
dar unter
inc ent
lin ary
ish ing
mar itime
ho le
dam als
Ma astr
over come
Gemein schaften
viel er
nat ür
pa kt
Politik er
bestimm t
bestimm ter
refer s
sign al
Bed ür
Ant worten
ikan ische
ktiv ität
global en
peace ful
reach ing
tem por
umfassen den
oblig ator
Mär kte
exten ded
fail ure
mand ate
facil ities
humanit ären
Dienstleist ungs
material s
inspe ction
koh är
Zw ischen
Sw itzer
typ es
heav y
sovereign ty
Jugoslawi en
Fer ber
foll owed
Secret ary
comit ology
Schro edter
Switzer land
4 1
A no
B il
B olk
G lück
I dent
d orf
e fe
e chte
p ir
w al
w ritten
á n
at tra
at isation
re am
re mark
ar k
ent weder
le hnung
be k
ge ist
ing dorf
ver halten
ct ors
dies el
ges tr
op pose
with draw
est ein
ad vis
Be achtung
Be trieb
Aus nahmen
Aus maß
ug g
Parlament e
Ge ber
kann ten
sol ches
schließ t
Entwickl ungen
mon etary
richt igen
Fre izüg
comp lic
abl ing
Problem atik
hä fen
industr ies
compet ent
gew innen
Beit rä
Sozial politik
pay ments
Gleich stellung
Kom peten
pur poses
priv aten
Bar ingdorf
Entwicklungs ländern
trie be
Gegen stand
quo ta
Außen politik
grundlegen de
breit et
beschrän kt
immedi ate
genet ically
Rand lage
Inst anz
constit ute
Gra efe
Ak in
excess ive
türk ischen
Bestand teil
contrad ict
employe es
Ruß land
Dän em
Ano ther
Bolk estein
4 7
A O
D ingen
E le
E ZB
F et
G rem
G laub
W issens
e valu
f ill
l eng
l ös
p hen
in adequate
at ers
ie gen
re a
re chen
st offen
be faßt
zu läss
pro test
ir regular
auf en
ul ner
vor an
ck er
end um
hal tet
An derer
hen ce
lo b
ap art
par allel
ik ations
reg ionen
Sch ne
Vor rang
inter ested
Ab lehnung
kon vention
lä chen
sit es
gesch ü
deb t
deb att
ot t
sicher zustellen
Al ter
recht fert
process es
Ges icht
Finanz ierungs
Euro dac
second ly
tax es
Produ ktion
wach stum
derzeit ige
Markt es
hervor ge
freedom s
Kinder pornograph
mult inational
leist ungen
Den mark
Überein kommens
kr ieg
farm ing
offer s
Eng l
tru th
wesentlich er
satis factory
einheit liche
pts äch
ordn ungen
hinzu fügen
Per haps
grant ing
bemü ht
Funktion ieren
bein haltet
Fo od
Etikett ierung
Rea ktion
Hä fen
facilit ate
ursprüng lichen
ilo so
Ereig nisse
veget able
Tai wan
inclus ion
Regierungschef s
Maastr icht
Anderer seits
Kinderpornograph ie
0 10
A ust
D u
D ut
H äl
L ang
L abour
O hne
W all
k örper
l atter
p ie
p hase
v ulner
ö der
er neu
er leicht
er hält
an c
or um
st äd
st ressed
ent standen
im pose
ver wiesen
ab use
ut ing
tr ust
kt iver
gr enze
Europä er
go als
ob li
führ te
mer ken
cour ts
rel ates
stru kt
Zu dem
govern ance
sicher stellen
ateg ory
ine vit
zwe ck
Le ute
num erous
tal ks
Arbeits markt
ship s
cor e
finanz iert
för der
Ha ving
gratul ieren
ev ident
play ed
firm ly
beant ra
verstär ken
coher ent
Landwir tschafts
einheit lichen
Belg ien
plann ed
Untersuch ungen
Zivil gesellschaft
äum t
Terr itor
argument s
restrict ions
Alli anz
Nieder land
räum en
Kü sten
destro y
Wür de
cou ple
prosper ity
Griechen land
wettbewerb s
Vitor ino
sekret är
Freizüg igkeit
Häl fte
5 5
A lt
D ollar
P hase
R enten
b or
h le
h em
h ouse
l ust
m lich
or gt
le un
be ob
to uch
da k
he t
Ver urs
In s
vor hin
sp lit
ma il
An träge
An merk
ann ien
ions fonds
ther lands
reg ister
Wir d
war n
Vor sitz
igh ten
fre ie
dec entral
new s
Unter schied
gleich heit
iger ung
rel ativ
comp li
qual it
pa ßt
requ ests
Ne therlands
Arbeits zeit
strateg ischen
Ger ichts
ium s
follow s
ban ana
grö ßt
difficult y
19 7
hau ptsäch
hervor ragen
uni form
keep ing
stra frecht
leit ung
entwickel ten
Pal est
demonstr ate
eas ier
beant worten
befür worten
brit annien
Groß britannien
distrib uted
Geb äu
terr or
ehemal igen
verletz ungen
mär kte
highl ighted
Kat ifor
Klim a
Bewer ber
Glaub würdigkeit
Katifor is
B lok
C lear
O ther
W omen
a waren
b üro
d iction
h ib
k n
k re
r id
t ungs
er fordern
er scheint
in telle
ent re
le hnen
be le
be findet
ab sur
res ist
us ual
li ber
vor stellen
el der
bei getragen
Wir kung
enn ungsan
ger icht
Vor lage
Ein schrän
muß ten
inst ream
stand e
oper ating
into ler
groß em
Fre e
dan ach
Deb atten
find ing
On ce
after noon
zweit ens
EUR O
essential ly
suc ceed
prevent ing
applic able
Vertre tern
leist ung
Flug häfen
neg ativen
Steuer zahl
Pos itionen
krä fte
strengthen ing
correct ly
super vision
Män nern
nachhalt ige
ausgezeichne te
RO M
near ly
Garant ie
Bereit stellung
Brenn er
verste he
mill ions
strukt ure
awaren ess
4 3
A ut
F our
H olz
S äu
Y es
c op
d oppel
f as
p urely
s light
s low
er teilen
th ly
an nehmbar
at ische
te x
de ck
we ight
ten e
ab stain
hr endt
um faßt
id o
auf treten
wer fen
Ver bot
gr ie
co de
Be hrendt
An näher
St ability
was ser
pres er
Bericht en
durch führen
anz un
geb aut
Grund sätzen
deb ating
fu hr
wirtschaft lich
trag ung
handel s
stat ist
necess arily
ler nen
jen er
neh me
tax pay
zusammen arbeiten
grif fe
Proje kten
Hau g
För der
General dire
viol ation
Verbesser ungen
bekannt lich
cho ose
kom ple
equ ally
beteil igen
determin ed
verstär kt
Beitritts k
Brit ain
Erfahr ung
mot iv
Leg isl
Proz esses
Wahr ung
Gree k
explan ation
proz esses
explo itation
keines wegs
apprec iate
threaten ed
vorschlä ge
constant ly
rech tzeit
compens ation
discip linary
genere ll
Mechan ismen
descri bed
sym pa
restric ted
Hilf s
Souverän ität
Bedür f
phen omen
3 9
A T
F Y
K le
R in
V allel
b ann
b tedly
c ro
g st
k il
m osp
n ine
t ä
w aters
er lassen
in halt
or ous
re act
be comes
die d
au ber
ur teilung
se bene
ou btedly
so weit
so ever
aus ende
sp art
über lassen
ag er
tra ce
Vor teile
unter streichen
ers und
polit isches
but ter
hin weg
cons c
geb ill
fact s
gese llschaften
pla ces
consider ing
ves sels
Al so
bereit gestellt
Gese llschaften
trans l
stär ken
inde pendence
för derung
genau so
bed auer
Wh ile
applic ant
affe cts
Binnen markts
versch är
äußerst er
Währ end
treat ies
eas ily
indic ated
determin e
Wel th
expla ined
Haf en
beru ht
sper iode
garant ieren
function ing
Element e
fif teen
Dan ish
Alli ance
Jahrhunder t
Luxem bourg
Kaka ob
Pap ier
acknow ledge
Kontin ent
Subsidiar ität
Pl atz
beabsicht igt
interven e
insof ern
won ach
oppos ite
hervorge hoben
vulner able
Blok land
FY ROM
Vallel ersund
5 00
C IT
H ab
H anf
K ir
M ut
P SE
S k
W ur
b omb
c ategor
j ournal
j ido
k ü
l ists
m essen
s inc
er zeug
er arbeiten
be trieben
ge arbeitet
sch lag
gen ie
no ted
ne un
ut ung
Ver such
Ver ring
Ver lust
aus geschlossen
ex ter
ident ified
co operate
Be tra
sh ared
An k
Er haltung
her stellung
ip her
Parlament ar
Ein richtungen
ple as
gel ingt
Inter nationalen
bas ically
ansp rechen
net work
recht lich
Her kunfts
av iation
ordin ary
handl ungen
jen en
star ken
pay s
einzel ne
gebra chten
zusammen arbeit
Produ ktions
carr ying
EC B
feel ing
sur v
entscheiden de
entscheiden den
pass iert
sex ual
maintain ing
poor est
funktion ieren
Belg ium
interess iert
länger ung
Män ner
Gesprä che
Sto ffe
mist ake
associ ated
IC AO
dank bar
mä cht
neighbour ing
erläu tern
Unabhäng igkeit
chair man
Krä fte
endor se
Anders son
Genehm igung
Dänem ark
iloso ph
dak is
grie ch
anzun ehmen
Vallelersund i
3 3
E jido
G et
K andidaten
S h
T rad
a ken
b eseit
e der
g reif
g lad
k orr
z t
ä hl
er gibt
er leben
an se
re place
st ät
ein ger
for em
ver pflicht
ter e
ab and
con ventions
um ed
Ver trägen
Ver fassung
Ver brechen
Un i
In kraft
Re present
Be trag
Aus nah
per cent
under take
what soever
sa ving
act s
Men ge
cour t
amend ing
pl ies
anges tre
Abstimm ungs
Ne tz
Ne tze
Br ief
Sicherheit spolitik
einf achen
drück en
Österreich s
Emp loyment
restr uct
Bo den
ph ys
rac ist
uner läßlich
conclu ded
continu ed
tele communications
GM O
traffic king
Swe dish
militär ischen
kürz lich
grundsätz lich
Sen kung
verteid igen
Chancen gleichheit
Ern ähr
counterfe iting
Auft rag
gesicher t
juris diction
relative ly
Milit är
Mid dle
elig ible
Ident ität
Verring erung
forem ost
A kt
D R
E isen
P räs
P läne
T EN
d än
e ten
p ap
t rop
t went
z enten
en ded
er ad
ch arge
on y
at al
be wältigen
te ten
und oubtedly
sch ö
zu kommen
ir y
la p
vor zunehmen
lo c
ap pointed
je ctive
Aus be
Aus einander
Sch uld
Ar ten
Ber uf
coun t
Fra gest
durch ge
sol ange
fol gung
ange hen
wel ches
wel fare
your self
voll er
cent re
Ger ade
answer s
kurz frist
Co operation
fern er
Minder heit
reser v
dela ys
Fern er
verab schieden
Ku hne
acqu is
Schl üssel
früher en
Fahr zeuge
Voll beschäftigung
Bro k
Handl ungs
ergän zen
Krank heit
beauf trag
Zif fer
scr utin
einstimm ig
Verurs acher
compli ance
Clear ly
tex ts
0 20
8 1
8 5
D uring
O z
R aums
V ize
W here
Z imbabwe
d ung
d ritte
o te
s il
er hoben
an ische
ge wiß
ig u
zu gleich
for ese
ver lassen
ver wenden
ver ändert
ct ing
pro ved
auf nehmen
Ver längerung
tz ten
aus gesetzt
aus stattung
sp read
Par ität
Be fugnisse
sh o
sh ilfe
Aus wahl
tra ges
sta ke
Ein er
Ein heit
Ein kommen
wä sser
kon stitution
kon sequent
ank er
under stood
fre qu
zw angs
Inter nal
respon ding
effe ktiv
gest altet
les en
environment ally
large ly
Gebie ts
Am ts
ko ordin
Verbraucher schutz
finanz iell
sm aller
open ha
ikan er
Durch führungs
Gemeinschafts initiative
member ship
Verhandl ungs
gegenwärt ige
General sekretär
akt uellen
Gesetz geb
field s
erwä hnen
dist ort
Luft verkehrs
Staats an
encour aging
rest or
Plen ar
rapid ly
mot ions
histor ic
Haf tung
alloc ation
nachhalt igen
Kommun ikation
adv ance
unanim ously
bemü hen
Kaka o
acknow led
wit ness
gh ter
satisf ied
Stud ien
publ ished
profess ional
elder ly
Beitrittsk andidaten
sinc ere
Präs id
Vize präsident
B ureau
E igent
F as
G u
G erecht
R edu
W ähl
d lichen
e ll
e ight
g ap
k to
r assist
ü bt
in fr
un möglich
un necessary
ent steht
ge tr
ge faßt
ur en
for me
ten d
ab sen
ne x
res sourcen
est ic
vor liegt
vor bereitet
lie fert
ste uropa
lo ck
ik as
Sch wä
Sch icks
Er it
comm od
ult imately
Ein stellung
Ge wicht
Ge fahren
199 0
gel ingen
min utes
ange wand
zw ingen
important ly
lau sel
bre ach
Her kunft
val id
Haushalts jahr
He ad
Pr ime
glau b
defin iert
star ke
uer ung
Best re
Situation en
Unternehmen s
versch le
exp lic
fl ation
Aspe kten
gefähr lichen
mark ed
jähr igen
struktur en
verantwort ungs
verhin dert
angemessen e
prepar ation
ärm sten
suffer ed
urgent ly
verl ieren
tele vision
schl imm
französ ische
beru hen
bro chen
seek ers
condemn ed
langfrist ig
prim ary
prim arily
spezif ischen
Faktor en
dep th
Lauf e
Konsequ enzen
crop s
aust ausch
Sign al
exclu ded
fores try
Assozi ierungs
Disziplin ar
issu ed
confir med
Dut ch
hauptsäch lich
Annäher ung
Fragest unde
. ,
7 00
9 6
B is
B uch
C it
E ch
G ang
N ein
N iveau
U E
f ted
f low
i qu
l imin
p ict
t ter
en nen
er wiesen
the or
be wegen
ge leis
au l
de x
den jenigen
se as
se eing
isch ung
ke hren
um än
id ung
ha f
ul ate
ste igen
ant ibiot
fa ction
com pon
Pro te
str on
cht ungen
br uch
unter brochen
Ge fü
pre limin
ple ase
mar gin
teil nehmen
dr ingen
geb unden
bar r
trä ger
Auf grund
fä ll
zie mlich
best immen
art ige
govern ing
pen ded
organ isms
Mar ket
eng ag
Finanz kontrolle
Des wegen
itä re
acc idents
extre m
cor rup
back ground
Wo hn
negoti ating
atten d
chan nel
gra v
const itu
hon est
enter ed
gesellschaft lichen
Mal m
Ur sachen
Bestimm ung
itäts prinzip
lok aler
Co sta
maintain ed
heut ige
gebie t
erheb liche
Ru le
wiederhol t
run ning
Do es
genuine ly
woll ten
verur teilen
Wahr heit
school s
äum en
kauf en
Unser er
emiss ion
ersch einen
Garant ien
Wohl stand
interpret ation
Zentral bank
iox in
Offen heit
hü tung
russ ischen
endeav our
conserv ation
rechtzeit ig
Ausbe utung
absen ce
prelimin ary
D auer
H atz
M aterial
N eben
T age
T ests
V an
c lause
e co
f ib
h ur
i dakis
r aums
s ad
w est
z weiter
un denen
al d
st ab
ar ing
ent ail
ge g
ing er
im per
gen der
da ily
ct ual
Ver trages
Un regelmäß
co hol
Be kannt
ben s
über aus
qu orum
ungs ausschuß
Th ose
schaf fung
Aus sage
Vor teil
President s
pre ced
oun ded
muß te
erst re
ome tr
Unter nehmer
Sta hl
weil en
Fin an
ot ential
beg onnen
Dem okraten
Gese tze
Haushalts linie
Dar auf
Bes uch
Man gel
gra d
gewähr t
sto ß
care ful
wider spie
Ir ish
ton nes
top ical
Ob jective
active ly
zentral e
Schul den
modern isation
unabhäng igen
gebie ten
Belg ian
deli ber
Zuständ igkeiten
exclus ively
zä hlt
pun ish
spo ke
AR E
berecht igt
keines falls
Com p
Erwä g
hop es
genü gend
bedro ht
ampag ne
Kop f
sorgfält ig
PH ARE
Aust ausch
obli ged
ennungsan lagen
Get re
aband on
zwangs läufig
Gerecht igkeit
Cit iz
Malm ström
Hatz idakis
3 6
9 7
E v
N ahen
R espe
S up
W og
b ese
b orn
e chten
g ht
m un
z ierung
z ivil
Ä uß
in ens
al ity
as ide
ge zwungen
de cken
ou red
ra id
pro hib
auf fordern
tr anse
af ford
aus wirken
os ystem
vor mittag
ant icip
com ings
je gliche
str i
el on
bei hilfen
dar gelegt
Vor stellung
inter institutional
fr u
zum al
under lying
geb ühren
entr y
Con stitution
pen se
Te ile
exam ination
dra fted
Gen au
fair ly
Mon at
regional er
represent ation
conf ident
finanz ieren
help ing
zusammen zu
proper ty
kind s
short comings
Fä h
mäß igen
schnell er
flex ib
Bel der
vol ume
Menschenrechts konvention
Menschenrechts verletzungen
befür worte
reser ve
genet isch
Christ demokraten
investig ation
Bö ge
schätz ung
appoint ment
ökonom ischen
deser ves
Stabilitäts pakt
Kür ze
Kohäs ion
äst inens
Journal isten
proble me
proto col
entre pr
Kakaob utter
Represent ative
Ausnah mere
explic it
theor et
Wog au
A id
G UE
N utz
P rop
W ass
b lack
d ur
d um
k ommission
n iveau
o ber
p lä
in fe
an träge
st ag
st able
be danken
se min
ic ken
ver hält
ver letzt
ab schließend
il s
des tru
all ing
Ver b
Un der
sen ior
ah me
err or
com plement
do k
str ik
enn ess
ger aten
ger ichte
tra vel
her it
üs s
Ge ist
hin dert
ak te
fre mden
Kon vention
present ation
just ify
deb ated
Con sequently
Min uten
besch ließen
komm er
Bürger innen
legisl ativen
sozial er
Gen fer
Finanz iellen
number s
zeich en
Entschließ ungen
gew ün
strateg ies
sc ore
post s
person nel
einzu setzen
bil det
short ly
sto cks
Ur teil
tatsäch lichen
Bo we
sus pended
coordin ated
fert igt
mitt lung
oft mals
clar ity
rest ore
rad ical
nehm ern
Mittelme err
kontroll iert
schle cht
pursu e
claim s
zä hlen
vernünft ig
qualifiz ierte
La dies
geograph ical
Ap p
hy po
defic it
sole ly
Don nerst
Akte ure
coll abor
obstac les
Rechtsstaat lichkeit
feeding stuffs
definite ly
weap ons
beantra gt
Palest in
phenomen on
Welth andels
Finan cial
Citiz ens
Donnerst ag
5 6
5 7
B ill
E VP
J on
M ich
O ver
P h
S ind
i able
k und
k olle
l at
m es
p ic
r ent
r ul
er weisen
in i
ch mal
an be
is ted
al arm
der og
ar ms
ent licht
be einf
ge treten
ig end
am es
sch ul
sch wä
sch wed
zu vor
ic ity
ver tritt
ab gesch
so genannte
Europ ar
ul i
We it
com ed
St raft
St unden
St immen
reg re
Er reichung
her gestellt
unter scheiden
unter zeichnet
är kt
ass ungs
hin gegen
Reg ard
Reg ime
wä hlen
200 5
ak ten
For st
Ko operations
stell te
deut schen
Über gang
wel comed
Entwicklung shilfe
gest altung
respect s
hö here
öff entlicht
lichkeit en
Stand ards
consum ption
look ed
zurück zuführen
einzel staatlichen
guarante eing
Bes itz
lead s
Form ulierung
Entwicklungs zusammenarbeit
schwer en
Wort meld
With out
Ur spr
poll uter
Geschäfts verkehr
fünf zehn
Sitzung speriode
Gipfel s
mechan ism
Techn ologie
bear ing
facil ity
Krieg s
refle cted
Absicht en
schle chter
inspe ctions
betre iben
citizen ship
verw altung
Verhalten s
ökolog ischen
IP O
niedr ig
Subsidiar itätsprinzip
Bild ungs
Vorsitzen den
begrenz t
begrün det
Klar heit
bureau cr
wid men
decl ared
züg ig
EL DR
Gebäu de
restruct uring
Ech elon
Unregelmäß igkeiten
anbe langt
) ]
9 8
F ar
F isher
J ap
K ann
K orr
M igr
N acht
T rag
a der
e li
p s
p ush
er lebt
al cohol
be zahlen
ge he
ic ed
ver teilt
ver öffentlicht
so bald
tr end
op enness
aus end
lie ber
lie fern
qu is
qu ar
ag ue
Th urs
wor st
Er gän
wo hn
lt reffen
unter breiten
Ent last
fr üh
per ipher
ieren der
cons isten
schließ e
De tail
vie wed
fä l
program ms
unkt ions
Sta ates
Fin land
lau ghter
off ices
sicher gestellt
Se ktors
Besch rän
weis ung
wieder hole
Da ß
klär en
Sicher ung
contin ues
geleg te
hö re
statt gefunden
Teil nahme
acc ident
Schutz es
nor m
demokrat isch
appe ared
einzu führen
lauf enden
UN O
abhäng ig
demand ing
entscheiden d
einz ig
akt ive
Gipfe ltreffen
gemeinschaft liche
Je der
minister s
Isra eli
Sü den
unterschied lich
Americ ans
Post dienste
beant wortet
sec ret
gewä hren
except ions
formul iert
pursu ant
bi ometr
erhö ht
Luxem burg
deser ve
Bereit schaft
tief st
Alters versorgung
transition al
Sa al
Bevölkerungs gruppen
parlamentar ischen
Verzö gerung
Betrugs bekämpfung
undertaking s
Ter min
opt ions
Futter mittel
auton om
rechtfert igen
Engl ish
Steuerzahl er
twent y
Bekannt lich
dok ument
) ;
C orr
K MU
O cto
T aten
T onnen
Z war
c kel
f am
f res
h ous
m ick
n ör
r ies
z ard
Ö k
er ungen
er teilt
er setzt
un ab
re ve
ent fern
ent täu
be wiesen
be handlung
wi es
zu sagen
il ot
um setzen
ir re
tr ied
des wegen
vor n
vor gehen
sp end
sp iel
00 7
wor thy
Aus ge
Mit wirkung
ac cur
bes orgt
can ce
inc ident
Ein stimm
ass ent
ill s
durch zusetzen
200 4
mar king
stand ardis
sit e
pla ying
Ko operation
Inter vention
Zusammen setzung
rel ate
art icle
comp ared
fest zustellen
Rechts rahmen
beg ünst
process ing
cent res
Fl achs
fahr t
contro vers
Wer k
ktor en
15 2
amb igu
nor men
Ansicht en
exp and
fl ü
gefähr lich
gefähr det
fortun ate
previous ly
verb undenen
signific ance
top ic
clar ification
dom estic
Qual itäts
ethn ischen
gewä hlt
remo ved
proport ional
Mac Cor
Gesprä ch
kulture lle
adv ice
vorhanden en
explan atory
friend ly
prison ers
observ ations
höher en
kompliz iert
Leist ungen
Auto s
freu en
launch ed
stärk ere
Tun is
Metho de
verz err
gebe ten
vorange gangenen
Soll te
Stu die
Hindern isse
FP Ö
Mol do
Är z
tempor ary
Wall ström
het or
openha gen
Getre ide
entrepr ene
Fisher ies
Thurs day
Octo ber
MacCor mick
A P
A llow
B l
B ab
D ad
G iven
H ome
J uli
L angen
O st
S M
S of
T reffen
f än
f ounded
j un
s laughter
í a
ü cke
in folge
on i
on ial
un eingeschränkt
re volution
and e
ll ar
sch lage
zu tiefst
ver handlungen
ter in
ab gesehen
Ver teilung
ul f
not ice
la den
In sofern
af raid
ta gung
sp here
ident ify
ben ch
ma cro
über prüfen
je op
Pro secutor
Er laß
Ar men
Ab schaffung
weit ung
nach mittag
ass es
Ge werk
dis p
erst ens
cr imes
Kon vergen
los s
best ände
alt ies
regard less
fest legen
bis lang
pl us
Im p
spec ies
klär t
liegen den
prom ised
prom ises
Ste uern
inner en
exist iert
pay ing
allow s
Em bar
bel s
Gemeinschafts recht
bestehen de
sur round
versch mutzung
mult ilater
cover ing
Amsterdam er
dou b
sag ten
Sü do
lok ale
Dialog s
verstär kte
kontroll ieren
flo od
unver züglich
benöt igt
appoint ments
ähn lich
autom atisch
ival ent
bedau ere
erwar tet
Verf asser
indire ct
migr ation
Mart í
mittler en
suit able
feil er
án dez
Schne ll
debatt ieren
pie ce
büro krat
absur d
instream ing
sympa thy
trace ability
Inkraft treten
Schicks al
preced ent
Ev ans
Respe kt
Jap an
Dad urch
Konvergen z
8 7
F assung
G ut
L ond
O kto
R ap
S ex
S imbabwe
b s
d ig
i th
l iter
o zone
u de
an halten
it ive
ie ties
al ition
re move
ar g
ar ies
ro h
be ur
as pe
ge langt
de als
de pl
for ests
ver bo
ver deut
ab gegeben
ier huber
ha zard
sen ding
Re icht
We ll
ze go
Aus weitung
str ichen
reg ierungs
Sch ierhuber
Er fordern
wo durch
beit ritts
dis krimin
geb il
ak es
dam aging
Kon sens
sub sequently
mer it
produ ctive
program men
gest atten
Fre ise
Fre ih
besch leun
voll ständige
eng age
Her zego
Mon tene
bestimm ungen
conf usion
vious ly
lang sam
Durch setzung
bed auern
gefähr liche
wenig sten
ator en
Wieder herstellung
Beih ilfe
jeden falls
enthalten en
bisher igen
him self
Industr y
Viel zahl
krit erien
Kön nen
Nicht regierungs
Dokument e
derart igen
mechan ismen
itz t
conclu des
verschieden er
Ru br
Beteil igten
author ised
jahr es
Drit tel
valu able
fif th
Rats vor
Lärm be
stärk sten
worr ying
Metho den
nieder länd
Freedom s
Befür chtungen
Sco tland
Kategor ie
ado x
Beiträ ge
lös ung
Parlamentar ier
korr ig
beauftrag ten
Oz on
Redu zierung
herit age
Corr ie
Lond on
Okto ber
4 9
4 00
B la
B io
G uter
L ob
W äl
e ye
g igen
n ischen
p an
p al
th alten
re ds
ro at
le id
be ziehungen
zu zu
for est
ver ordnung
ere i
af ft
dem ograph
su che
sp ite
An wesen
do ctors
par tei
ien e
Er schein
Er richtung
able hnen
Vor gän
inter im
her zustellen
dis par
Au tom
lan z
more over
cr ises
sit zung
Kon zentr
ange wendet
sche idet
wirk liche
gehen de
Aussch üsse
Fre ude
Rechts pre
Rechts sicherheit
statt findet
Wer den
Li ke
zurück zu
Verantwort lichen
Vol kes
Dar in
applic ations
bereich en
organis ierten
mult ination
län gst
Chin ese
dist in
frei heiten
miss ible
Ratspräsident en
Ju ly
Vertrau ens
exten ding
Last en
trotz dem
Vorgehen sweise
Straß e
ush k
affect ing
div ided
Versch mutzung
caus ing
Sach verständ
manufactur er
endgült igen
Flüchtl ingen
ausführ lich
Lat in
IS A
obser ved
ceil ing
Every one
schritt weise
lis te
advanta ges
beunruh igt
roo ts
irregular ities
geschü tzt
categor ies
Präsid ium
Erit rea
angewand t
Korr up
Montene gro
multination als
B itte
C res
K yo
M ost
N och
R umän
T em
T ime
T AC
d rop
f ixed
k ul
k einem
m atch
s wi
t ten
en for
er weit
th r
th al
an wenden
re liable
and en
sch ar
ve y
ab schied
Ver wirklich
Ver abschied
In ner
aus gerichtet
vor anzu
vor sieht
ex pens
ex pense
sp anischen
än glich
über mitteln
do llar
wor ding
En d
inter nen
Ab häng
sta ats
sel be
dis appear
Au ge
per su
ho her
anz ig
geb lieben
present ing
agre es
wirk samen
Art icles
gest ärkt
pa ar
Or ient
offen en
bewer ber
hol ds
trans actions
sc ience
refer endum
sect ions
mil ch
amb od
Lebens qualität
power ful
regul ated
Gemeinschafts politik
Hau p
lack ing
Energ y
anzu wenden
Sp ann
gra de
ipfe l
Rück verfolg
Flug zeuge
schre it
angenommen en
Bo th
vol unt
würd igen
meth o
rad ik
Pre ise
paragraph s
asse ts
incorpor ate
spee ches
dut ies
intens ive
intens iv
Plan ung
Prü f
unanim ity
Verteidigung spolitik
behör den
Jahrhunder ts
south ern
grün den
terr ible
stabil isation
Gest altung
stor ms
sprü che
behaup ten
vig il
don ors
ceil ings
erwähn ten
Sitz ungen
anspr uchs
Besonder s
Unions bürger
Innov ation
Abänder ungsan
einger äumt
scrutin y
Regard ing
surround ing
Nichtregierungs organisationen
Guter res
Kyo to
erweit ern
Verwirklich ung
Verabschied ung
Rückverfolg barkeit
A tt
B u
G F
G üter
I K
J ed
K airo
M old
N one
P ak
T enden
W andel
W IPO
d rit
e g
o ting
u chen
er ten
er kannt
in tra
an streben
at tain
ar beits
le ite
we gung
ber ührt
he il
he ik
con fu
us ually
Ver schie
Ver ordnungen
ul ating
la stet
Re cycling
fe l
fe wer
com position
Sch mid
Sch engen
Er inner
bes itzen
bes itzt
durch schnitt
ide olog
glich er
Um gang
Zeit en
where as
rat ifiz
less ons
exam ined
hol en
ausge geben
Verbrauch ern
Sozial demokratischen
promo ted
And al
eig entlichen
prof its
contain ing
item s
refu se
cho sen
schwier ige
turn ing
Entschließungs anträge
jähr ige
Ob viously
hear ing
indic ation
Schul en
tradition ellen
satis faction
brit ische
attem pts
Asyl bewerber
wogen heit
beginn t
Gerichtshof s
cred it
wide ly
gering er
efficient ly
profit ieren
strict ly
schätz en
qualifiz ierter
SP AR
combin ed
harm ful
höch ste
Gest atten
permit ted
offiz iell
Exper ten
writ ing
beizu tragen
imag ine
complic ated
lob by
erleicht ern
bor ne
konstitution elle
transe uropäischen
App lause
Ausge wogenheit
Einstimm igkeit
Moldo va
Abhäng igkeit
0 15
5 2
8 4
C eder
D r
D el
E F
E valu
F ach
G ol
L og
O T
b ten
b all
c ere
d den
f it
g ipfel
h ilf
j ahre
t ang
w of
z a
ä he
er freut
ch ain
is ra
un it
ar en
be denken
ge denkt
de e
se lt
sch iö
zu gehen
zu tage
for um
ver zeichnen
ab schließen
iss es
ir able
me e
me ister
la y
sen den
sen ken
ad verse
Be wuß
sh op
ag anda
An wend
An hör
str and
Mit verbr
leg te
Er d
Ent schäd
kon tin
gel ung
min ute
min ded
dire kte
zie he
ient s
Al ternative
Hin sichtlich
ohne hin
ausge hend
Kin des
sc en
sc andal
Stand punkte
gere gelt
whole hear
kur r
amb ition
institution elle
einf ache
negoti ate
regul atory
open ed
result ing
sum mer
einzu beziehen
reco very
Zahl ungs
Ex istenz
trad itions
regel mäßig
mäß igkeit
char ta
entscheiden der
gefähr den
tour ist
tour ismus
deter ior
Konfli kte
hard ly
refle cts
Dritt staaten
genet ic
az itäten
Fle isch
contra cts
vernünft ige
Spe cial
declar ations
Kur z
Diskrimin ierungen
Terr or
militär ische
dead line
vorschlä gt
Emiss ions
Mor oc
verurs acht
monopol ies
embar go
moder nen
Gesam theit
zer o
drän gt
dynam ic
Finn land
wünsch enswert
Gewähr leistung
envis aged
bekräft igt
verring ern
mak ro
schrift lich
angekünd igt
approx imately
körper schaften
intelle ctual
Head s
pict ure
corrup tion
entfern t
doub ts
hazard ous
Rubr ik
Rumän ien
Andal us
Ceder schiö
isra el
Cederschiö ld
B B
C airo
F unktions
G ibt
I ts
N a
O SPAR
P at
P ass
R ese
S ahara
V e
a qu
b udgets
c ity
f ate
f lu
j our
k ern
m utz
u ung
z iti
ä ss
an cing
un employed
at om
it als
re gen
re ck
st ick
ar med
ge dacht
ge fragt
ein zur
ein führen
ll es
sch er
sch edu
im or
im age
ver trag
ver zö
so zusagen
he ber
iss ion
res umed
su dden
Re fer
vor nehmen
ex ec
ck heer
Par is
über sch
ant isemit
fe as
man che
man chmal
Sch w
tra ding
pr an
Ab bau
weit aus
Ent schlossen
mo ther
mo ved
Fra hm
been det
Ein kommens
Ge fän
tre iben
Gr ö
per iode
ide al
erst es
ho od
Mitgliedsta ates
zw anzig
Menschen rechten
bo ok
system atisch
pf lanz
econom ically
Richt er
besonder er
human itäre
ot ti
zeit raum
Aussch üssen
bring s
pen alties
real istisch
red und
bre ch
Her stellung
Des pite
proced ural
klar stellen
Wer ten
further more
erk ennt
fäh igen
Qu ite
prä gt
len ken
Dienst stellen
gefähr licher
edu c
Ihr es
gemeinsam er
sus pic
miss ing
Energie träger
significant ly
Fischerei politik
gerecht fertigt
miß brauch
volle m
Augen blick
langfrist ige
Ku ckel
friend s
autom atically
wahl en
Go od
stren ge
decl are
postpon ement
custom s
geeigne te
Flor enz
Mobil ität
Rent ner
Perspe ktive
Du ff
inevit ably
spart ner
gebill igt
saving s
fib re
Jon ckheer
bureaucr atic
Verschie bung
Rese arch
ziti ere
Gefän g
5 1
B re
G D
G reat
M ult
P ie
Z ug
g as
h ielt
i ated
j ungen
z icht
ä cht
ö deral
en force
er sta
in qu
in tell
in akzeptabel
is ierte
re lie
st em
be wirken
te ach
ing u
zu gestimmt
zu zustimmen
for man
ic kt
ver gleich
ab geordne
ab kommens
um ge
la ßt
af firm
aus üben
Re ad
vor getragen
co vers
ungs maßnahmen
fa ith
An geb
An hang
man geln
ac ted
weit en
vo ice
you th
dis placed
hin derung
che cks
nah m
mar ine
tim ber
lä st
ange hören
dire cted
dire kten
Grund freiheiten
produ ktion
Gemein den
ater ie
belie ves
cont am
plan ung
put s
ausge führt
programm ing
Kr ie
Kr anken
refer ences
sor ry
ko dex
bel g
colle ction
bu y
staat licher
Wirtschafts politik
Wirtschafts wachstum
Fort setzung
UN M
event ually
road s
fl ights
aufge worfen
Vertre tung
Rück kehr
Sub ventionen
civil ian
Gesetz es
Ur heber
Beschäftigung spolitik
Zun ahme
Strateg ien
Tats achen
remain ing
beteil igten
erinn ere
strengthen ed
Schul milch
sk ills
gre en
Leg itim
persön lichen
Protokoll s
Män gel
Veränder ung
Friedens prozeß
vereinbar t
reag iert
unanim ous
quant it
NG L
eingere ichten
Aktionsp läne
Kl amt
dead lines
Argument e
grün det
spezif ische
fes ten
Führ ung
vertre ter
prior it
angeb lich
appar ent
occur red
monopol y
schwerwiegen de
Handl ungen
Wicht igkeit
reiter ate
Defiz ite
meant ime
deep ly
compar ison
gradu ally
hund reds
italien ischen
Beste uerung
conven ience
natür lichen
Einschrän kung
stät igkeit
Gebiets körperschaften
Wähl er
stron ger
Welthandels organisation
Autom obil
Entschlossen heit
C ha
C ould
C ulture
C uba
D ort
I V
K urs
L am
M assen
O per
c ofin
d aten
f is
k orn
m ant
s in
s ight
ä be
ü t
ch a
der iv
ar ise
be völker
be came
be zeichnen
ge plan
ein seit
de le
de tr
de pendent
se ktors
sch einen
ver ank
ver teilung
ab uses
ber uf
ber ichten
wir ft
auf gaben
su gar
Be zeichnung
Be wirtschaftung
än ge
über legen
über prüft
fe ature
An gleich
Aus gleich
Aus gang
man ip
Sch ot
fü ll
fü hlen
ac a
Vor wand
Ab fällen
unter breitet
unter strichen
weit em
hin dern
ple d
durch setzen
teil ungen
anz en
sa w
min im
ange wiesen
bo ost
rat ified
oc curr
trag ic
lu ft
wieder aufgenommen
zug ute
voll ziehen
Gen uß
Her an
offen ces
öl kern
accept ing
Mon day
Arbeits gruppe
sor gung
contro lled
zü ge
kur ze
kur zen
Sozial demokraten
Information stechn
negoti ation
Minister rat
Ant isemit
cult iv
Nor den
Bar ón
pers ist
energ ies
lea ving
weg ungen
kr ank
show ing
deta ill
neg ativ
monitor ed
fert ig
Lebensmittel n
org ungs
Text es
equ ivalent
sever e
emphas ised
jähr lichen
Invest itions
enor men
zentral en
Natur a
bank s
prepar atory
talk ed
Verwalt ungen
Ang st
Quest ions
beglück wünsche
electr icity
garant iert
Jugend lichen
obtain ed
constit utes
associ ations
depend s
haus halt
sett lement
appar ently
konstru ktiven
katastrop hen
Roman ia
Berat ungen
parlamentar ische
Tele kommun
drän gen
grenzüberschreiten de
proje kte
erwähn te
ofin anz
Kenn zeichnung
spolit ischen
Städ te
diesbezü glichen
beiträ gt
equip ment
städ t
Ins besondere
Anmerk ungen
kn app
cop y
Bedürf nisse
Beruf s
sincere ly
Prote ction
Constitution al
Ärz te
Pak istan
OT C
Bewuß tsein
Schot tland
9 4
B ul
E hre
J ör
N az
S er
S omm
b aus
g ie
i vers
k an
n ed
n ungs
p one
s ought
v ina
w age
w atch
z ig
er mut
es ten
un fortunate
at ures
re c
re iz
re isen
st ance
st ieg
ar ten
be wirtschaftung
te am
wi ld
ver stoßen
ter ing
ber g
il en
us ers
des per
mit zu
will kommen
fe der
fa ß
wie weit
str ugg
wo od
war ning
ob liegt
Ber ger
ure d
gro wn
wenn gleich
dr ug
ak is
some one
Kon serv
hier bei
just if
land wirtschaftlichen
Auf sicht
Der iv
deut liche
best re
ot al
where by
gehen den
see ks
Umwelt ausschuß
Le hren
zug änglich
Da von
gener ation
soc ieties
thank ing
Arbeits weise
sc rapie
look s
Eben en
15 0
cre ates
contrib uted
post pone
genau er
einzu gehen
Man agement
priv atisation
success fully
char ges
pop ulations
Stellung nahmen
exc use
dist ingu
gemeinsam es
sus pend
Stabil isierungs
subsid y
stre am
Lin ken
Ju den
ph ilosoph
consequ ence
Miß verständ
Konfli kten
verfü g
ugos law
prakt ische
Tät igkeiten
except ional
bür gern
02 7
bl ind
jeweil s
bevor stehenden
Ban otti
Wirk samkeit
Nord ic
Pflicht en
rig orous
ähn liche
ökonom ische
verbind lich
veran laßt
verteid igt
Roth ley
Lat ein
Roman o
ari at
habit ats
Verzö gerungen
stip ulated
Vermittl ungsverfahren
deleg ates
erweiter t
Beob ach
Versicher ungs
conta ct
gewähl ten
leng th
Niederland en
taxpay ers
Kle in
Kir k
beseit igen
Ernähr ungs
durchge führten
reserv ations
infr inge
geleis tete
margin al
barr iers
Erwäg ungen
destru ction
consisten cy
Freise tzung
swi ft
wholehear tedly
Kuckel korn
Jör g
5 4
8 00
A ir
H al
P rem
P otential
S ten
T a
V ölkern
W ille
b attle
h ing
i ary
n ament
o sen
r ichtet
s ac
s ize
z iert
é s
ü st
ü bung
er stellt
an ke
un fair
un eingeschrän
at lant
or ts
al ien
re conc
re cy
st ände
ar gu
ro ute
be weisen
be fug
be kannten
ge klärt
ein halten
de utet
we aken
zu ver
ver mitteln
ver ehrten
ab geben
ra ising
ut most
ke en
pro ud
ha fen
Ver stär
Ver kauf
Ver hütung
ges p
ind is
vor haben
sp hase
end ung
Be troffen
über greifen
über winden
sich ere
An gehör
An betra
do or
str ing
Mit ro
bei behalten
Vor der
Fr ass
Fr isten
pos sibilities
nach läss
sel ten
pre jud
dis semin
tre ffend
lic ate
Comm on
under mine
dr ückt
setz ungs
Kon vent
lear ning
fir ms
For um
mer kt
Zusammen halts
Über tragung
iger t
sure ly
Arbeit nehmern
Mittel ausstattung
Se hr
pa ir
piel t
ele ction
beg un
Nach dem
Nach frage
Finanz mittel
trans national
gew onnen
strateg ische
invest ors
ss ern
erforder liche
Gesch le
Verantwort ungs
negoti ated
regul ate
demokrat ischer
Ant ibiot
sum s
wün scht
Ergeb nissen
global e
express ing
express ly
Zahl ungen
Ex ternal
Gener ationen
event uell
Jahres bericht
four th
Kultur en
stra ight
Öff nung
dring lich
Spra ch
verantwort ung
krit ischen
Mär kten
conne cted
rein force
fail ing
beant ragen
befür wortet
refuge e
test ing
scient ists
bi olog
wissenschaft liche
Gesprä chen
Hoff nungen
Alban ian
mä h
observ ation
Führ ungs
ausgewogen e
wält igung
Fo llow
Eing reif
türk ische
territor ies
schwerwiegen den
bedau re
advoc ate
wid met
präz ise
Finn ish
münd lichen
nahe zu
Mü ll
Mitentscheid ungsverfahren
gewiss er
Dring lichkeit
Director ate
Effe ktivität
beeinträcht igt
spür en
Mand at
Dav ies
Dro gen
Ernen nung
Betrieb s
Fet te
destroy ed
genie ßen
Betra cht
Eisen bahn
Disziplinar verfahren
fremden feind
lat est
schwed ischen
SM Es
dig ital
Freih andels
Cres po
volunt ary
Mold au
Erinner ung
UNM IK
fis cal
detr iment
Antisemit ismus
Kirk hope
Verstär kung
Anbetra cht
Frass oni
B ern
B auern
C er
E ur
F if
H under
L isten
Q ue
S A
S pr
T isch
T ank
W ho
a des
a ktionen
b iß
c ul
f ur
h of
i bel
j k
j ugoslaw
p has
r hetor
u ier
er suchen
un certainty
re ly
re mit
st ammen
to ug
ge teilt
am an
sch äden
ver wirklichen
ab r
lich keits
hr t
pro vo
us er
ges to
ges pielt
with drawn
gr ass
Re ise
ste el
über ras
sh ares
igen ce
ann akis
St ur
ien en
fen ce
llen n
out set
mö ge
man gel
ay annakis
ac compan
ac commod
heit lich
unter suchen
ens hr
Parlament en
dis put
kon front
ho st
ück en
bet one
min or
Kon text
Ma at
just ification
prov ider
Grund lagen
Grund prinzip
fu el
rat ing
great ly
Min en
far ms
ster ben
führen den
spec ified
Hin weise
hä re
respect ing
stat ten
Verein igte
Mon tag
Haushalts ausschuß
Arbeits losen
bestimm ung
Am t
air port
spr inzip
agen cy
Sozial isten
Bed ienste
vi able
Produ zenten
health y
priv ile
Demokrat ischen
Verhandl ung
Sub st
harmon ised
offer ed
quo ten
Staats bürger
Konfli kts
elect oral
prakt ischen
Betr ü
Haf t
buil dings
bro ader
Einw anderer
suggest ion
suggest ions
cred ible
immen se
transfer s
wirksam er
investig ations
Ide en
Kommun ikations
quant ity
bill igen
log ical
Pap ayannakis
oss ier
targe ted
attack s
Sw iss
deliver ed
weak ness
Schwer punkt
unzu reichend
bureau c
behaup tet
überw achen
münd liche
Büro krat
Ents orgung
Prof ess
respekt iert
erör tern
Bosn ien
korre kt
zerstör t
town s
verm ieden
genehm igt
prospe cts
vorrang ig
expert ise
Zul assung
dahin gehend
multinational en
Staatsan wal
fres h
Wäl der
dispar ities
Konzentr ation
kontin uier
Bul gar
Somm er
Prem ier
Mitro vic
accompan ied
0 8
0 24
E PP
H ence
K och
L ank
S ri
S uche
T on
T ieren
V og
e b
f on
f lächen
f roh
h ern
i dem
i rak
k lausel
m üsse
p est
t schaften
w anderung
y m
y le
z y
è re
en abling
er a
er setzen
in habit
ch ines
th ilfe
an cies
un ions
un annehmbar
it a
re ported
re ception
ion age
ar men
be low
as pir
de fe
de pr
se ll
se con
zu erst
ed s
ter ung
gen huber
con fer
con jun
um gehend
all mäh
Ver stö
Un sicherheit
la gt
In spe
ex ports
Be ziehung
ben utzt
We chsel
iv oc
fa cto
St unde
rä ume
Aus bau
el n
bei der
Er mittl
mo d
pre t
pre ise
pre text
pt ions
sa ke
fol glich
Rat ifizierung
just it
Auf forderung
problem atisch
cer t
Fre ie
belie f
Kommiss are
dra fts
Rahmen bedingungen
Ho he
kehr t
voll ständigen
klär ung
gener ate
gener ations
sc re
Ger ichte
prom ise
lus sen
Br anche
käm pft
defin ing
Produ kten
streng th
Mehr wert
prevent ed
uni que
aufge treten
mäß ige
wenig stens
exce eded
refu sed
Grundrechte charta
equ ivoc
resul ted
Außen minister
fort setzen
krit isch
Bas ken
sex uellen
Invest ment
Kap itel
derart iger
gesetz ten
according ly
prepar ations
Fern sehen
Fern seh
dienst leistungen
legitim acy
Gar c
Verteid igungs
interess ant
persön liche
Beam te
gründ lich
xenophob ic
198 9
Iraq i
Verletz ungen
fes thalten
gewalt ige
österreich ische
höch sten
ausreichen de
gefü hl
coast al
grenzüberschreiten den
relig ious
North ern
Heimat land
eröff net
Pa ket
Städ ten
Konsult ation
Konta kt
Atlant ic
nut rit
repeated ly
Pens ionsfonds
Kompeten z
Bewerber ländern
griech ischen
Uni versal
percent age
forese e
Gefü hl
Äuß erungen
fru it
collabor ation
beeinf lussen
reve al
controvers ial
disp ute
beitritts willigen
Rechtspre chung
ushk its
Abänderungsan träge
None theless
Heran führungs
biß chen
bureauc racy
Bürokrat ie
Premier minister
Mitrovic a
Vog genhuber
0 7
0 25
B on
H ern
M ess
M organ
R est
S C
S urely
T itel
a ther
a ded
c ategory
e cut
f öder
k ultur
k enntnis
l atz
m g
r ats
s ess
v in
w reck
en ger
er freu
in et
ch tern
on going
der jenigen
st ay
st olz
be triebe
be geg
ein treten
ein beziehen
om an
sch were
for got
ic ated
ver ändern
ver heer
res ign
Ver bind
not ably
aus wärt
sen sib
ste uern
We il
An reiz
par adox
Aus führung
Sch ad
weit e
Ein leitung
ander ungs
dis agree
kön ne
hin ein
per forman
iz in
ans äss
sicht ig
sa ve
lar ger
min es
europä isches
De ll
De fence
hier zu
So weit
gu ter
deb atte
wel comes
As ia
Con serv
mal e
Ja ck
contin uation
Mon opol
kun den
wish ed
agen cies
zurück kommen
cor re
cor responding
abil ität
food stuffs
favour able
Beschäft igten
resour ce
leben den
Markt wirtschaft
Sol ange
versch oben
Zwe i
eth ical
heiß en
const ra
einz iges
amt ierenden
Flug hafen
pass ing
tatsäch liche
Sü d
sy ch
marke ting
krit isiert
Nahrungs mitteln
Post dienst
rep räsent
unabhäng ige
sec ution
adequ ately
zeichne ten
bedeuten de
AL E
amer ikanische
konzentr iert
fisher men
getroffen en
Patent amt
Einw ände
Nie mand
fach ung
aner kennen
schuld ig
effizient e
effizient er
entscheid ungen
langfrist igen
condu cted
infra structures
überein stimmen
rup t
geeig net
sett le
Emiss ionen
Car thy
Dafür halten
Berat ung
Wicht ig
Sc rapie
Ober grenze
attach ed
diplom atic
multi annual
respekt ieren
gek enn
Mitentscheid ung
Mc Carthy
occup ied
erör tert
gewöhn lich
hund red
Bosn ia
warm ly
verk nü
sold iers
benachteil igten
mob ility
diesel ben
preser ve
CIT ES
sho ck
kommer zie
Palestin ian
regre tt
Ergän zung
unab ding
Sex tourismus
gebil det
Korrup tion
Spann ungen
Evalu ierung
Moroc co
Lam y
Follow ing
disput es
conjun ction
9 3
A ction
B ou
B ör
C olog
D anu
F akten
K au
K öl
L icht
R ad
R oh
S ar
T S
T imor
T otal
W ald
c atastrop
e yes
f at
f oss
h our
h osp
k y
k ür
o le
p sych
r isik
s mo
t ier
an gesehen
an stelle
un a
un equivoc
at mosp
al ban
re ven
re publik
der selben
ro t
ro us
be w
be wahren
ge plant
ein nehmen
ein gerichtet
ein schlä
ein gebrachten
au ert
wi den
wi des
se arch
zu ständige
zu künftigen
zu stande
ver brauch
ver dienen
ten den
gen es
il ty
ne z
con fin
pro found
um gehen
ere quis
auf bauen
tr aum
pe tr
des irable
Ver stoß
Ver brech
if ferenz
not ion
ta p
Be lastung
über mittelt
ungs prozeß
Mr d
pol og
je glicher
Aus sagen
Er wer
wo zu
dar legen
pr ime
pr erequis
inter governmental
her ange
her steller
unter sucht
ug t
beit reten
Fr üh
pres ident
nach denken
Ein schätzung
fr ustr
Ge brauch
Ge wässer
Gr enze
lan gem
per petr
ser b
dr in
Um feld
fo oting
sub sequent
system atic
Der zeit
gu ilty
Zu cker
last ungen
schie ben
tt ung
Al ba
eng aged
gener ated
Afr ikas
20 20
Stand pun
gere ien
gere chte
vis ible
help ed
ep idem
move ments
progress ive
sur face
kontro llen
rele ased
fl üss
lea ves
Auff assungen
zunehmen d
größ ter
Arbeitsp latz
congratul ating
Je ws
Pos it
turn ed
Entschließungs entwurf
clar ified
consequ ently
Kommissions vorschlag
zusätz lich
Dokument en
Schul z
foc used
amer ika
mot or
bilater alen
transfer red
Per u
contra ct
Beschl üssen
Gel tungs
elektron ische
Kl är
reje ction
geäuß erten
Di kt
ernsthaf te
ökolog ische
pet ition
apprec iation
Fri days
endgült ige
rech nen
Insel n
Umst ände
erläu tert
katastrop he
enh ance
Währungs union
schwe mm
Defiz it
rev ised
nachzu denken
Verlauf e
nütz lich
appell iere
bio technology
incent ive
Bil anz
Alt fahr
abstain ed
komple x
journal ists
pleas ure
verpflicht en
phys ical
enttäu scht
verbo ten
läst igung
verank ert
Angleich ung
füll ung
Sten zel
Eur atom
Betrü gereien
Jack son
Colog ne
Danu be
Köl n
7 1
B ur
E P
K an
M ollar
N ähe
O F
P y
P en
P olit
S par
S ens
T ol
T ausende
U EN
g all
h am
h um
l assungen
m ur
s ah
u ft
v ine
w ine
ü gen
er ium
an sehen
at iver
it uation
or k
re course
st ein
st rä
ar ising
ro lle
le ute
be tr
be weist
ein räumen
ll s
ver bot
ra ce
ra ises
da vor
ut s
um b
us al
des cr
Ver mittlung
ges onder
ul ous
aus länd
aus gestattet
ta gt
ta ckl
ust er
vor sehen
Be fore
An lage
out standing
Aus land
leg um
Er kennt
Er füllung
br id
inter ne
inter institutionellen
Ber g
weit reichen
part ial
ken ne
spe ct
pre ad
Au fen
ide ology
ün glich
erst mals
kon z
kon sequ
schen ken
Es sen
Um struktur
dec ent
new sp
De zentral
fo hlen
Grund recht
mer gers
zie le
forder ten
gleich ermaßen
emp fohlen
har ma
ific ations
social ly
gest anden
Se ix
ri ère
Ziel setzung
every where
compe te
Or te
Them as
Them atik
eng l
Berichterstatter n
accept ance
Verein fachung
rei ze
sor gt
All es
leicht er
redu zieren
fun ded
wär ts
Lebens bedingungen
verfahren s
technolog ie
technolog ischen
fäh ige
Ex port
vorgesehen e
mult ip
avail ability
prinzip iell
ph one
gesetz lichen
enor me
Proto col
address ing
verstär kten
reser ved
interpre ted
encourage d
Ged anke
Red ing
Königreich s
urspr ünglich
neighbour s
competen ces
Vorsitzen de
Erwä gung
willing ness
stren gen
estim ates
reib ungs
Mechan ismus
experien ces
erwar te
elimin ate
surpr ise
north ern
umfang reiche
gegenseit igen
schau en
Kategor ien
erlau bt
Flor a
bedeut sam
kleiner en
prospe ct
Vier tens
sha pe
exem ption
mob ile
strafrecht lichen
bele bung
fas c
Rin dern
Hab it
dän ischen
Auseinander setzung
Parität ischen
Bestre ben
Assoziierungs abkommen
abandon ed
score board
Mittelmeerr aum
entreprene ur
Ratsvor sitz
enfor cement
Schmid t
Anhör ung
antisemit ism
bevölker ung
Ser ben
reconc ile
llenn ium
wides pread
Tol er
Seix as
0 11
6 2
6 7
A ug
C as
C AP
E th
E TA
G al
K or
K luft
K ofinanz
U C
W ün
W ests
Y ork
a bel
d ioxin
g l
g ig
h abil
i ber
k ä
k in
l end
m t
m as
m ing
m ischung
n omin
t te
t ank
u en
u le
v ague
ö te
er faßt
in sufficient
ch r
ch net
th res
on om
on sten
an o
an x
an hand
it arian
re de
re call
ar io
ro hung
be denk
ge fallen
ge zahlt
ge ehrten
ge prägt
ein iges
de voted
de vast
ig ern
am ed
we ckt
we chsel
sch licht
zu cht
ed ing
ab zielen
ra in
res ident
us i
auf kommen
des ired
ges ucht
su pran
Re fu
sp an
ad ding
än en
ben utzen
ma instreaming
ag no
An pass
An reize
ft ig
En des
reg ierung
man gelt
et tering
Er st
Er de
Vor sicht
unter liegen
Ein es
Ein wohner
Ge heim
dis appointed
durch gesetzt
tel n
ans onsten
ho hes
lä uf
under line
tain e
dec ade
ange paßt
ces sed
Auf hebung
lau d
effe ktive
wes tern
besch rieben
wa ke
Al koh
ret ire
All gem
different ly
Ste igerung
invest ieren
Gemeinschaft sebene
defin ieren
ko stet
einge hend
Fe hlen
vis ory
integr al
integr iert
Em pf
Tur mes
Lu f
eig entliche
democr atically
Ha vel
ehr ter
jud ges
rece iving
zunehmen de
low est
ator ium
cut ting
congratul ations
Part nern
wahr nehmen
Sum me
Menschenrechts kommission
treat y
Staats angehör
advan ced
Natur katastrophen
befür chten
grundlegen d
angemessen en
Dritt länder
Op position
Schlußfol gerung
euro s
sent ence
illegal en
Stellen wert
Prä m
sämt lichen
kauf t
umwelt freund
div ide
div ision
Verbr ennungsanlagen
bein halten
campaign s
vertre te
listen ed
thous and
erneuer barer
Leist ung
Po ettering
konstru ktive
Wissenschaft ler
Mitglieds länder
Infrastruktur en
discip line
veränder ten
experien ced
ergän zt
Hung er
Don au
Konsequ enz
Kür zung
gradu al
eröff nen
erlau ben
Syr ien
vorbe halt
depart ments
geste hen
Lie be
Alter nat
Territor ium
beob achten
bedauer lich
Trad ition
Verursacher prinzip
Fäh igkeit
tang ible
wof ür
schedu led
feas ible
Vorder grund
konfront iert
Profess or
Garc ía
ecut ive
Aug ust
supran ational
Refu ge
Alkoh ol
. "
0 1
0 12
6 5
B us
G lau
I M
I ll
M org
O pt
O steuropa
S al
S omit
V al
a polog
b lic
e u
h it
k ed
l assung
p us
r um
s cri
ä glich
ö tz
er geb
in flation
ch ed
ch ap
un ited
al itäten
re placed
le ase
be währ
be dür
be fugnisse
ge wer
ein igt
au lt
de v
se cur
ll y
we ich
sch a
sch ön
ou d
ver bleiben
ver handeln
ver kaufen
ol met
em b
em pt
he ugen
us ionen
ce eded
all i
Ver heugen
ul ative
not iced
la x
aus sehen
our a
ta st
Re volution
vor gelegte
Be urteilung
Be wältigung
ant ini
The ir
ag og
An schluß
ern ste
lo cation
was s
Aus gehend
Aus bild
Sch on
Europä isches
ger ingen
form ing
her d
ige m
Fr amework
Fra ktions
nach kommen
fr ank
ass um
Ge wiß
ank ommen
Comm un
dr iving
ak ts
bar bar
Ma es
present s
pf ul
pf ern
los ses
when ever
effe ktiver
app alling
last ing
bal ances
organ ise
oh es
techn ischer
Le hr
zug reifen
pl ötz
Ziel s
every body
Mar ok
Mar gall
differ enz
country side
hope fully
Gen f
Finanz märkte
offen e
stat ute
hel pful
Haushalts mittel
Artikel s
Best ät
med ic
integr ate
enth usi
account able
Dar an
object ions
einzu halten
enlarge d
transport ation
Amer ikaner
Wasser politik
Flug zeug
erklär te
civil isation
cut s
wider spricht
que llen
four teen
cho ices
ana da
quo ted
krä ften
gesetz gebung
hard t
irgend wo
aufzu bauen
angesprochen en
Groß teil
histor ical
Vorgehen s
nachhalt ig
max im
vernünft igen
Har bour
Kommissionsmitglie der
qualifiz ierten
fear s
dauer haften
ausgewogen en
endgült ig
dro ht
Resolution en
verurs achen
dram atic
estim ate
estim ated
Sozialschutz es
dere g
don or
toler ance
surpr ised
Gewähr ung
stö ßt
leader ship
beeinträcht igen
diesbezü gliche
Real isierung
appell ieren
obligator ische
diesel be
zuläss ig
kre is
Säu le
slight ly
Generaldire ktion
Legisl ativ
kil led
atal og
acknowled ged
channel s
confident ial
derog ations
Entlast ungsverfahren
accur ate
arg ue
pal ästinens
TAC IS
Tenden z
Del ors
cere als
Entschäd igung
übersch ritten
Konserv ativen
Betroffen en
string ent
Cer tain
enshr ined
performan ce
Bör sen
Verbrech ens
Wests ahara
Morg antini
Margall o
6 00
C ohes
E W
F il
M ag
M utter
O L
O GA
P et
P OL
V o
b ungen
c ommission
c ure
c uss
c attle
d l
f an
g os
l ern
m ischen
s auber
u x
u um
en kt
in her
in haft
ch sten
es tens
un its
or ted
al beit
st ad
st amm
ar res
be gan
be gangen
be trägt
be zahlt
ge achtet
ung erecht
ein bringen
and t
au ta
de licate
ver steht
ver kün
em ot
ber ichte
he bt
wir r
um p
auf s
für chte
pe l
des to
Ver ts
Ver trieben
Un recht
men gen
In nen
sen z
ex te
co alition
Be im
Be vor
Be ide
Be förderung
Be wegung
sh aring
ungs stelle
00 8
St reichung
out lined
Aus übung
str ange
reg istr
Sch iene
Er neuer
form ed
Vor feld
inter n
kann te
tre mend
lan ges
ans ion
kon sult
Comm unities
bet t
dam al
dec reas
gesch äd
arbeit eten
trä glich
ign ore
system en
oper ative
inv ited
chn ungen
pect ives
Über schwemm
emp fehlen
iger weise
Bere its
stru ck
Con federal
comp lied
international ly
kl ass
Se a
fest geschrieben
resol ving
organ ising
Gro s
zwe if
bewer tet
essen ce
ga ther
gew ahr
Haushalts kontroll
Arbeits bedingungen
acc used
prom pt
dür ften
commun auta
sign ing
fun ctions
verschie ben
comple ted
wach sam
Proje kts
Ind ones
Grün buch
organis ieren
organis ierte
aufge hoben
Amer ika
vö ll
viol ated
coordin ate
jähr liche
verantwort lichen
indic ate
irgend einer
reser ves
Rede zeit
inciner ators
äl teren
gült ig
author isation
Prä senz
hab t
jur istischen
vereinbar ten
concentr ation
Inst ance
Wiederauf nahme
Einzel heiten
consist ently
restrict ive
weltweit en
alter nat
sugges ts
dise ases
ynam ik
grundsätz liche
Mittelmeer politik
oss iers
GA P
contrad iction
ehemal ige
Emiss ion
Grenz werte
Cor bett
experien cing
Hung ers
Tele fon
Sc ient
Schiff s
thir teen
kap ital
mak ers
Vorbe halte
advanta ged
Trotz dem
approx im
gewähl te
sü dlichen
ört lichen
incent ives
Kompeten zen
contradict ions
Grem ium
Gesicht spunkt
decentral ised
exter nen
greif t
Gesetzgeb ungs
Vizepräsident in
schlimm sten
iqu es
explicit ly
Beschrän kungen
Bio technologie
expens ive
vigil ant
Gefäng nis
deriv atives
depr ived
forgot ten
Toler anz
Kofinanz ierung
Cohes ion
OGA W
communauta ire
0 17
C ategory
D al
D ine
D ifferenz
E d
E lles
F F
G as
L ange
M od
M erk
M oura
P lease
S port
S ake
Y outh
a days
d ated
g ige
h orr
i beral
k ter
l s
n ar
n utz
p fer
s l
s ale
t ions
t ighten
u k
z o
en gu
er ing
in burg
an ger
an lagen
the t
re cru
st ory
ent schuld
be fried
as ion
as ing
to x
ge änder
ge liefert
ung laub
den oun
ll ari
sch icht
for cing
ic ate
ver wirk
em bra
ra w
ra cht
gen e
ne tz
pro active
pro cessed
ir respective
res ort
dies mal
auf er
Ver folgung
Ver hinderung
if un
op ath
ul ted
men ge
la sten
af fair
ate ll
Re chen
Re lig
vor legt
Par agraph
Be triebe
über gehen
sh if
sh ame
sh ift
fe els
ag ers
ungs antrag
ib ly
St ich
lo bens
ap ital
Aus sicht
Mit bürger
Er fassung
wo oll
war s
tra ck
tra ged
bes agt
inter ception
Ber engu
her auszu
comm ended
sel ber
pre is
pre ce
dis agreement
che ap
ear th
ud s
ho hem
hand ed
inst all
reich er
dec ades
gesch ä
Unter lagen
De cour
fo ot
fo ster
pla in
pla cing
system atically
produ kte
mon at
rag m
Zu ge
Jahr zehn
Fre und
besch luß
techn isch
Rahmen s
plan et
Le id
ihrer seits
bewer ten
gener ous
soc io
di vers
ga ined
represent ing
klar er
maß geb
exist ieren
approach es
genau e
Organ en
Gleich wohl
Dar aus
sum mar
Ind ien
konkre ter
Med ina
demand ed
exp los
Wort laut
län en
Instrument en
akt iven
particip ating
Beding ung
Stabil isierung
aud it
stre it
arr ive
arr ived
Außen handel
ras che
krit isieren
sustain ed
mand atory
blo od
mein t
gewä sser
grundlegen der
Beschluß fähigkeit
mitglie der
product ivity
critic isms
defen ded
Wider stand
pursu ed
Proz esse
hunder t
Verhält nisse
Dec ision
contra st
strö me
198 6
mist akes
bad ly
Dan ke
oppe lt
geograph ischen
wachsen den
gewalt igen
class ification
Pers ön
Yugosla v
angeb oten
veran lassen
Lo hn
hy dro
sprü ch
flag s
Privat isierung
Mensch heit
enh anced
obser vers
schwe igen
mär kten
ordnungsgemäß e
decentral isation
resist ance
Four thly
deck ung
statist ics
Wur tz
Ank ara
frequ ently
imper ative
deliber ate
abgesch afft
Besitz stand
Wortmeld ung
Lärmbe lästigung
Bla k
schar ta
confu sed
Anwend ungs
Kindes mißbrauch
Funktions weise
rhetor ic
Stur m
auswärt ige
tackl ing
Marok ko
Bestät igung
cuss ions
stamm t
Dine h
Ed inburg
Sake llari
verwirk licht
traged y
Berengu er
Decour rière
Edinburg h
Sakellari ou
A gent
A tom
B our
B ot
C openhagen
D I
D olmet
D ynamik
E MU
F ü
F al
G ült
H as
K ind
K red
K unden
K orre
K uba
N ull
P in
P la
V ision
W ed
Y our
b id
d ial
f em
f lä
g g
i ol
k ill
m ater
m ix
o eu
p ure
s ache
t ort
t abling
u z
Ö VP
er ziel
in spir
in wieweit
th row
an läßlich
is ations
al together
re tro
re per
st reicht
be we
be trag
be wegungen
ge halt
ge widmet
den y
se ite
sch ub
im ports
zu zulassen
zu weilen
ver handelt
no body
ut il
um en
um str
res tra
res idence
auf greifen
pe ll
Ver arbeitung
Ver urteilung
Ver schlechter
ges chen
ges prä
ul ates
Un zu
Re l
ad vert
ma ck
über geben
über denken
ant wortet
sh or
sh aus
fe ier
fe atures
hal opath
An bau
An nex
Th rough
Th ys
com pr
ern ähr
ien cies
Aus fuhr
man if
man aging
man oeu
Er ster
Er stellung
Vor bild
fin ish
inter ference
inter ventions
dern falls
vo ters
beit rag
spe kul
Sie dl
dis mant
ör en
ün de
gel aufen
dr iven
any where
ak ing
Men gen
dec line
Unter drück
De leg
och et
pla ys
bo vine
iß ig
bas k
bas es
Über legung
alt ungen
besonder es
human ity
har t
As s
As soc
Arbeit geber
where ver
rat ification
ständ iger
art igen
gest iegen
Fre unde
off ic
comp lim
sicher en
exam ining
besch l
tun nel
pa ket
handel te
weis es
Rahmen richtlinie
Me ld
vers prochen
Dem onstr
gestell te
increas es
fut ter
üß en
ausge arbeitet
bereit zustellen
di um
gere chten
defin itive
cor por
Bed rohung
contrib uting
med ical
And re
open ly
Ind ia
Wor king
Demokrat isierung
fähr t
event uelle
schne llen
organis iert
CO 2
Res er
Rück gang
Zwe cke
free ly
With in
vier zehn
amt ierende
amt ierender
vorzu gehen
Pos selt
Lissabon ner
initi ativen
abzu stimmen
Pe king
Kön n
rein forced
mis er
lik ed
hoch rang
erheb lichen
erfolg reiche
miß braucht
bl ame
stärker en
hinzu weisen
ling u
ref usal
exerc ised
threat s
vert ie
sele ction
Sach ver
niedr iger
Gra ç
verbind liche
kompliz ierten
extra ordinary
dep loy
moder ne
Öl pest
Sy m
Sy mbol
postpon ed
Krank heiten
beträcht lich
insof ar
abol ish
Weiter hin
Ungleich heiten
writ e
verring ert
adjust ments
Dring lichkeits
trib ute
east ern
günst ig
withdraw al
contradict ory
Grem ien
hervorragen de
haf ter
mun icip
stri ke
Ausnahmere gelung
dum ping
gewün scht
rul ing
Migr ation
Trag ö
quar ters
ambigu ous
bench marking
metho den
Att wooll
drit tens
hilf reich
Ve terin
Good year
GD P
persist ent
strugg le
uneingeschrän kte
inhabit ants
constra ints
kommerzie llen
reven ue
prerequis ite
Dezentral isierung
Habit at
gewahr t
Pin ochet
Wed nes
Thys sen
manoeu v
3 50
6 4
8 2
8 50
A ct
C 4
D ien
F O
F on
K auf
K ampagne
L agen
N O
P hän
P aul
P feiler
R ome
S ah
T reib
V C
a war
b low
e z
j uni
k ol
k enn
k ulation
k amen
l ift
n isch
n isses
s cept
s car
t au
t wel
w affen
ü hen
er heben
er weist
er mächt
in put
es ien
an stehenden
an merken
is te
is lands
or te
re verse
re commended
st ations
ent ziehen
ent zieht
le b
be m
be find
ein her
ein gebunden
ig are
sch ott
im pet
im stande
zu geben
zu kommt
ver weise
ver schaffen
ber gen
wir tschafts
urop as
ist ischer
ir ing
auf halten
auf gerufen
ce ase
wer s
op s
la ying
In halts
das selbe
os ition
vor behalten
ex ac
sp ot
lie fer
co w
über flüss
sh am
iv ile
fa ces
An schein
ann ually
St ür
St ück
ap proving
Mit two
man agers
Sch ule
ac ute
inc idents
ens ystem
Fr anz
coun cil
been den
Ein igkeit
dis ziplin
dis advantaged
hin nehmen
hin nehmbar
iz iert
report ing
cons ulted
inst ability
geb oren
min en
min der
Kon z
zw öl
ose x
sub scri
stell ungs
stell ern
bas iert
clear er
viel fach
inv ite
point ing
stütz en
think s
sicher ung
mittel frist
weis ungen
immer hin
ri um
Umwelt politik
red istrib
vers orgungs
voll es
offen ce
bewer tung
Mon ats
di jk
Haushalts plan
Haushalts ausschusses
äuß erung
He kt
redu ctions
invest iert
air lines
einge gangenen
Bed auern
contrib utes
access ible
regul ating
genau en
Mehr zahl
democr atisation
achieve ment
ehr lich
Sol daten
benef ic
benef icial
hinaus gehen
fl ug
aufge griffen
ren der
Hier zu
administr ations
allgem einer
dien sten
enter ing
Wieder belebung
My ller
Diskuss ions
though ts
dist ance
sus pect
Fischere ise
schwier iger
circ ulation
Serb s
Kap azitäten
demonstr ates
Partner schafts
ethn ische
criter ion
Schokol aden
nü gen
ktr iz
angemessen er
central ised
bedeuten d
bedeuten den
incor rect
Handels abkommen
erfolg reichen
histor ische
größer er
normal en
Rand e
schlä ge
Ide ologie
mel det
chem ical
schäd lich
regular ly
Kur dish
delay ed
ada pted
La an
berecht igten
Geb ühren
break ing
nes sed
prefer red
substantial ly
Ere ign
haus halts
Leist ungs
begrün den
Tun esien
schrän ken
veränder te
indire kt
fulfil led
ursprüng liche
gefü gt
offiz iellen
üb lich
üb lichen
Umwel tze
Krä ften
Vermittl ungsausschuß
frag ment
Sco tt
vertrau t
drast ic
pillar s
Nachbar n
Eigen schaft
Syr ia
vorbe ugen
Beob acht
potent ielle
versicher ung
Dav id
gestr igen
gestr ichen
Ele ktriz
Lang u
zweck mäßig
terror ism
Other wise
Säu ber
Rin der
inhalt lich
erzeug nisse
Sh ould
trop ical
sil ence
restor ing
getr enn
compon ent
compon ents
entail s
widerspie gelt
Sup er
Bill ig
Forst wirtschaft
Gewerk schaften
Anwesen heit
Orient ierung
Terror ismus
israel ischen
Pie tro
inqu iry
relie f
Ausgang spunkt
occurr ing
toug h
provider s
Lank a
Basken land
gekenn zeichnet
Klär ung
Orte ga
habil itation
tremend ous
uds man
umstr itten
Graç a
Wednes day
Fon taine
Lagen dijk
impet us
exac erb
Mittwo ch
6 1
6 9
A z
B om
B IP
D ritten
E du
G or
K lage
M ul
M ün
P lo
S im
S atz
S erv
T ar
W W
W esen
Y ear
Z erstör
c amp
d istr
e he
e chn
e ller
e uropa
f ought
f inger
j ing
l orr
m ord
m ixed
o ij
p p
p urch
p harma
r und
s we
t at
u ble
u ters
w man
z it
z ivile
er sucht
in en
in vent
th u
an forderungen
an nex
un ilater
re conciliation
st ating
st ret
ar my
ar isen
ar bit
ar ians
ro ot
be dürfen
be merk
be trieb
to s
ge worfen
sch uß
zu fügen
ic ts
ic als
ou ter
ver hängt
ver nachläss
ab inet
ber üh
ct ure
ist rat
ist ics
con vic
ir ischen
ier end
auf re
tr at
wer ks
me idung
Ver arbeit
Ver sorgung
not ification
Un glück
la v
la gerung
aus machen
aus drück
vor ab
vor gestellt
vor geschrieben
vor läuf
vor ankommen
ex ecutive
sp unkte
lie hen
ad her
Be tre
Be haupt
will en
pol izei
St il
lo ve
lo ad
Er läu
wo hnen
Vor stellungen
pr ud
bes orgnis
Parliament ary
tre m
per tain
gem er
199 1
Reg imes
wä ssern
che iden
ho c
sicht bar
gel esen
Mitglied schaft
dr ive
Um stand
gesch ritten
Kon ting
De vis
time ly
Inter pret
Auf schub
Gem äß
produ cer
deut licher
viel es
viel fält
inv ested
Über nahme
Sta es
rat ify
Con ciliation
ine quality
wa gen
Rechts hilfe
führen de
abl en
eng ine
Gen ugt
bereit gestellten
law ful
Koso var
di ver
glichkeit en
trans it
Arbeits programm
world wide
vorsch rift
Am b
pend ing
zurück gezogen
amb itions
seiner zeit
pract ically
med izin
pri ot
suc ceeded
At mosp
Ind ivid
Bei jing
pers pectives
Grün dung
energ isch
Pol ize
origin ally
wider sprüch
vorzu schlagen
vorzu bereiten
Steuer politik
kom peten
Leit ung
anal yse
top oul
emphas ises
mis management
indic ates
tack led
Beschluß fassung
Beitritts verhandlungen
critic ised
Landwir ten
acce pts
interess ante
super visory
bro ken
Wider sprüche
manufact uring
front iers
normal erweise
Weißbuch s
exclus ive
fal schen
fal sche
thaf tung
arch y
Initi ativ
Zivil isation
investig ate
cle ans
sensit ivity
Jugend liche
tät igen
Versch är
schwerwie gend
explo it
vorher igen
Di aman
dauer hafte
kürz t
unmittel baren
Führ er
combin e
dre w
Kontin ents
tief greifen
soz io
listen ing
begrenz te
Rea ktionen
Schwer punkte
Meinungs verschieden
Schweiz er
iö se
advoc ates
elimin ating
ehrgeiz ig
highl ights
descri be
überw acht
wünsch te
angehör t
Kohäs ionsfonds
mi llennium
prem ature
geeigne ten
consolid ate
bir ds
virt ue
Aktions programm
Konta kte
exem ptions
auseinander setzen
Flüchtlings fonds
Ernen nungen
natür liche
bek lagen
Aut onom
transl ation
Trad itionen
Eigent ums
west lichen
Comp uter
Urspr ungs
peripher al
fam ine
hous ing
flü ge
Tunis ia
Bl ut
jeop ardis
Embar gos
depl ore
verdeut licht
Reicht um
Lob by
thr ust
Haup tz
Bu iten
Log ik
Mitverbr ennung
educ ational
suspic ion
Angeb ot
Legitim ität
Automobil industrie
copy right
Beobach ter
Hal b
gesp annt
jugoslaw ischen
Bedienste ten
aspir ations
allmäh lich
scre en
Hern ández
begeg nen
Bou wman
Standpun kts
thres hold
retire ment
Erneuer ung
Scient ific
Bour langes
reper cussions
geschen kt
Unzu län
juni or
Billig flag
Plo oij
besorgnis er
Genugt uung
topoul ou
Diaman topoulou
2 20
6 8
9 2
B end
C F
F ischer
G ama
H at
H ilfen
K FO
M us
M ission
N ation
O der
P ilot
S O
S pre
T B
T ake
V III
W ould
W ann
W äre
c ra
c iety
c lon
d ates
d auern
e at
g rem
i os
m em
p ick
p ragm
s oft
s ales
v acc
w omit
ö ten
ö hnung
ü mer
en ge
en cies
er nen
er led
in no
in appropriate
an ch
an cy
an schließend
un ten
un gefähr
un realistic
ie th
or ously
re cit
re formen
re minded
ro ll
be achten
be wirkt
be merken
as p
ge einigt
ein leiten
and o
den z
den ied
we b
we ichen
sch m
im s
im plies
zu gesagt
zu kunfts
ver bieten
ver mittelt
ab fälle
so viel
il ung
wh ite
con cess
con front
pro stitution
id ance
auf gestellt
ach te
Ver tie
Ver mögen
Ver meidung
mit unter
os sen
ament ally
lie b
ident ical
ad jour
co existence
Be weise
sh ire
ag ieren
ag gress
ungs weise
An hän
St ill
St att
Pro test
Aus legung
Sch üssel
Sch ande
Er folge
dar y
form ally
ob serve
br y
inter essen
her stellen
ow ner
prop aganda
Ent fern
nach gewiesen
nach vollziehen
fr ame
lan ger
tro ops
tro uble
gro ss
ide ological
Reg ister
Coun try
ser ves
under p
sol ved
ließ t
lar gest
fre chts
ang ere
So ciety
land wirtschaftliche
Auf stellung
deut sche
Gemein sam
problem atic
gleich wohl
Über leben
Über arbeitung
fall ing
fu hren
As ien
wür fe
rel uct
ket te
effe ktiven
qual ities
ask s
finan ces
handel ten
techn iques
princip al
Bürger meister
Umwelt bereich
sozial es
beg reifen
differ ing
Dem ocracy
gent echn
offen kund
begr enzen
di verse
trans atlant
Haushalts verfahren
öff nen
handl ing
accoun ting
Änderungsantrag s
fav oured
außer gewöhn
Minister präsident
zept anz
Stra frechts
Gleich heit
Af gh
Mehr heits
fehl ende
lack s
Nor wegen
versch winden
schne lle
ither to
jud ged
answer ed
zunehmen den
prof ession
sus pension
frei will
joint ly
anal y
Risik ok
sy n
vertreten en
Lin ke
gelten de
Serb ian
Co hn
ras chen
fort gesetzt
Miß trau
ath ol
Democr atic
Integr ations
Zugang s
avo ided
Grundsatz es
formul ieren
tele phone
schl üssel
histor ischen
interess anten
Beam ter
Zuständ igkeits
pursu ing
Inde pendent
illegal e
El end
Beschl usses
big gest
orient ierten
unge achtet
explan ations
ähn lichen
proz esse
initial ly
sele ctive
jüng ste
Ak zeptanz
wit nessed
GA SP
passen gers
anf angen
compens ate
öffentlich er
hre b
Iran ian
katastrop hal
character ised
worr ied
ehrgeiz ige
Ober flächen
Mc Kenn
bekräft igen
consolid ation
virt ually
ED F
domin ant
Prozent satz
Dienstleistungs aus
evalu ate
Niederland e
wettbewerbs fähig
qualit ativ
intoler able
Aut or
koordin iert
getr ennt
Straft at
Ök osystem
indirect ly
Martí nez
beur teilen
eg al
ratifiz iert
Grö ße
quantit ative
geplan ten
Latein amerika
Bern ard
hof ft
Staatsanwal tschaft
Verbind ungen
mur der
Refuge e
chap ter
Mag hreb
Hungers not
Assoc iation
lingu istic
municip al
Beobacht ungsstelle
Langu ages
gemer kt
Atmosp häre
Bend it
KFO R
clon ing
Vertie fung
Afgh an
McKenn a
B isher
D C
E st
E he
F err
F uß
F lächen
H it
H aben
J acqu
K lon
L ö
L ama
R en
R ac
S u
S intra
U CIT
V ir
W ein
Z entr
a wait
b ul
c old
d iss
f isch
f ash
f assungs
f öderal
f ault
g barkeit
h iel
h ide
m ung
n s
p pi
s at
s enten
v y
v age
v ary
w under
y ard
y ield
z qu
ê te
ü tz
er te
er stellen
er bringen
an wesen
an ony
un auf
un längst
at ischer
re ise
re consider
st if
ent rating
be fre
be achtet
be ziehe
be hindern
as m
ge leitet
ein setzt
de cess
de zentral
se ly
sch ä
zu wenden
ic ter
ver nehmen
ver weist
ver binden
ter ungen
ab road
ab zielt
ab stimmung
ab seh
em m
gen oc
il ing
ne ten
ne ut
ne tze
um zu
ere ig
res se
auf weisen
auf hören
wer ter
Ver an
Ver dienst
if ik
ges undheits
ul se
su ited
gr ants
vor sitzen
vor bereiten
ex emp
ex changes
Be züglich
über wie
über wach
fa kt
An dere
igen de
wor um
St rom
Aus setzung
up hold
Sch ätz
Er leicht
Er teilung
ger inge
ord nen
Vor gaben
fin nischen
Ar ab
unter gr
unter worfen
ug ung
inc red
Fr anc
sta ges
pos ing
nach teil
Ein nahmen
Ge fähr
Ge fangen
pre d
pre decess
dis covered
per ce
wä l
conc entrating
kon zept
kon fli
hl ten
dr ivers
bar es
gesch ah
ange führt
De clar
ner g
Zus age
weiter entwickelt
Menschen würde
ign ed
Inter ventionen
produ zieren
iß t
stell ten
stell end
emp hat
Europa abgeordne
vern ommen
wen de
zeit en
Zu sch
Zu wanderung
Con ventions
fund amentally
Se ction
organ ic
own ers
Umwelt be
zug s
pl ural
spec ulative
voll zogen
Nach teil
reichen de
Finanz rahmen
Finanz dienstleistungen
hol i
hol t
ausge übt
liegen de
di agno
Ne hmen
zahl ung
Haushalts ordnung
Haushalts führung
Tr ennung
System en
rem ed
ban ken
kur s
Fe deral
vis ited
integr ating
vi ability
gebra chte
iar ies
Stra frecht
streng ere
Lu cas
positive ly
let ters
Gemeinschafts rechts
cult ures
exper iment
übr ig
third ly
Bar on
versch l
period s
admin istrat
exp ansion
lück en
gra ce
Zwe ifellos
ifiz ieren
einfach er
Flug zeugen
Flug gesellschaften
akt iver
Wettbewerbs verzerr
Österreich er
Ur sache
dist ur
flex ibel
bewuß tsein
initi ated
)) ;
Gefahr gut
Luft fahrt
remain ed
Ob gleich
Miß achtung
krit ische
rein en
fail s
comprom ises
Techn ik
Natur ally
pension ers
ente ils
bear s
stop pen
stop ped
Israel is
innov ativen
cris y
hoch wert
AL TEN
spar en
formul ated
Erzeug nissen
bilater ale
conv ince
contra ven
pun ished
Stat ut
Verkehrs sicherheit
partnership s
mel n
mag n
orient ierte
arrange ment
vorhanden e
Deut lichkeit
Kar as
Terr ón
clos ing
Dan ach
Entscheidungs prozeß
Straf sachen
label s
sett led
block iert
stren ger
Trans fer
dict ator
satisf y
beträcht lichen
Mart in
stip ulates
ampag nen
thir ty
schreck lichen
herrschen den
bir th
bir gt
pi racy
territorial en
Perspe ktiven
geist igen
Wissens gesellschaft
leng thy
größt enteils
strukture llen
statist ical
bann ed
tä glich
verschär fen
verschär ft
pap ier
loc ated
flow s
engag iert
sad ly
widerspie geln
stri kt
Ausnahmere gelungen
gerichte te
biometr ic
ries ige
Sof or
Südo steuropa
Herzego win
distin ction
leite ten
umge kehrt
belg ischen
Cha ir
cofin ancing
manip ulation
cultiv ation
städt ischen
chines ischen
secon dary
Verstö ße
Ermittl ungen
sess ions
Kau ppi
atmosp here
confin ed
drin king
kin der
Allgem eine
blic ken
inher ent
stad t
fem ale
Unterdrück ung
twel ve
zwöl f
Hekt ar
Mul der
WW U
arbit r
outer most
aufre chter
Jacqu es
UCIT S
fash ion
genoc ide
ALTEN ER
0 14
7 7
8 9
A 1
A la
B lock
C EN
D rei
G öte
H A
H ände
H orn
I zqu
K h
K now
K ör
K nör
L ad
M P
M ug
N it
N et
O pfern
P ir
R ente
R ather
S on
S am
T E
T est
T wo
V om
W ind
d äm
d ating
e kut
f ere
f ire
h ie
h te
k ra
k ommiss
k ay
m d
n it
p ity
p ilot
p änen
r unde
s lo
u ers
w alt
w issens
w oman
z io
er reich
er langen
in ated
in comes
th ro
an teil
an führen
un an
un al
un known
at ern
it le
the id
the ory
or ate
re viewed
st rom
st ück
ent f
be am
be haltung
be legt
ge braucht
ge höre
ge forderten
ge habt
de ar
de hnung
den selben
ur ances
ing red
im prison
ver ze
ver danken
ver wand
ver sammlung
ver breitet
ver folgung
ber ichtet
he ct
con fine
ier do
auf recht
auf geführt
op ole
Un fall
Un fälle
mit y
In zwischen
dem nach
aus geht
aus gelöst
ta ct
sp ong
Be hinder
sh ö
sh ar
We b
An gabe
An stieg
Th us
Pro van
Aus dehnung
str icter
Mit gefühl
el f
man chen
man ager
leg er
Sch ü
Sch lag
et te
Er satz
Er öff
dar gestellt
tra in
unter nimmt
Ent schuld
Ent täu
mo un
inc idence
Ein mischung
fr on
ass urances
Ge geben
Ge bur
dis grace
Au fre
Reg ulierung
wä cht
wä chst
cons ent
hand le
hand led
inst ances
teil te
teil ten
sol ving
Mitgliedsta ats
gesch ickt
De va
Dies en
Dies bezüglich
hier mit
over w
prov es
reas sure
änder ungen
los ing
lag ern
hör t
Sta dium
Änderungs vorschläge
respon ds
vir us
Land e
Jahr t
comp uter
sicher t
mittel s
bie ter
cont ents
erg reif
wa ges
oh ol
möglich er
real en
Im port
spec ulation
Her z
contin ually
hä uf
Group s
ausge zeichnet
trans mission
Ne ed
gew inn
gew ichte
Arbeits kräfte
Tr uppen
prom ising
sor ts
find ung
spr ing
Welt markt
15 8
Best ände
jo ining
abil ities
12 44
var iety
back ing
eigen es
account ability
van os
zusammen hängen
demokrat isches
technolog ische
Stra fe
einzu treten
einzu leiten
Ind ik
EC OF
hervor geht
Nor way
alk ohol
anzu passen
tem per
leist ungs
Den ken
Krit erium
civil ians
Wahl periode
Je de
neg le
ground water
official ly
minister ial
disast rous
tag s
harmon ise
hes it
Agrar haushalt
Co de
stu died
def ending
fort geschritten
demonstr ation
sustain ability
mis sed
letzt es
chter haltung
Fremden verkehrs
San ter
rang ing
stress es
Raum es
model s
reser ven
Fern ando
sinn volle
analys ieren
Kraft fahr
refle ction
Verwalt ungsverfahren
Dienstleist ung
candid ates
win kel
formul ate
schl immer
verab schiede
Sep pänen
Zusatz stoffen
ec osystem
demn ächst
claim ed
National staaten
broad ly
comprehen sible
moral ischen
Cy priot
unge he
quant ities
bot tom
zufrieden stellend
Gesundheits wesen
Abfall bewirtschaftung
acqu ired
rig id
learn ed
berecht igte
Alban ians
vert ik
Fahr zeug
Spiel raum
dauer haft
sele cted
threaten ing
wachsen de
Blick winkel
dre ißig
assure d
Schif fen
Vorsitzen der
worth while
safeguard ing
bra chte
Mitglieds land
Meinungs äußerung
veränder ter
verz ichten
überw unden
proje kten
gegenseit ig
lis ted
rational e
abol ition
drast isch
Übergangs zeit
compla int
beizu behalten
belong s
Fünf jahres
obstac le
mm ern
potent iellen
Atlant ik
modell s
Anmerk ung
qualit ative
strukture lle
bann ing
journal ist
kü mmern
surv ive
surv ival
Einer seits
finanziell er
witness ing
glaub würdig
haf tet
antibiot ics
constitu ency
hur t
zusammenzu arbeiten
Wass ers
gewün sch
Mich el
multilater al
Rap kay
beschleun igen
niederländ ischen
Erschein ung
Tem po
Gemeinschaftspolitik en
Gol an
BB C
einzur ichten
Krie ges
swift ly
zuver läss
prejud ice
Antibiot ika
nutrit ion
foresee able
Heranführungs strategie
regrett able
bew aff
plötz lich
Überschwemm ungen
geänder ten
Verschlechter ung
bask ischen
Ass ist
manoeuv re
Phän omen
sham ef
Scott ish
berüh m
kompeten z
cleans ing
inno cent
Ferr er
Herzegowin a
aufrechter halten
Ala vanos
Izqu ierdo
Knör r
Mug abe
Aufre chterhaltung
ECOF IN
9 1
A U
B ritt
B anken
C ze
C ambod
D at
D ioxin
E EF
F ische
F ang
F inger
G on
G od
G ott
H av
O AU
R unde
S lo
S zen
T T
T od
V AT
W ild
b read
h itherto
i hen
j ung
k g
k ampf
l as
n ein
p act
p hon
p akts
r ush
u ge
v ill
w all
z á
en counter
en ables
er ation
er zeuger
on to
es te
un um
it ts
al isierung
al ert
re habilitation
ro utes
ent scheidet
le z
be an
be have
ein stellen
ein gestellt
de llen
de ira
se ed
am mer
sch ungen
im ine
im ported
im balances
zu wider
zu treffend
ic ulous
ver sprechen
ies e
ies t
ter min
ra cial
ra gend
il es
il and
il ib
ut ze
um n
ir m
auf weist
me x
me ist
la ger
In flation
af ety
ta ste
ex hau
ad here
ad missible
ste uropäischen
Be antwort
Be grenzung
ag d
ag ger
An künd
ze denz
Th un
its ky
St aff
lo hnt
je derzeit
el t
leg ten
Er hebung
tra gt
br anche
fin ished
Ab schnitt
her bei
unter halten
unter einander
ult im
per mission
ün den
zum achen
who lly
conc er
cons ists
ho t
yst er
lä re
ser ved
under lined
dec iding
Kon kurr
änd ler
zw ingt
hier für
prov en
Auf klärung
mer zung
Gemein de
problem atik
read s
best raft
Maß stab
ific ial
Haus halte
Zu kunfts
halt igkeit
then burg
kl ug
ile m
belie ved
Rechts akt
public ly
Umwelt schäden
real e
real ised
Le tz
Le vel
Le tzten
employ ers
set ête
Politik bereiche
beg leiten
bre cher
car go
Finanz minister
Mein ungen
stat ut
press ing
fair en
tens ion
Teil s
sc rap
acc us
commun it
find s
find ings
defin itions
Eben falls
finanz ierung
Wo llen
vi ate
ru ft
regul ierung
erk enn
erk läre
ikan ern
Gleich behandlung
Bes org
Gemeinschafts initiativen
fehl enden
Fir men
seem ed
sur vey
prevent ive
wärt ig
Bem ühen
erb are
Fol glich
assist ants
kurz er
eindeut igen
ifiz ierungs
ev ol
akt uelle
bit ter
lies t
initi ate
unterschied licher
fort zusetzen
abo tage
gesetz te
entire ty
heut zutage
rad io
befür chte
assess ing
nehm lich
sk i
iver sit
safe gu
Beitritts ländern
critic ise
beschlossen en
erfolg te
formul a
deli very
hinter her
Armut s
Erzeug ung
Zusatz stoff
Richtlinien vorschlag
remo val
schle chten
bi ological
measure d
bezogen en
Prä zedenz
col onial
Rand zio
unver zicht
max imal
recognis es
recognis ing
Ged ächt
Überwach ungs
profit able
Plan eten
Kur den
addit ive
fif ty
Vorbereit ungs
constit utions
Kl ass
Zur ück
learn t
Alban ien
Argument en
Gleichgewicht s
centur ies
nöt ige
combin ation
Zw angs
Com petition
Eing rif
kompliz ierte
Umweltschutz es
begrenz ten
block ed
Go thenburg
hop ing
ignor ed
interven ieren
Mitglieds ländern
enterpr ise
genere llen
destro ying
heav ily
check ed
surpr ising
beträcht liche
Presse freiheit
beauf tragt
Ereig nis
Büro s
umfang reich
vertrau en
Prof it
simpl ify
Besonder heiten
compar able
Meeres umwelt
hom es
conce pts
illustr ate
lif ted
erneu erbare
hervorragen den
intoler ance
Wur zel
bomb ing
angestre bt
angestre bten
Akt ual
charge d
Generalsekretär s
antibiot ic
gerichte ten
hypo crisy
hous es
standardis ed
asses sed
Martí n
Herzego vina
korrig iert
demograph ic
Vorgän ger
Jed och
dee per
Erd öl
scen ario
sudden ly
mangeln de
severe ly
Telekommun ikation
Deriv ate
philosoph y
cert ific
föder alen
sensib len
foss il
tagt äglich
Umstruktur ierung
Gal ic
Präm ien
vorbehalt los
empt y
arres ted
emot ional
Gros setête
Dal ai
Anwendungs bereich
Korre ktur
Pla th
offic ers
Edu cation
convic tion
Verschär fung
Autonom ie
Unzulän glichkeiten
CF SP
senten ced
anwesen den
überwach ung
Declar ation
thro wn
Gegeben heiten
Cze ch
Gon zá
exhau st
Beantwort ung
Gonzá lez
5 8
7 2
A qu
A hern
B ig
C roat
D est
D ial
D ay
E tap
G ü
G oll
G rad
K ennt
K ürz
M ach
N am
N ichts
O ost
P ack
R i
R ot
R oc
S om
S ad
T ues
T exte
U kra
a est
b and
b rä
d rought
e cho
f ix
g ingen
g äbe
h un
k w
l am
l ander
l ifel
n ord
o ve
s le
s lick
t il
t um
w achen
w unsch
er fl
in ken
in av
in security
in compatible
ch amber
th ority
an gesetzt
un ken
un ded
un miß
un precedent
it ze
it ute
ie h
or ed
re con
re ine
re pair
st es
st ich
ro te
ro chen
be fallen
be hindert
ge ister
ein s
ein tritt
te uer
and inav
de em
de grad
ig ter
ll i
ll schafts
we igh
we ile
sch r
sch war
sch är
im posing
zu stand
zu künftig
ver nicht
ver geben
ver häng
ver län
ten der
ne o
wir tschaften
ist le
auf sicht
auf einander
tr i
wer ke
Ver un
Ver sprechen
if ies
ges enkt
mit geteilt
af for
dem zufolge
aus gesch
ck ung
sp ort
ad ig
ste uropas
Be träge
Be wert
sh oul
iv ität
fa ster
An ti
An sätze
An griffe
An zeichen
err ichten
ib ung
do g
wor auf
wor über
par te
ik ares
reg imes
bei hilfe
Er halt
fü llen
bes cheiden
inter fere
Ab ove
her ein
unter liegt
unter scheidet
polit ano
ens ures
är er
Fr ont
sel b
Ein fuhr
ass ing
pre v
hin reichend
Au fr
Au thority
ple x
now adays
gem isch
fore cast
gel ern
sol ide
dr y
Um lauf
Um gebung
geb ühr
vent ure
min ing
min imal
Unter zeichnung
Inter ventions
Auf lagen
att ung
sche u
tell ing
Zeit raums
app lause
ues a
art ificial
Se ele
Min des
wes ens
besch ä
tun a
pa ce
isk y
organ e
Im migr
spec ify
No thing
offen er
Hin zu
hol ders
ausge wä
tens ions
Ne ither
lim iting
klar es
acc um
Tr ink
Was hing
sign s
gere chnet
air line
instit ute
Best ands
cor respond
mention ing
Fund ament
cap ita
Information spolitik
verständ nis
ys is
Produ ktivität
person en
geschlossen en
democr ats
Qu elle
einzu bringen
Austr ians
schutz es
Weg gen
month ly
drei zehn
Bei behaltung
transpar enter
transpar enten
schne iden
uni vers
del ten
Dienst ag
gra in
Rück stand
regel ungen
auer ung
head s
dist ress
schnell st
ebenso wenig
Geschäfts verkehrs
kom bin
mind s
Gegen wärtig
Verfü gbarkeit
equ ilib
stre bt
Agrar ausgaben
rac ies
Pal ästinens
abzu schließen
Co x
Außen beziehungen
partner schaft
Dokument s
itu des
indic ative
blo ße
relev ance
hung er
Eng land
foc using
sitting s
Fern ández
damage d
structure d
legitim en
Ru he
21 st
heraus stellen
remo ving
incorpor ation
az ität
substant ive
Gew inne
renew al
gering sten
six th
vernünft iger
intens iver
Gel dern
Wes halb
Kommun al
NG O
bill igt
appoint ing
Angol an
rig our
Mai j
Alban ia
Ad d
sonst ige
fes te
fried liche
Grü ne
Po sten
genü gen
genü gt
Klar stellung
Kü ste
Flex ibil
rail way
Vorred nern
Verf assungen
admit ted
Exper ts
empf angen
Mü he
spät estens
Weiter entwicklung
tie fer
envis age
breite ten
Auft reten
anspr uch
gewiss ermaßen
erweiter ten
zerstör en
tool s
Vier tel
pat ents
illustr ates
isol ated
remark able
advis ers
inevit able
Einschrän kungen
EURO POL
taxpay er
erad ication
erad icate
kurzfrist ig
frequ ent
distort ions
Bestre bungen
flexib ler
alarm ing
Wortmeld ungen
Urspr ung
Verhaltens kodex
)] .
norm ally
autonom y
jeop ard
Imp uls
Embar go
flood s
korrig ieren
Sachverständ igen
thal ts
Jed es
jahre lang
deterior ation
Na politano
rec ip
überras cht
Universal dienst
verknü pft
Erkennt nisse
Aufen thalts
Grundrecht scharta
Ausbild ungs
confidential ity
palästinens ischen
damal igen
FF H
Gült igkeit
Veterin är
befind lichen
Gor sel
Tar if
camp s
adjour ned
Autor ität
Afghan istan
Hit ler
emphat ically
Baron ess
Sofor thilfe
Kör ner
Eröff nung
overw hel
Need less
concer ted
ilem ma
Gedächt nis
Goll nisch
Oost lander
Roc ard
Ukra ine
unprecedent ed
verlän gern
Washing ton
equilib rium
B i
B ese
D í
D AC
D iox
F TA
F usionen
H ol
J ur
K openhagen
K roat
L ag
M un
R ein
R assen
R oten
S j
T V
V ot
W en
W ende
Z er
a he
c at
d or
f ly
f licht
f erring
g ame
i leg
j u
j unge
k nü
m ic
n ische
n itten
p age
p feiler
t wi
t one
t tern
v ict
w ast
ä ten
ö pft
ü ge
en comp
en rich
er zeugen
er zeugt
in forme
un like
at ant
re public
re cor
st ir
ar ro
ent stehenden
be kommt
be heben
be lastet
as i
to ck
ge fällt
ge wirkt
ge ehrter
de fer
se es
zu genommen
zu fällig
ic ing
ver la
ver trä
ver stößt
ed t
ab gest
gen ce
he ft
ut ants
con ver
con tem
con vey
pro secutor
res c
auf nahme
ce ut
tr ies
all ot
ach sen
me tr
Ver y
Ver weis
Ver öffentlich
Ver tagung
ges unden
Un less
Un iversit
men schen
la ys
aus sieht
gr ü
gr and
vor sichtig
ex cit
ex ert
ex isted
ex agger
ste igt
ste ckt
co des
Be t
Be lastungen
än ger
über arbeitet
über tragung
qu ie
fe hle
The or
ze igte
wie viel
ik ament
str ip
Mit te
Er be
war nen
ac id
ob gleich
Vor fälle
pr on
Ar mee
unter m
Ent lassungen
mo dest
ational isierung
du ly
pos iti
igh ter
Ein igungs
ass urance
Ge wissen
alle ged
pre dict
dis advantage
dis appointment
eit ern
Reg ions
Reg ulations
sol ch
Um schicht
sa al
ious ly
ak ters
fre ige
Kon zep
Kon kret
mehr mals
mehr heitlich
Ma deira
Menschen handels
ins ide
Grund werte
Grund rechten
Auf schw
iß en
gu ided
gu idance
sche ch
cas h
respon ses
rat io
groß zügig
geordne t
lu ck
pra ise
besch re
tun e
Rechts akte
Rechts vorschrift
recht licher
Me ere
requ iring
pl at
Her angehen
Ges tern
Finanz en
offen sicht
bereit stellen
Mon opole
zahl reicher
Ste uers
contro lling
Mad rid
Sozial istischen
bau t
Fe ira
To de
Afric ans
cost ly
institution en
Tur ning
prü f
zusammen fassen
colle cted
arbeiten den
ru in
pens able
eig net
TO P
Kom pon
fehl er
hervor zu
hervor ragend
Nor m
admin ister
dest abil
Person ally
jud ic
Vertre ters
ren ational
char akter
liberal en
Den k
parliament arians
kr isen
moment an
gesellschaft liche
erklär ung
Wieder ver
US D
pass ion
Beih ilf
wider sprechen
poll uted
poll utants
Je an
Je wish
play ers
betra chte
mb are
expect ing
vol ks
she ep
harmon ising
zentr en
emphas ising
disch ar
leit ungen
dring liche
Gericht en
found ing
abzu lehnen
NA FTA
Prinzip s
encour ages
san ction
bank rupt
irgend wann
abge deckt
continu ity
Rede beitrag
fil m
betreffen de
gre enh
Tät igkeits
bl ue
Haf tungs
super v
Entschließungsantrag s
Einw anderungs
El tern
Prä z
fal se
arch ie
sämt licher
Stat ist
Spe zial
Spe kulation
effizient en
öst edt
along side
mel de
orient ieren
198 8
schätz e
Berlin er
Hoff entlich
ersch wert
Kar l
Vorbereit ungen
Brüssel er
Sto ffen
Alban er
Ad resse
Stär ke
break s
speed y
Ap pell
class es
GA TT
ausführ te
ausführ liche
condition al
räum t
Alters versorgungs
Rechnungshof es
dep loyment
occur s
unzu läss
ignor iert
Produkt pir
defic iencies
benach bar
vig orous
Stabilitäts pakts
ordnungsgemäß en
reiter ated
employe e
abol ished
occup ation
Zif fern
Stu fe
italien ische
beraten den
Konsult ations
hom osex
conta cts
Any one
calc ulation
benachteil igt
Mot or
versicher t
thorough ly
46 8
obligator ischen
advis ory
Instanz en
zuläss igen
doppel ten
Ank lage
dän ische
kurzfrist igen
seas on
Fäh igkeiten
plä d
autonom ous
begünst igt
Bab itz
macro economic
verdeut lichen
dee pen
makro ökonomischen
Refer endum
redund ancies
Mult is
ersta un
Informationstechn ologie
desper ate
faß ten
argu ed
indis pensable
Angehör igen
accommod ate
confer ences
unabding bar
smo o
einschlä gigen
herange zogen
serb ischen
Polit ical
ituation en
kä me
Luf traum
Alternat iven
Vo gel
Mod alitäten
recru it
shif ting
bewe gt
ernähr ung
scar ce
überflüss ig
Stür me
subscri be
benefic iaries
Ereign issen
Sim ilar
Serv ice
Zerstör ung
concess ions
Zuständigkeits bereich
Klon en
hiel ten
spong i
shamef ul
ultim ate
Präzedenz fall
Croat ia
Tues day
erfl achs
prev ail
Immigr anten
univers ally
Dí ez
Kroat ien
Sj östedt
twi ce
recor ded
allot ted
positi ver
0 30
2 12
2 80
5 24
7 9
A dr
B uesa
C ivil
C rimin
D ür
D oppel
D ossier
E ach
E EC
F lag
F asch
H änden
I ma
K ub
K ambod
L kw
N ass
S ud
T DI
V et
W ater
b org
c atch
d il
d rag
d iox
e igh
f ließen
g ulf
i po
k ar
k new
k ampagne
k atalog
m ie
m ort
m ad
n t
n est
p to
p atter
r iding
s qu
s burg
s kept
t ig
t auch
t schetschen
u c
w is
w rote
en forced
er fassen
er mitteln
er schü
er schweren
er suche
in des
in sp
in tim
an cho
un st
it es
ie delten
the men
or i
or ge
re put
re funds
re pression
ro ttung
ent ity
ent legen
ent nehmen
be lt
be vorzu
be merkt
be kämpft
to u
ge ld
ge ared
ge heim
ein gest
au en
wi dr
am s
sch icken
zu erhalten
zu stimmt
zu künftige
ic able
ver g
ver sp
ver wen
ver brecher
ten ance
ab warten
ab hängen
ra ge
he ll
wh istle
pro lif
pro secution
um ption
ir responsible
res idents
auf richtig
für sorge
ce ll
von einander
ach teil
Ver gabe
Ver gemeinschaft
Ver haft
Ver spät
Ver wirr
In c
dem agog
aus genommen
ta gen
ta kt
li p
Re commend
Re präsent
vor über
vor gebracht
vor gegangen
sp anische
ad or
co incineration
ben ga
ma ster
über trieben
sh ed
sh owed
An ze
An reg
An leger
err ors
schaf ter
po und
Aus merzung
str itt
Sch le
Sch ritten
able d
br ut
inter regional
Ab gesehen
Ber thu
her um
unter streicht
mo de
coun ts
lin ing
Fra gestell
Ein halt
Ein setzung
pre ference
dis pose
age ments
Gr ön
national ity
Reg ul
kon kurr
any body
uropä ische
arbeit e
Dies em
bo y
land fill
mer z
pon ien
wirk ungs
inv itation
Über wind
emp fehle
Maß st
wel ch
fu els
gemein t
oc racies
Zu ver
art icles
ganz er
ganz em
disc rep
schafts pflicht
ine qualities
Al ten
ri ver
Wie benga
real istische
Le iden
Im mun
kehr ungen
Nach richten
bre iter
may be
Her bst
necess ity
ausge drückt
Recht fert
gew achsen
Verbrauch s
Verbrauch ers
Schutz maßnahmen
All gemein
Br ut
speak s
Li ber
ko oper
kün st
cor nerst
einge treten
12 84
maß nahme
integr ity
integr ierten
bel n
colle ct
appropri ately
Is lam
Ch em
Stra fen
fäh iger
SE C
Qu ote
Regierungs bildung
Ha ve
obje ction
wic kelt
Sol che
mut lich
Demokrat ien
gratul iere
Nor mal
Bar ak
Med ikament
anzu gehen
exp ed
creat ive
aufge zeigt
Sp itze
Fä l
Rück über
pop ular
liberal ised
Hier bei
exce ed
Wasser ressourcen
Instrument ar
schre cken
Gesetz geber
gemeinschaft licher
Je den
Je gg
Fortsch ritts
auszu setzen
ton ight
Sel b
Zweit en
Human ressourcen
erreicht en
found ation
found ations
abzu geben
Menschenrechts politik
def iz
Pe ters
Invest ition
würd ige
submit ting
Partner ship
verein baren
indic ators
rep lied
herr schaft
stress ing
Pre isen
South ern
nehm ung
sk andal
iell er
chst grenzen
rene wed
verl ust
miß achtet
äl tere
Sicherheits rates
frü here
interpre ters
mass iv
avoid ing
Werte gemeinschaft
Entwurf s
veh icle
National ität
investig ated
Tier futter
Econom y
concentr ated
Inst abilität
moral ische
adv ise
zufrieden stellen
kräft ig
mist aken
optim al
optim istic
ökolog isch
Sonder gipfel
wit ch
Eing reifen
dro hen
lives tock
Personal politik
Kommissionspräsident en
Mexic an
hop ed
Schaden s
Sa at
character istics
Offen sichtlich
Unabhäng ig
iö sen
Verf assungs
postpon ing
Betrugs fälle
außen politischen
umfang reichen
Kat al
Kre is
simpl ified
compla ints
supposed ly
enjoy ed
Pflanzen fe
korre kte
mobil isieren
Vers auerung
Ben achteil
depart ment
spür bar
sal mon
Einwanderung spolitik
Beiträ gen
erleicht ert
Landwirtschafts ausschuß
Ins gesamt
liber ty
EURO DAC
Four tou
consc ious
Herkunfts land
Ernähr ung
Akt ien
Plenar sitzung
Wohn sitz
bese tzten
zivil en
prohib ited
Ph ilosoph
nör dlichen
Bab itsky
Imp ulse
anhalten de
depl or
persu ade
heik len
verzö gert
exec ution
contam ination
Oper ationen
drug s
distingu ish
infringe ment
üst ung
Grundprinzip ien
privile ged
drafts man
Bon de
Posit iv
Geltungs bereich
Bur ma
descr ip
Wün sche
Glau ben
gewer b
EW G
intern ally
alternat ives
Emission shö
approxim ation
Jahrzehn ten
Agent ur
beschl usses
Dien sten
finger pr
pharma ceut
Betre iber
Devis en
Interpret ation
Meinungsverschieden heiten
Entfern ung
Risikok apital
neut r
fakt isch
untergr aben
kommiss ar
wissens bas
ingred ients
aufrecht zuerhalten
Enttäu schung
häuf iger
Dat um
gelern t
Similar ly
Crimin al
Überwind ung
Jegg le
Emissionshö chstgrenzen
1 20
A li
A part
C ad
C olle
D EC
F lu
F eind
F uster
G ast
G GF
H emm
K e
M ary
M oral
N L
N ext
O mb
P feil
R uf
S and
S eine
S org
S TOP
T atsäch
T ragen
V ieh
W ien
W oh
W hether
a pe
a ven
a val
b te
b urn
d ischen
f light
f abr
g ten
h il
h ungen
h ushkits
j unkt
k ürlich
l ary
m mer
o cau
o steuropäischen
r uns
r ising
s hap
t ö
t ur
t anker
w ü
y sen
z ones
en vo
en det
er er
er hielt
ch ief
es p
an erkennt
un dern
un usual
it able
or ded
al a
al leg
al ia
re think
re actions
st ic
st ür
st alten
st änden
st yle
ar ischen
le v
le hne
be tragen
be dacht
be kunden
as set
ge ar
ge op
ge handelt
ge drängt
ge antwortet
ge meldet
au x
we hren
we cken
sch wach
zu läßt
zu gewiesen
ve to
for schung
ver gangen
ver bergen
ver liehen
ter med
em in
ür zung
con te
auf gebaut
wer tet
Ver fe
Ver markt
Ver pack
Ver dacht
Ver lagerung
if ikation
In toler
aus nah
aus schließ
ind if
Re den
vor igen
vor stell
ex pl
sp flicht
ste cken
co operating
Be ton
Be lange
Be einträcht
Be griffe
über trag
über leben
über nimmt
fe et
An n
An dernfalls
ze hnt
Th ree
ann immt
do ors
lo op
En th
Die jenigen
Aus kunft
Aus sprachen
up p
up date
Sch ein
Er suchen
fü hlt
fer nen
inter med
Ab lauf
ue ller
unter sch
Ent scheiden
inc ur
Fr ü
du al
Ein sicht
Ein vernehmen
fr ucht
Sie g
dis regard
dis appeared
per atur
ide o
ide ut
iz es
conc ur
kon ting
ok es
lä cher
og hurt
teil genommen
geb rochen
sup por
setz te
ange geben
ange legt
zw ing
Zus agen
weiter gehen
hier archy
ang ol
So ares
bo x
sub je
Inter ims
Auf stock
pf lanzen
produ ktiv
produ zenten
att ent
oper ates
viel falt
tell t
chn ungs
human e
order s
Zu gehör
Con c
less ly
fest legt
fest gehalten
loy al
bis weilen
pa ß
resol ute
Al ger
immer t
Bürger beauftragten
plan ungs
Umwelt katastrophe
sozial istischen
Le uten
abl aufen
Im pf
beg leitet
main tenance
Mar fil
Nach haltigkeit
bre chung
bre eding
Ges che
Finanz instrument
offen sive
Char akters
industr iellen
press ures
ausge gangen
ret ten
zahl ungen
Haushalts behörde
Fall s
Arbeits lose
statt fand
äuß ert
Teil ung
reform ing
reform ed
acc orded
zeug nisse
Tr ib
extre men
gere chter
Ste el
air space
wert volle
Welt krieg
star ving
ko st
zurück kehren
Sozial modell
neh mbare
pract icable
exist ierenden
back s
begrüß enswert
appropri ation
Dar f
sum m
Qu äst
Beispiel sweise
inten se
hervor rufen
beding te
Ex ekut
inform al
versch mutz
Gener ation
14 0
Res ult
mult ifun
pop ul
pop ulated
eth ischen
prof ile
kr imine
Instrument s
akt uell
Wahl kreis
viol ent
Fest setzung
wahr haft
auszu arbeiten
auszu üben
EA GF
EA GGF
Lebensmittel behörde
Dire kt
gute m
sy nerg
she ll
request ing
Viel mehr
Staats führung
sex uelle
zusätz licher
Invest oren
Volks gruppen
Gelegen heiten
Partner schaften
gesetz liche
chter t
Selbst bestimmung
Strukturfonds mittel
eingehen der
address es
unabhäng iger
discrimin atory
Beitritts länder
verl iert
Op port
acce ler
attem pted
White head
eing reifen
beru fen
Erzeug nis
ürz t
Augen merk
asse mbly
incorpor ating
bilater aler
author ising
return ed
zä hl
aut umn
veh ement
National ismus
liz it
enable d
wissenschaft lich
orient iert
separ ately
umwelt politischen
adv ised
Nord ir
Nord ische
entscheid ung
anders wo
log ic
acqu ire
voraus gesetzt
vert ical
judge ments
explo ited
Che chen
IC C
geograph ische
attempt ing
koh ärenz
prefer ential
Straf verfolgung
ino sen
grundsätz lichen
Sonder beauftragten
höch stens
Mitarbeit ern
permit s
bound aries
patent ing
mid dle
Meinungs freiheit
proportion ate
Trans it
offiz ielle
Umwel thaftung
rev ise
empf ind
empf unden
nachzu kommen
drast ically
endor sed
Sign ale
Vorsorgeprinzip s
mobil ise
Vorbe ugung
Vice conte
symbol ic
clean ing
genehm igen
ED D
courage ous
Hindern is
calc ulated
verwe igert
proble men
Real itäten
Mand ats
isol ation
solid ierung
kohär ent
kohär ente
Zwischen zeit
Glück wunsch
erneu ten
resist ant
slow ly
motiv ation
motiv ated
transl ated
Sk andal
erzeug nissen
Verlust e
exter ne
beseit igt
Parität ische
valid ity
verantwortungs bewuß
Schulden er
punish able
anticip ate
theoret isch
verhält nisse
Mittelmeerr aums
Europar at
Straft aten
fam ous
Sof ort
beur teilt
aspe kte
Sachverständ iger
Inner es
dollar s
einzur äumen
pflanz lichen
ersta unt
vergleich bar
sin ken
beruf liche
justif iable
verfüg baren
übergreifen den
Hunder tt
gesto ßen
Subst anzen
Staatsbürger schaft
irak ische
justit iellen
Mehrwert steuer
erfreu lich
resign ation
TS Es
hosp ital
unequivoc ally
alban ischen
Früh jahr
Dikt atur
ham per
strä ger
gesonder te
fasc ist
Cas aca
tank ers
wass ers
Certain ly
Haushaltskontroll ausschuß
entschuld igen
prece dence
Dolmet scher
Fü lle
tort ure
vertie fen
Tragö die
ermächt igungen
Fischereise ktor
Verarbeit ungs
Erläu terungen
Hauptz iel
grem ien
gentechn isch
Vir us
Chair man
Indik atoren
Britt any
Cambod ia
Hav ar
Kennt nisse
aest ors
unmiß verständlich
schnellst möglich
jeopard ise
overwhel ming
Bese tzung
Vot um
Veröffentlich ung
pron oun
Aufschw ung
greenh ouse
Babitz k
Sud an
Verwirr ung
Tatsäch lich
ocau st
ausnah ms
Aufstock ung
Quäst oren
EAGF L
0 13
0 18
5 9
6 3
6 13
8 6
8 8
A 2
A lar
A BB
A VC
B al
B ra
C lin
C ard
D up
E hr
F üßen
G az
H y
H im
H ud
H ushkits
I deal
J ar
K K
K asch
L O
L ip
L ink
L ücken
N iger
O EC
P or
P utin
R obin
S ein
S ing
S afety
T sat
V E
V ere
V ien
W HO
Z y
a wa
c u
c ards
d ying
d ossier
e kl
g ä
g no
i ös
i ably
j ü
j an
k op
m us
m ache
o we
p hr
p ul
r ic
r ungen
s la
s onder
v ac
w olle
w unden
z og
z onen
z emb
ä en
ä le
é e
er wer
er zeugung
on te
an setzen
an schein
an passen
is al
un clear
un verständlich
un kontroll
un realistisch
at ro
ie in
ie hlt
or gen
st ore
ar do
ar rest
ent senden
ent sorgt
le hr
le idet
ge fahren
ge folgt
ung leich
ein genommen
au g
de vote
de gress
de hnen
de pendence
ur er
se ats
ll or
we iger
sch ichten
sch aden
im balance
zu halten
ve terin
ver träge
ver gleichen
ver mögen
omm t
ter ten
ab sor
ra isal
da chten
da hinter
so s
ke ts
con dem
con fron
pro ben
Ver nicht
Ver gessen
Ver trieb
if ul
if iable
Un klar
Un til
In fe
dem ocracies
aus sage
aus drücken
ind igen
os ing
li a
li hood
vor teil
vor nehmlich
ex posed
sp rä
sp reading
sp okes
ste he
co operative
will kürlich
fe e
ag ents
fa ther
fa ktor
An statt
wor ben
ap able
par ents
Pro v
str ive
Sch r
et abl
Er rungen
dar zulegen
ger au
war tet
war tung
imm unity
Vor entwurf
Ar z
Ar ch
Ab sätze
Ber end
unter laufen
ow ing
ow ski
weit est
mor gigen
ers icht
Ent ste
inc apable
ens werte
Parlament spräsident
du b
dis posed
national ism
lan k
ör ung
ör ungen
per verse
work force
ün del
like wise
che aper
kon tra
mar ker
ho to
inst ig
kommen de
ak ultur
gesch eit
Kon s
arbeit er
Unter brechung
führ end
änd ig
schließ ung
De parte
uch ten
hier her
For mer
Auf teilung
system atische
Zusammen leben
forder te
gleich er
Bere chnung
brauch e
respon ded
Zu gest
app raisal
gest ure
comp lying
geordne te
geordne ten
govern ed
Se ch
less on
less ness
erg ie
Rechts ausschuß
zwe ier
zwe imal
Ho her
legisl ature
Le tzt
Me ß
Im mer
vers ions
voll wert
Or igin
klär ungen
Finanz hilfe
stim ul
Mon tre
Gese llschafts
trans mit
gew andt
Kr is
Kr iegen
Haushalts vor
Haushalts disziplin
fle et
wish ing
Regel werk
zun ichte
invest itionen
Welt bank
zurück gehen
kün fte
Gesch äft
Gesch wind
var i
vis iting
integr ieren
eigen er
vi ation
Ch i
appe als
Struktur politik
hau l
individ uellen
sector al
Ind ian
bur ger
Programm planung
lauf ende
UN IC
short age
erb racht
anzu sprechen
Dienst es
gra ve
gra vier
Rück führung
ifiz iert
län glich
Amer ikanern
Mil cher
einz iger
kr ise
Wasser qualität
dien lich
umfassen der
angenommen e
tes ted
vorzu sehen
wahr genommen
auszu schließen
Bel grade
sy r
diskut ierten
Sum men
abzu schaffen
abzu bauen
Nahrungs kette
Nicht ein
indic ating
blo ß
Flücht ling
klein ere
determin ing
betroffen e
Proto kolle
Strukturfonds verordnung
modern ising
sec uted
tradition elle
irgend eine
irgend welche
innov ations
mitglie d
continu ous
Komprom isse
Wach samkeit
immigr ant
Ru iz
limit ation
limit ations
beschrän kungen
Erfahr ungs
Chr is
interess ieren
beru fung
potential ly
schle chte
manufact ure
Kampf es
scho ck
Untersuch ungs
author ise
bevor stehende
renew ables
claim ing
death s
pun kten
intens iven
Wahr nehmung
Red nern
vereinbar ungen
staff ing
chem icals
schäd lichen
condemn ation
198 4
Fun ktionen
emer ge
Einzel nen
später en
Sto ck
log isch
proz ent
proz essen
wonder ful
Entscheidungs findung
Spiel regeln
reject ing
threaten s
combin ing
fried lichen
sinnvoll er
depend ing
excess ively
Italien s
ausführ licher
Willen s
beabsicht igen
Bezug s
appar at
Go eb
Freitag s
ignor ieren
jetz ige
dram atischen
facilit ating
ca pe
reib ung
verz ichtet
Gesam th
She tland
adapt ation
ehrgeiz igen
meaning ful
ergeben den
Ganz es
publ ish
gegenseit ige
empf iehlt
Ter mine
Sitz ungs
counterfe it
Ungleich gewichte
Soll ten
russ ische
thir ds
Vers ion
uche lei
angekünd igte
hom ogen
conce al
domin ated
Innov ationen
trial s
retain ed
ugg ling
fill ing
rid iculous
Generaldire ktionen
inhalt liche
consc ience
Hab sburg
Auseinander setzungen
count less
rassist ischen
Schwä che
dringen de
engag ieren
dur ation
dur fte
schwä chen
Weit erb
Nacht flüge
Trag weite
quar ter
wohn ern
fäl schung
Beschrän kung
wies o
Schnell hardt
Erfordern isse
diskrimin iert
Tem peratur
voranzu bringen
disappear ance
schreit et
mee ts
scandal ous
aqu ac
intell igence
Krie ge
Informationstechn ologien
feder ation
nament lich
dissemin ation
SA VE
Bulgar ien
Bulgar ia
Schad stoffe
Conserv ative
Sar dellen
catastrop he
risik en
Altfahr zeuge
Sens ibilität
betr ug
ausländ ischen
legum inosen
gig ant
devast ating
Staatsangehör igen
Opt ionen
ergeb nis
Lehr er
Fil m
Pet itions
inhaft iert
Vertrieben en
völl ige
tox ic
monat lichen
erziel ten
complim ent
corpor ate
miser y
screen ing
Billigflag gen
analy sed
Rac ism
Schätz ungen
Erleicht erung
Gefangen en
distur b
Göte borg
manager ial
verabschiede ten
Konkurr enz
Besorg nisse
Wurzel n
Aqu akultur
Kürz ungen
Körner leguminosen
Mun ich
abgest imm
resc ue
Umschicht ung
hervorzu heben
dischar ges
Produktpir aterie
Kambod scha
Nass au
Recommend ation
Brut to
Jeden falls
Philosoph ie
Omb udsman
mmer t
Intoler anz
zwing end
summ ary
Nordir land
ICC AT
Clin ton
Him mel
Hud ght
Jar zemb
OEC D
Robin son
Tsat sos
Vien na
anschein end
condem ning
Zugest änd
gravier end
Goeb bels
Jarzemb owski
. '
B ench
B ahn
C am
C us
D um
D ossiers
E ig
E qual
F lot
F öderal
G il
G all
H or
H ür
H el
H üter
J ud
K örper
K ash
K lausel
K unst
L ord
L ichte
L yn
L ücke
M at
M uch
M achen
M illion
M asch
N uk
P es
P ur
P op
R asse
S ä
S met
T om
T rä
T äter
d read
e ase
g te
g reg
g ift
h ten
l ärm
l abor
l ighten
m unter
m ud
m achten
n y
o v
p läne
r and
t itle
u ber
u chte
v ierte
y ers
Ü bel
ò li
ö tet
en em
er teile
in j
ch ard
th es
an ter
an wend
an while
is onment
is ierungen
un ite
un klar
un nötig
or ten
re me
re gend
re plies
re placing
ich ens
st ation
ar ises
ro s
ro les
ge danken
ge griffen
ein geschlagen
ein richtungen
and als
au to
au se
de ce
ur teilen
ur teile
we ge
we ib
sch if
zu satz
zu trifft
zu gang
zu gegeben
ver teilen
ver länger
ver kauft
ver fassungs
ver haftet
ies en
ol f
ab used
ab schaffen
ab hängt
lich em
so il
il ation
il assung
he gen
ne imit
pro min
um hin
ir on
res id
auf geschlossen
ce l
tr ennen
wer ken
me lt
Ver ordnungs
ul a
not es
In dem
aus es
aus schließen
aus macht
aus wirkt
gr ip
sen kung
ive aus
os met
vor bereit
vor gezogen
sp ont
Par allel
ident ification
ident ifying
ad m
Be trieben
Be fried
qu elle
sh ot
sh ipo
igen den
ib bean
ern ing
ern annt
hen de
wor an
St imm
lo ans
ap ers
Aus breitung
str ich
Mit teilungen
bei ro
bei gemessen
Sch war
Sch rift
Europä ern
there of
tra ge
tra ve
Vor fall
pr ang
pr isonment
Ar me
inter action
Ab end
Ab wicklung
unter nehmer
unter zeichneten
ers atz
Ent weder
sta be
Fra cht
nach weis
Ein en
Ein bindung
Ein berufung
Ge g
Ge wässern
pre car
dis play
hin fällig
age ing
Gr upp
od ds
iz isten
iz za
fore front
ank ommt
teil zunehmen
under took
ast on
sup plies
gesch oben
Kon ventionen
get ötet
new ly
Ma th
Unter richtung
Menschen handel
Menschen recht
agre eing
Än g
ded icated
Auf wand
mer its
deb ts
cour ses
gleich gültig
Über schreit
Europa wahlen
Zeit ung
Zeit ungen
gemein wohl
know ing
zeit igen
social ist
Zu fall
Zu schläge
app laud
Fre ilassung
question able
bst ät
bring ung
Min ute
disc re
besch ließt
Besch leun
Bürger rechte
icher heit
ri age
ele ven
real isieren
Le b
Me anwhile
beg nügen
Ja vier
hol es
hol fen
curr encies
Berichterst attung
ausge legt
begr if
Verein heitlich
trans nationalen
Ne uer
Mö glich
He uchelei
Br ie
serious ness
stär kt
defin es
star ts
gehör te
zurück gegangen
Sozial fonds
12 5
Fe ld
finanz ierten
contrib ut
inde x
comple tion
Verantwort lichkeit
lang wier
Produ kts
Fisch fang
Fisch bestände
atten ded
ep ing
Gleich stellungs
Kom plex
understand able
obje ktiv
aim ing
express es
hervor gerufen
Wh ilst
Erweiter ungs
sur plus
benef iting
applic ants
prä vent
rele van
uni ver
Sp ionage
objective ly
ren äen
akzept able
exc ise
Geld es
cl auses
Wieder ein
civil ised
pass ieren
Arbeitsp lan
restr iction
dist anz
Bo y
Rei hen
coordin ating
Fortsch ritten
wahr t
kom pet
Dire ktor
top ics
met als
offer ing
gelten d
circ le
Miß wirtschaft
ethn ischer
gesetz geber
klein es
soon er
zentral er
Schwe igen
Freiheit lichen
modern ise
lö st
tradition ell
nehm baren
zeichne te
Koordin ierungs
rene es
live d
poor er
aufzu fordern
analys iert
erheb licher
funktion ierenden
bl ing
bl atant
histor ischer
Asyl politik
heraus gestellt
Environment al
pursu it
gän z
encourage ment
gering eren
Friedens abkommen
Zivil bevölkerung
Verkehrs un
jur istisch
90 er
VO TE
orient ation
orient ated
emer ged
Agricult ural
Sto ff
Stre ben
explo iting
bein ahe
unmittel bare
niedr ige
Tro cken
verbind lichen
Nieder schlag
vertre t
stattfinden den
Gest alt
Bestand teile
Verständ igung
announ cement
Rechnungshof s
Erwä hnung
Car ibbean
Jo hn
stor m
dram atically
Bro vina
secure d
federal ist
perman ently
verletz en
worr ies
moder ate
defic its
Währungs reserven
niemand em
elimin ation
migr ants
Umwel tz
Stud enten
compat ibility
Akte uren
mittler weile
rück en
deleg ations
Befür wor
Ents endung
diplom atischen
vertrau ens
Höchst grenzen
custom ers
coll ap
Begriff s
adjust ment
Vers öhnung
spolit ische
Streit igkeiten
bedeut samen
vorrang ige
glück licherweise
präsent iert
Versicher ung
Konsult ationen
Handeln s
Abänder ungsantrag
zweifel n
equip ped
exception ally
Pens ion
günst iger
vieler lei
kohär enten
attra ctive
Lang zeit
förder ungs
Bewerber länder
Yes terday
komple xen
Bedürf nissen
react ors
pap ers
forese en
distort ion
Plenar saal
rassist ische
Schwä chen
beruhen den
Buch stabe
fäll igen
fäll igkeit
attend ance
Stahl industrie
Aid s
Prop os
Prop aganda
infe cted
Palestin ians
derog ation
Weit ere
wohn heiten
expand ing
bürokrat ische
anhalten den
demograph ischen
Erschein ungen
Vorgän ge
Inner halb
metho de
anspruchs vollen
Unionsbürger schaft
leite te
Asylbewerber n
Gol f
Grö ßen
enforce able
Kranken hä
priorit ise
Ausgleich s
pled ges
detaill ierte
Telekommun ikations
knapp en
rec i
Mißverständ nis
befug nis
biolog ischen
fremdenfeind liche
privile ge
mod us
reveal ed
verheer enden
ansäss igen
perpetr ated
Py renäen
Py renees
brid ge
newsp aper
newsp apers
anx ious
Anpass ungen
alli ance
enthusi asm
konsult iert
Differenz en
Gas òli
Merk male
geschä fte
summar ise
dial ysis
shaus halt
manif est
tau ght
Elektriz ität
getrenn te
Behaupt ung
pertain ing
Gemeinsam er
offenkund ig
anony m
remed y
verschl immert
Transfer s
arbitr ary
Schü ler
Entschuld igung
bewaff neten
Finger ab
accus ations
Ri beiro
Trink wasser
dor thin
mic ro
quie t
acid ification
judic iary
Ima ge
eigh teen
wis dom
ancho vy
eingest uft
Vergemeinschaft ung
Anze ige
Immun ität
Vermarkt ung
Entscheiden d
Babitzk ij
Kasch mir
Vere hr
Vernicht ung
Arz neimit
Entste hung
dub ious
Montre al
Haushaltsvor entwurf
Gesamth aus
Hudght on
Cus í
Kash mir
Nuk lear
prang ern
precar ious
Beschleun igung
Vereinheitlich ung
Gasòli ba
0 5
7 3
8 3
B alt
B omb
C hen
C ast
D un
D ör
D iplom
E ce
F luß
F arm
J an
L iter
L ernen
N E
N on
N ice
N izza
O t
O ption
P an
P omé
P illar
R ü
R ou
S R
T schech
V G
V el
V ote
W yn
Z ement
Z ana
Z onen
a waiting
b ies
b auf
b innen
c ite
d oppelt
g ins
g lu
h ingen
i ak
k lag
k lagt
m 3
n ann
n ames
p it
p halopath
r ichte
r isen
s au
s cour
s ine
s hel
t le
t ein
u is
u do
v ice
w ö
ä te
ä lä
é chard
ü m
ü stet
er be
in richtungen
th om
es cape
an ze
an chen
an ia
un nel
un schuld
un weiger
ie gel
al ts
re it
re ver
st unde
be ben
be freien
be herrschen
as ym
ung ünst
ein gangs
ein dringlich
te ch
die t
de light
se lling
se udo
am ing
we i
im prisonment
zu teil
ic ism
ver stand
ver miß
ver laufen
ver trieben
ver einfachen
ver hütung
ol iberal
ab sent
em power
ra y
ber t
he lic
ct r
ne te
con i
con form
pro cure
ir r
ir ies
ir ische
auf geb
auf zustellen
auf wand
auf gesto
tr uppe
ment reffen
me al
Ver bo
ges unde
op ted
op ters
ul ts
Un gar
aus geben
aus reicht
aus enden
ta pe
gr asp
Re chnungs
vor ant
ck ten
sp lan
sp lend
ben i
ben ennen
ma p
ma cks
über sehen
port fol
qu id
sh ore
nen nt
We gen
We ih
ungs programm
fa ire
An sehen
An wohner
ze igten
ib r
ib es
ib ia
ap ar
ik er
out lines
Aus stattung
Sch atten
Sch wach
Sch ienen
Er reichen
wo her
ger ät
Vor ab
Vor kehrungen
bes ides
Ab teilung
Ber lus
her es
mor atorium
inc re
ip t
ens ur
lin qu
pres cri
pres erv
Ein heits
Ein spruch
kann ter
dis abled
ill ation
per form
per secution
lic ences
ieren des
conc luding
ear marked
mar gins
cau t
Council s
polic ing
gel s
sol le
cr y
Um verteilung
any way
sup pl
ak er
min istr
fre ier
gesch l
gesch nitten
Ma x
Ma il
Ma instreaming
führ bar
europä isch
De ponien
weiter zu
cy n
cy cle
fo ol
sub vention
Der artige
mer ger
produ ces
att itudes
wend ungen
har sh
atz en
respon sibly
ence phalopath
Bereich s
Zu weisung
Aussch luß
ganz es
Fre md
view point
sicher er
Se g
Se en
ves sel
Min imum
far mer
wieder herzustellen
techn ically
zwe cks
Rahmen programm
Bürger s
ri ot
ätz e
ele ph
recht mäßig
Le hre
Im beni
beg ins
Mar ko
voll zieht
Nach weis
erson en
wn ers
transp orted
transp osition
hol z
hol ung
reason ably
besser er
press ive
ausge weit
Fl échard
ensure d
law yers
trans formation
trans ferring
tens iv
Hand hab
Haushalts linien
klar gestellt
He il
zeug nissen
Schutz gebiete
Stand ort
Br ü
folgen der
extre mist
jen es
jen ige
star kes
Kolleg ium
mil est
amb ur
jo ined
Gesch mack
To o
To ten
back ed
vis its
approach ing
promo tes
ikan ischer
Bes atz
pflicht en
Qu aestors
obje ktive
obje ktiven
reco ver
Sol bes
mut igen
äd chen
äd oph
transpar ente
uni verse
anzu sehen
organis ational
isen berg
Schaf en
Rück nahme
ev il
üh le
kr ie
moment um
Flug gä
akt ions
Wahl recht
care er
commend able
Chin as
danger s
wahr ung
auszu drücken
turn s
äu fer
harmon isiert
grenz werte
Luft qualität
Sicht weise
Vertrau lichkeit
Pe ter
recommend s
24 0
mis use
mis understanding
Informations austausch
rad ically
total itarian
Integr ität
herr sch
prakt iz
list ing
solidar isch
Vereinbar keit
tradition ally
Raum ordnung
sk il
central isation
Rede beiträ
fil led
aufzu heben
Völker gemeinschaft
Völker mord
einheit lich
einheit liches
schl üss
mot ives
distrib ut
Sicherheits ber
alloc ate
alloc ating
Ro jo
proceed ing
Erfolg s
mensch licher
ec olog
mess ages
Prä vention
Prä ferenz
return ing
Tier ernährung
garant ierten
ref using
consult ations
mel den
Haider s
separ ation
sitz t
politisch em
Fa una
Kern kraft
Kur zum
concept ion
afr ikanische
mittl ere
verw altet
convinc ing
optim um
optim istisch
Ad option
Fahr zeugen
associ ate
grün de
ernsthaf ten
influ x
ES VG
Sach kenntnis
sonst igen
schn itts
observ ance
nöt igen
niedr igen
entgegen zu
ausgewogen es
complex ity
Chance llor
Consum ers
Zyp erns
Wohl stands
ehemal iger
DE P
forget ting
Insel regionen
Mor atorium
weak er
ignor ing
verbr ennung
verbr annt
verurs achten
bestand en
According ly
advoc ated
niemand en
vig orously
admit tedly
Lauf bahn
proje kt
Vermittl ungs
Kre ise
Jugoslawi ens
insist ing
exclu de
schreck liche
endeav ours
fand en
kap azitäten
Mobil isierung
bedeut same
Rent ensystem
nütz liche
calc ulations
Straßen verkehr
weap on
Ele f
Fet t
debatt iert
touch ed
register ed
größt mögliche
197 3
gericht shof
doppel te
tä glichen
genie ßt
schö nen
Schuld igen
durchge führte
sil ent
Gesetzgeb ungsverfahren
acknowled ges
gap s
lock ed
verschle chtert
dringen den
grav ierenden
endeavour ing
erstre cken
deliber ately
anticip ated
Nutz fahr
verhält nis
schul en
Europar ates
Europar ats
regre ts
peripher y
Ök ol
vorn herein
standardis ation
proportional ity
entreprene urs
multilater alen
Erfordern issen
Lärmbe lastung
heik le
ratifiz ieren
aren a
intell igent
teach ing
desper ately
sac r
Geschle chts
Minen räum
Subst anz
kontinuier lich
unequivoc al
widen ing
legum es
weitreichen den
partial ly
konz ert
engl ische
UC K
chr ist
Empf änger
apolog ise
secur ities
verkün den
nar row
thet ic
aufer legt
install ations
kill ing
Rel ating
advert ising
Siedl ungs
dismant ling
Reser ven
Könn ten
awar ding
scept ical
schott ischen
Bom ben
Mün chen
distr icts
lorr ies
unilater al
Buiten en
transatlant ic
Mißtrau en
vorsitzen den
exemp lary
nachteil ig
Gefähr dung
perce ived
Wettbewerbsverzerr ungen
magn ific
dictator ship
HA DEP
shar p
gewinn t
communit isation
erkenn bar
unverzicht bar
Nam ibia
lifel ong
grü nen
excit ing
Kompon ente
Altersversorgungs systeme
deepen ing
erstaun lich
reput ation
prolif eration
Maßst äbe
hil ft
esp ionage
Verfe chter
subje cted
Conc erning
Schuldener laß
Havar ie
Card iff
Dup uis
Niger ia
atro cities
veterin ary
weitest gehend
Parlamentspräsident in
Pes älä
dread ful
anwend bar
relevan ten
gänz lich
Langzeit arbeits
Ece vit
Pomé s
Rü big
Vel zen
glu ten
unweiger lich
procure ment
aufgesto ckt
splend id
Berlus coni
Handhab ung
A g
A ff
A gain
B 7
B or
B ess
B ay
B rem
B ünd
C S
C ong
C anada
D és
E ck
G las
H u
H is
H äft
K S
K il
K anada
L ager
L oud
L DC
M ädchen
N um
O S
P il
P ier
R ob
T it
V ac
V ater
W andels
W ulf
a w
b ol
b ian
b old
b lieben
c led
d ir
d ungs
d ische
d liche
f ter
f asch
g old
h id
i ating
k m
m om
m ig
o ts
p fe
p ac
s oul
t am
t ant
t ired
u dence
u fel
v enz
w ahre
Ö lt
ä ume
ö ver
en ced
er achten
er achtet
er arbeiteten
er worben
in tr
in deb
ch selt
es cap
an dern
an stellen
an gestellt
an bau
un certain
un ambiguous
at ri
ion e
ar ab
ro b
ent be
le ts
le hen
le ap
le br
le ug
be har
be kun
be kennen
be kennt
be handelten
as en
as ien
ge o
ge ziel
ge zielt
ge gründet
ge kürzt
ge holfen
ung lück
ein schlagen
ein schränken
ein räumt
and auern
au b
au gen
de ment
de du
de priv
de eds
ur y
ur an
ur teil
ll a
we igert
sch ade
zu viel
for bid
for mity
ic ker
ver setzen
ver ification
ver anker
ver mutlich
ed oph
ra rely
da iry
ber n
so hne
ne oliberal
ist unnel
con struct
um geht
auf stellen
auf bringen
ce lebr
tr am
tr aten
ach es
Ver g
if en
op fer
ul den
ul ose
In haft
In kohärenz
dem ic
aus ger
aus bildung
aus lösen
ind ul
Re ich
vor bild
sp otential
sp heres
ess im
Be fug
Be wohner
An son
An schuld
An gek
err y
err ungen
err ichtet
do w
ern sten
St ein
St ütz
En large
Pro vin
out line
Aus laufen
Aus rottung
reg a
man cher
Sch äd
Wir tschaften
Er ziehung
Er lernen
wo gener
ger ückt
war r
ord an
ord entlich
ac company
Vor reiter
Ber gen
unter stellt
unter richtet
inc umb
sam meln
ult ural
pos session
nach ts
nach weisen
nach gedacht
sel n
Bericht es
Ein leitungen
Ge hör
alle mal
alle viate
pre chen
dis regarded
dis appointing
tro cken
Reg istr
zum er
Das selbe
ear n
gel ö
gel der
Um sie
int ing
sup pose
gesch wächt
Kon föderalen
get ät
vie t
Menschen leben
Menschen verstand
gese tze
over lap
So wohl
Grund wasser
Grund wassers
Auf träge
ustr ie
produ kten
gu the
Zusammen kunft
Über trag
Über griffe
Über setzungs
mon et
Zeit alter
lau ten
ständ igkeit
wirtschaft liches
Bereich erung
Jahr zehnt
spre ch
Fre unden
question ing
comp are
trag ischen
want ing
fest stellte
tun es
Rechts ordnung
Al pen
Al ps
economic s
Rahmen beschluß
level led
legisl ate
Umwelt minister
luß t
requ is
abl er
every day
Mar in
differ s
Dem zufolge
io vis
wn ing
financial ly
Her den
hol m
hä l
stim ulate
ausge wiesen
ausge glichen
ausge wogener
zeich nungen
trans c
Ne g
Euro just
Recht setzung
before hand
strateg ien
sc andals
ordin ate
Ste hende
redu ziert
Am ado
invest ing
defin it
zü gliche
ict ions
einge leiteten
Fe der
Fe uer
To gether
Verantwort lichkeiten
vis ing
integr ierte
Em bry
markt es
Lebens räume
einf ließen
19 67
Lös ungs
ents prochen
ru fe
ru led
Ch ildren
Ant ip
Dar stellung
Reform prozeß
SE K
step ped
Kom pl
einzu stellen
Man che
Liberal e
EC H
priv at
entsprechen der
feel ings
Wh ich
absol uten
mut ually
Fort führung
prevent ative
Bei legung
Ex trem
ged ient
len e
anzu bieten
anzu erkennen
anzu streben
exp ired
schwer er
success ive
Sp itzen
eindeut iger
Res source
mult ieth
EG KS
liberal ism
gefähr deten
üh ne
Überein kunft
Sub vention
akt ual
Wahl beob
Wahl kampf
Mo de
poll uting
particip ated
tes ten
auszu sprechen
Isra els
Heraus bildung
Luft verschmutzung
repe ating
Energie politik
Volks wirtschaften
demonstr ations
comprom ising
gesetz geb
blo ßen
advan ces
Techn ical
Techn iken
competit ors
hung ern
nü tzen
sinn los
doubt less
gre ß
expla ining
spar ungen
schl üsse
histor isch
beru h
Absicht ser
Richtlinien entwurf
Beschäftigungs möglichkeiten
hinzu zufügen
Plenum s
Gew inn
aner kannten
Per iode
wirksam es
Zivil isten
Gel tung
profit iert
Plan ungs
inspe ctors
consult ing
Beg leitung
focus es
design ation
obtain ing
pack aging
schäd liche
Inst it
Frankreich s
moral isch
guard ian
emiss ionen
Element en
Gesundheits fürsorge
verw under
Deut schen
Kar tell
weltweit e
hig end
voraus setzt
erforderlichen falls
optim ism
optim alen
vorher gehenden
sugges ting
break down
autom atic
bericht erst
ES A
mä chte
stabil en
stabil ität
heim gesucht
element ar
steuer lichen
steuer liche
supp lied
Eing ang
lit ten
höher er
Voll endung
block ade
interpret iert
stor ies
stor age
Schwer met
defend s
entschlossen e
leiden schaft
präz isiert
Beweis last
züg ige
Ord nungs
denk bar
Stadt vier
rev id
prosper ous
mach ung
relig ion
Are a
alte ten
Befür chtung
vorange kommen
Prof ite
tie fe
veget ables
Ungleich gewicht
anspr ü
consolid ated
Vers äum
Beste hen
Komitologie verfahren
verm ute
vorrang igen
Futter mitteln
record s
imag in
conce iv
Bundes republik
versicher ungs
isol ieren
Bil der
attra ct
Ausmaß es
protest ieren
Territor iums
liber t
weight ing
preser ving
Hilfs maßnahmen
bedauer licherweise
kü mmert
griech ische
kurzfrist ige
restor ed
restor ation
commod ity
geleis teten
imper ial
erstre ckt
Erwäg ungs
Verb ände
strik ten
Migr ations
Süden s
cance lled
Rechtsrahmen s
Tunis ian
verzerr en
bürokrat ischen
aspe kt
Bla ir
expens es
radik al
radik ale
drit ter
confu se
fel der
durchschnitt liche
makro ökonomische
Andalus ien
Andalus ia
verzö gern
Zug leich
contam inated
Kranken haus
belg ische
cha os
einseit ig
Investitions bank
bestre it
distingu ished
recy cled
Angehör ige
Haft pflicht
irak ischen
zy pr
settle ments
hosp itals
tenden cy
Erwer bs
komplex e
engl ischen
entrepreneur ship
laud able
frank ly
assum ing
Gewiß heit
medic ine
medic ines
enthusi ast
dereg ulation
Indones ia
denoun ce
Relig ion
Bot schafter
flä che
Meld ungen
Dringlichkeits debatte
mittelfrist ig
Säuber ung
stret ched
vorläuf igen
besorgniser regend
aggress ive
Anhän ger
angere gt
schlüssel ung
Oberflächen gewässer
Ren ationalisierung
yard stick
predecess or
imprison ed
moun tain
ergreif t
gewünsch ten
phon es
mex ikanischen
safegu ards
Etap pe
Gü tern
aufsicht s
Aufr uf
gebühr end
anspruch nahme
vict ory
wast ed
Theor ie
Konzep te
Beihilf ere
recruit ment
insp ired
Grön er
arbeite te
discrep ancies
Verbrauchs steuern
Peters berg
Positiv liste
descrip tion
Colle ge
ausschließ liche
Beton ung
Sofort maßnahmen
vac uum
ersicht lich
Kons ument
Kris ens
Weiterb ildung
aquac ulture
Hüter in
Lyn ne
verlänger t
Befried igung
shipo wners
Geg ner
Math ies
Propos al
Bomb ard
Cast ro
hingen ommen
helic opters
incre ments
sacr ific
magnific ent
Cong ress
Dés ir
Rob les
Vac lav
hid den
mom ents
tant amount
indeb ted
Anson sten
Anschuld igungen
Angek lag
Enlarge ment
incumb ent
' .
2 16
4 32
5 b
A mo
B lan
B orr
C e
C un
C au
C ur
C ross
D re
D ere
D age
E t
F u
F lan
F ert
H än
I sol
J ames
K en
K ein
K all
K lagen
K lassen
K abinet
K ampagnen
K ette
K ammer
L an
L iz
M i
M s
M alt
M aterie
N ich
O ld
O ft
P fund
P länen
P KK
R ight
S ow
S ix
S hu
S án
T al
V end
Z in
Z igare
b rachten
c igare
d icht
d up
d well
d ossiers
e ating
e chter
f urn
f lank
g al
g au
h est
k red
l or
l ou
l ungen
m än
n av
n öten
n iveaus
p ern
p ill
p hoto
r ank
r üstung
s ighted
s abotage
t aten
t igkeit
t ied
u ität
v ort
v able
v ierten
w he
w üß
y al
ä thiop
ö pfen
ü ger
er gehen
er hebt
in effective
in coherence
ch amp
on a
on sor
an geschlossen
an bieten
an ca
an schau
is er
is ible
un te
ie de
the me
the ma
or a
or ums
re launch
re affirm
ich wort
st ree
ent ieren
ent sorgung
ent fernen
le m
be ein
be will
be geben
be läuft
ge denken
ge fangen
ein zunehmen
ein heim
ein mischen
de tra
om s
om et
den s
den omin
se uchen
am mon
we hr
zu stimme
for st
for give
ver such
ver schließen
ver setzt
ver breiten
ver doppel
ol der
ab st
ab ide
rop h
em a
em e
em erg
ra wi
no is
no where
ber au
he ikel
ne y
ne pot
um geben
ir ó
ir anischen
auf geben
auf trag
ha ß
tr inken
Ver d
Ver z
Ver ona
ul ieren
Un sicher
In sol
In anspruchnahme
af el
dem selben
Re gen
Re aktions
vor y
vor weg
vor dringlich
sp onsor
Par adig
end igung
ste ten
co ws
Be wahrung
Be endigung
ma instream
über wältigen
über mäßigen
über mäßige
ag ent
ag ten
ag grav
An lauf
ah nen
uns inn
uns atis
00 15
ib an
wor ded
St art
lo ß
par ame
ik alien
je glichen
Pro stitution
Aus stellung
Aus gangs
Aus wirkung
Mit bürgern
el ess
Sch irm
Sch ori
enn ungs
Er ör
Er wartung
Europä ischer
wo von
war ded
able hnt
fü hle
ord entlichen
Vor hand
Vor komm
Vor wurf
pr icing
bes prochen
bes uchen
bes iedelten
inter cept
Ab stand
Ab weich
unter min
unter zogen
unter richten
Fr anzös
coun ting
sta un
sta ates
nach drück
nach gie
fr anc
ass umed
Ge bot
Ge iste
Präsident schafts
dis cover
ill on
tre ating
national ities
work place
work ings
che z
wur zel
ear ned
kon zip
hand ful
gel dern
geb ührt
ub schr
gesch ätz
Kon solidierung
utz er
Zus icher
weiter ung
pla cement
over riding
over haul
prov ince
So viet
bo tt
land es
sub mission
Inter nationale
produ ziert
gu iding
deut lichen
read ily
äm mung
Über setzung
stru ction
rat ory
zeit lich
zeit weil
Entwicklung spartner
Con go
qual ifications
Te am
stimm te
Parlaments abgeordne
bin det
ster weiterung
besch affen
pa edoph
Rechts ausschusses
Besch werde
Al p
adop ts
serv ants
Bürger krieg
public ity
ri vers
Umwelt verschmutzung
recht mäßige
real ities
real isiert
employ ability
Me as
Politik bereichen
pl ing
pl ight
beg ann
Mar shall
voll komm
voll zieh
Nach richt
Nach teile
Her stellern
Finanz ielle
Sicher lich
stim ulating
posit ives
Fl ut
fair er
auth ors
di ere
trans missible
Recht st
reform ieren
öff net
ship ping
10 1
10 7
ika inen
fahr ts
Am ong
Mad ame
wert vollen
jen em
Li by
agen das
ban on
kur se
zurück halten
Sozial ausschuß
cor pus
commit ology
arante e
einzel staatlicher
back wards
enth ielt
down ward
druck s
clo sure
post ing
Ch iqu
sm uggling
000 8
schein bar
Dar legungen
let ting
Gemeinschafts institutionen
force fully
hau se
Qu orums
crimin als
global ised
prec ision
grat itude
Liberal ismus
Programm planungs
trau r
EC SC
communic ate
priv ileg
Standpunkt es
Wor k
sur ve
UN IT
gerade zu
versch m
versch lossen
period ic
hinaus geht
hinaus laufen
Fol ter
answer ing
beim ißt
special ist
kr aten
ator ies
challen ged
Ur laub
Emp örung
Beitrag s
Govern ments
head way
dist ant
frei willigen
enthalten e
wahr zunehmen
auszu bauen
subsid ised
Gegen wart
Dam als
vol at
tag on
dring licher
Antrag steller
NA T
Miß management
Miß stände
verantwort liche
Bas istunnel
würd iger
Volks vertreter
Post äm
Selbst verständ
elect orate
final ised
wesentlich es
prakt ik
nü tzt
humanit ärer
irgend wie
safe ly
inciner ated
Daten schutz
Schwier igkeit
Tour isten
Völker rechts
Asyl suchen
Nahrungsmittel sicherheit
eil en
hinzu gefügt
Kompromiß antrag
Untersuch ungsausschuß
Minderheiten sprachen
entschieden e
Christ mas
return s
Friedens prozesses
col our
stud ents
perfe kt
Nun mehr
jur istische
Eind ämmung
gründ liche
garant ien
garant ierte
Bö hm
mag istr
Wert papier
orient ed
cross ing
emer gence
afr anca
Ku wait
bill ig
bill ige
useful ness
Schl achtung
berecht igung
verme idung
Versch mutz
Ad ministr
Alle in
Entscheidungs strukturen
reject s
Geb hardt
Aud it
heart felt
Konflikt lösung
Straf gerichtshof
ökonom ischer
apprec iated
vorschlä gen
verbind ungen
supplement ed
jüng ster
ernst es
Kontin uität
höch ster
relationship s
Meth od
announ ce
Ethiop ian
Po os
ausreichen den
Mor illon
deliver ing
interpret ations
konstru ktiv
sorg ungs
unzu reichende
begrün dete
Hä user
aktiv itäten
wind ow
Mitglieds staaten
dram atische
Mir anda
embar ked
genere lle
confirm ation
highlight ing
reib ungen
advoc ating
decis ively
Mindest maß
adapt ing
elimin ated
jem als
ehrgeiz iges
zer nen
dynam isch
Brenn stoffe
mach te
relig iösen
Kre uz
nachzu weisen
Ebenso wenig
Weiter führung
simpl ification
Aktionsplan s
envis ages
breite te
tariff s
compla in
adjust ed
geboten en
Fünf tens
Vorbe halt
wealth y
oppos ing
006 9
horizontal e
horizontal en
pat ients
Dublin er
Effe kt
verwe igern
Mot iv
zweifel sohne
confir ms
conven ing
Lie fer
auton omen
evalu ations
010 5
Du isenberg
entstanden en
Vorsitz es
197 9
kil omet
consc ient
gebill igten
pleas ant
angestre bte
Handlungs fähigkeit
wässer ung
Plenar tagung
Vizepräsident en
Eigent um
Fas ern
Gu arantee
Wähl ern
Schwä chsten
breach es
extrem ism
Unternehmer geist
punish ment
prohib ition
zusammenzu fassen
protocol s
strik es
kommer zielle
kolle ktive
beeinf lußt
schul den
Subsidiaritätsprinzip s
Detail s
fäl sch
biometr ischen
dokument e
incident ally
ambigu ity
slaughter ed
Armen ia
Rap porteur
Erfordern is
beschleun igt
Ratsvor sitzen
niederländ ische
pan el
Anwesen den
voranzu kommen
vigil ance
shop ping
Pass agen
flu cht
book s
Deriv aten
marginal ised
Air bus
Geschle chter
Antibiot ikares
Eingreif möglichkeit
Eingreif truppe
fremdenfeind lichen
Freihandels zone
Que iró
Spr ung
Spr ichwort
weakness es
Inspe ktionen
justit ielle
Investment fonds
corre cted
psych ological
perpetr ators
epidem i
Posit ives
hum ans
konz erne
konsequ ente
entrepreneur ial
UC LAF
tank s
bedenk lich
Anpass ungs
beschrieben en
Sal afranca
Val ent
verbleiben den
Indones ien
embra ce
Rechen schaftspflicht
plain ly
Kred it
gesprä che
Deleg ationen
hochrang igen
deploy ed
Sah rawi
Konz erne
redistrib ution
europa weit
vernachläss igt
prud ential
Polize ik
Initiativ recht
tiefgreifen de
Spre cher
mem ory
erled igt
recit als
Mehrheits entscheidungen
Dienstleistungsaus weis
diss atis
befre it
Zusch üsse
holi day
administrat iven
hochwert igen
Kh mer
Pir ker
verze ihen
hect ares
berühm ten
unum gän
zuwider laufen
Armuts bekämpfung
Aktual isierung
Palästinens er
cat ches
Universit ät
Steuers ystem
benachbar ten
Dür re
Fasch ismus
diox ins
Verhaft ung
Rechtfert igung
cornerst one
Chem ikalien
Medikament e
Instrumentar ium
wissensbas ierten
Pfeil ers
Sorg falt
fabr ic
alleg ations
Verpack ung
Beeinträcht igung
Zugehör igkeit
Opport unities
ekl at
jü dischen
confron ted
indigen ous
gerau mer
Departe ments
Erfahrungs austausch
Bench marking
Hür den
Mat ikainen
Grupp ierungen
Äng ste
discre tion
Leb hafter
Boy ne
Größen ordnung
Verehr te
Balt ic
Wyn n
scour ge
asym metr
vorant reiben
caut ious
Marko v
ausgeweit et
Elef anten
Hu hne
mig ratory
uran ium
Antip ersonen
Cun ha
Dere g
Dage gen
Hän sch
Kall ström
Lan cker
Shu i
Sán chez
Vend ée
Zigare tten
stree ts
verdoppel n
nepot ism
Insol venz
unsatis factory
Vorhand ens
ubschr auber
Chiqu ita
UNIT A
kilomet res
Antibiotikares istenz
0 19
? "
A ga
B ü
C R
C l
C r
C ol
C ultural
D G
D imens
D orf
E qu
H ist
H ug
H ubschrauber
J orge
K äm
L ach
L aut
M uß
M ass
N ah
O bst
O SC
O sterweiterung
P R
P akt
Q uellen
R end
R od
R ang
R over
S achen
S later
T ask
T orf
V I
Z E
Z ins
a ktion
b iod
b ought
c in
c um
d ritt
f lich
f iled
h ed
h nisse
i ke
i versity
j agd
k reat
k anz
k ategor
l är
l ings
m os
o ted
p ig
p ause
r an
r ation
s lic
s ouverän
s witch
t ight
t ong
t ighter
u ous
v ation
v ens
w inn
­ ,
º C
Á l
ö sen
ü se
ü tzt
er al
er langt
er mittelt
in ity
in land
in ability
ch se
th alt
on ik
on tage
un ification
un sicherheit
un vereinbar
un reasonable
un justified
un expected
at trib
it ative
or ig
or ies
re build
re generation
re lax
re deployment
st il
st ers
ar s
ar me
ar ität
ent wickl
le ak
be aut
be fragt
be denkt
be wahrt
as ie
ge lang
ge deckt
ge weckt
ein zum
ein wand
ein richten
ein zugreifen
de ple
de uten
de uropa
ur ally
se eds
am ts
sch iz
sch änd
sch riften
im ages
zu gehört
zu hören
zu erkannt
zu schuß
zu meist
ic ted
icht linie
ver größ
ver einfach
ver helfen
ver läuft
ver antworten
ver tagen
ab stra
ab fällen
ab decken
em igr
ra fen
da chts
ct u
ne tzen
ne tzung
isch t
con vers
pro tein
us ern
ier n
auf werfen
auf tauch
tr ium
pe line
des ert
des selben
Ver ze
Ver nun
Ver dachts
Ver netzung
if ically
op pression
aus en
aus setzen
aus fallen
aus laufen
ind u
li ge
Re is
Re ttung
vor stellungen
vor gebrachten
ck te
sp ur
end ums
co dif
än gst
über mittel
qu er
qu asi
sh od
We is
ag greg
hal ben
An hebung
An sprüche
An bieter
ze pts
00 47
ann um
has en
St ar
hat red
ik s
En zep
Pro cess
llen ce
sind ustrie
out rage
po ison
Aus gestaltung
up held
up dating
el en
el and
Sch eitern
Wir ken
Er freu
Er staun
form ale
fer ent
pr udence
bes itzer
bes prechen
inter rup
inter institutionelle
Ab hilfe
Ber u
her self
unter sagt
vo iced
ug gel
inc ed
nach gekommen
sel ts
ass uring
ass isted
Ge halt
dis integration
dis proportionate
ill es
national es
od izes
ör ter
work er
iz en
hand ic
hand werk
ok k
teil haben
cau ght
Comm ittees
iert es
cr um
dr ink
ließ e
some body
Kon go
Kon greß
ange legen
ange gangen
ange zeigt
ange fangen
ange inrichtungen
Unter punkt
De ckung
ner gie
develop s
present ly
eben e
Inter esses
produ kt
produ kts
att form
bas ieren
them atic
Zusammen fassung
Über zeug
alt ar
mon iak
besonder em
har bour
wel coming
vern ichtet
zeit liche
ient en
Zu frieden
art ig
Con s
hn ten
kl imat
Te ufel
Se kret
fest gesetzt
bin ation
besch uld
ine z
komm entieren
Kommissar s
dan kt
princip ally
zwe cken
Ho heits
public ation
unserer seits
plan e
Umwelt ausschusses
recht sex
real isation
legal en
legal ity
pl ent
Dem ontage
Or ten
bre ton
may ors
budget ing
transp osed
Gen en
Ges chen
Finanz ausstattung
contin ents
stat istische
Des gleichen
meiner seits
imp unity
Recht mäßigkeit
Arbeits welt
Teil nehmer
notwend igerweise
prom iß
Stand ard
handl ungs
Br ik
Br ücken
sign als
gere icht
Am tes
Am nest
Am moniak
Wer bung
zü chter
Welt wirtschaft
Welt gesundheits
aussch lag
aussch üsse
Sozial versicherung
risk y
favour s
favour ably
institution eller
help s
verständ igen
Verfahren sweise
clo ck
zusammen hängt
Produ ktiv
spolitik en
technolog ischer
direct or
Reform ierung
Kom p
Kom bination
democr at
understand s
individ ually
individ uelle
einzu reichen
einzu schränken
ersten mal
merk würdig
Hau tal
Wh atever
Wirtschafts raum
Erweiter ungsprozeß
benef ited
inform ing
deutlich es
Med ia
bil anz
dest ination
Entwicklungs fonds
anzu schließen
hinaus läuft
schwer lich
fl our
fl ücht
aufge wendet
vic inity
Rück tritt
Tür en
eth yl
eth ics
.. ..
exce llence
Geld geber
ator ischen
cl as
iner y
erklär ten
Verpflicht ungs
schre ibt
pass ive
pass age
congratul ated
poll uters
restr i
viol ate
tour ists
schnell stens
betra f
verb ände
keep s
Fischere if
kom promiß
stra f
fünf ten
Leit er
mb lies
expect ation
Gegen den
Gegen zug
vol unte
Als thom
leit linien
circ les
Menschenrechts lage
Thank s
Inform atik
Pe ace
Tag ungen
zusätz liches
Vertrags änderungen
gesetz lich
verein heit
rep atri
Schwe lle
research ers
dat ab
ente ilung
ktr um
discrimin ated
Fern melde
live lihood
provision al
sinn ig
doubt ful
legitim ately
Völker recht
einheit licher
miß brauchen
äl ter
hinter lassen
fisher y
method ology
Sicherheits rats
heraus greifen
bro ther
Zusatz frage
Balkan region
interpre ting
Komm ent
gän gig
zö gern
normal e
immen sen
illegal er
arch ite
capac ities
ffe kt
elektron ischer
Kommissionsmitglie ds
Wes te
condemn s
Einsatz es
summit s
Kern waffen
Kern stück
remember ed
bill iger
Einzel fall
ierter e
wrong ly
Kl asse
militär ischer
Versch wendung
Versch winden
hor se
ior i
Entscheidungs prozessen
Konflikt verhütung
ökolog ischer
sele ct
ES F
ergriffen en
schn itte
observ atory
penal ise
industrial ised
Tro jan
harm less
Lärm schutz
class ified
fla grant
typ ical
Po int
ausreichen der
Neu auf
Lo thr
Zentral banken
weak est
unzu länglich
ignor ance
zugrunde liegenden
dram atisch
schwerwiegen der
Bro t
sprü chen
Tun nel
certaint ies
bedau ert
unternommen en
Gesam tre
Krisen management
Fün ften
präz isieren
Hung ary
Ern te
Trans aktionen
Agreement s
Sy nergie
dict ators
coast line
Modell s
Mart inez
mach bar
mach ine
mach inery
angehör igen
dete cted
Ents orgungs
attach es
tie fen
beunru higend
prem ise
prem ium
erweiter te
belong ing
herrschen de
See verkehr
Streit kräfte
pi dem
006 8
letzter e
Aktions programms
glück lich
präsent ieren
angekünd igten
depart ure
potent iell
trib unal
freund lich
Hoch rang
nut s
lif ting
Bedarf s
Pens ions
roo ted
advis able
irregular ity
rechtfert igt
erneu ern
beantra ge
wettbewerbs fähige
split terung
warn ed
qualit ativen
197 7
strafrecht liche
terror ist
tä gliche
Sk la
greif end
stät igkeiten
Uni vers
Abstimmungs stunde
Militär s
trop ischen
loc ally
Einheit lichkeit
Verbraucherschutz es
1990 s
verschle chtern
fäll ige
honest y
gebühren de
theoret ical
plä tze
plä diere
complement ary
kolle ktiven
rul ings
Kriegs verbrecher
Verhaltens weisen
reve als
cance l
Armen ien
Verfasser in
liter ally
distin ct
voranzu treiben
Orient ierungen
Tenden zen
durchschnitt lich
lobby ing
scen es
Emissions grenzwerte
israel ische
Pat ents
Refer endums
redund ant
inqu iries
stem s
teach ers
aufgeworfen en
Urheber recht
Cha os
Oper ation
geplan te
einseit ige
beruf lichen
krank heit
Naz i
ivers ary
ermut igen
ermut igt
faß te
bestre bt
Mißverständ nisse
infringe ments
befug t
übergreifen de
Verantwortungs bewußtsein
detriment al
Fif th
Fif teen
Hunder te
fur cht
Conserv atives
repräsent iert
shock ing
shock ed
risik o
president ial
Kan äle
Sens ibil
nomin al
devast ated
wechsel n
IM F
Opt im
bedür ftig
secur ing
scha det
konsult ieren
decreas e
geschäd igten
klass ischen
befried igend
Rechen schaft
lobens wert
earth qu
Persön lichkeiten
Siedl ungen
Meld ung
Demonstr ation
Reser ve
Könn te
liefer ungen
Franz osen
council s
vorbeugen de
Säuber ungen
ausdrück liche
Stil legung
medizin ische
reluct ant
reluct ance
freiwill ig
katastrophal en
Zentr um
überwie gen
Franc is
Europaabgeordne ten
kinder pornograph
Son n
hie ß
Behinder ten
disgrace ful
Jahrt ausend
negle ct
vill age
Eingrif f
Dest abil
Dial yse
recon cil
Verun rein
affor ded
ausgesch öpft
distress ing
Flexibil itäts
verla gert
Bet ween
freige lassen
smoo th
spongi form
mort ality
verwen deten
cell ulose
Alten er
Rücküber weisung
defiz it
Saat gut
incur red
lächer lich
attent ive
Impf stoff
Gesche hnisse
verschmutz ungen
Hundertt ausende
iein halb
Unklar heiten
kontra produktiv
gescheit ert
zweier lei
Zugeständ nisse
inj ured
thes is
resid ues
begrif fen
Neuer ungen
collap se
Gesamthaus halts
sau bere
wö ch
Ungar n
portfol io
preserv ation
suppl iers
Brü der
Fluggä ste
ecolog ically
Aff äre
Kil ome
OS ZE
Pier re
depriv ation
Registr ierung
häl ter
Kompl iment
berichterst atter
Angeklag ten
Amo co
Flan dern
Sow je
wüß te
ammon ia
emerg ing
Unsicher heiten
Selbstverständ lichkeit
Method ik
Aga inst
Dimens ionen
OSC E
biod iversity
onik i
einzum ischen
vergröß ern
trium ph
Vernun ft
Enzep halopath
Weltgesundheits organisation
Fernmelde verkehrs
Lothr ingen
1 12
1 30
7 6
7 8
8 85
A v
A par
A viation
B le
B ir
C hal
C ister
C arr
C athol
D ak
D ritte
D aul
E M
E pidem
F ur
F ac
F iori
G ulf
H ague
H ambur
I E
I ber
K L
K eine
K LA
L ü
L esen
M ischung
M uster
N ap
N ob
O ffic
O steuropas
O IE
R ö
R und
R em
R io
R ücksicht
R hetor
R ühle
S ou
S ob
S og
S av
S öder
S atell
U p
V ill
W at
W al
W ight
Z ut
a x
a er
a iled
c ay
c acc
c atalog
d imin
d lung
d auert
e i
e hren
f ungen
f ile
f icial
f lying
f assungen
g y
g alt
g aller
g yp
g üter
h är
h anf
j ac
k al
k au
k ub
k lagen
l ent
l ers
m n
n om
n am
n ice
n irgendwo
o x
r s
r ub
s n
s and
s ahen
t ue
t tember
u pro
w alten
y la
z ent
z il
z yn
Ä m
Ü br
à s
ö glich
en lighten
er o
er laub
er leiden
er munter
in vo
in ations
in nung
in adequ
in admissible
in aug
th ar
on ia
on wards
es ter
an ches
an laufen
an strebt
is o
un ately
un ified
un aware
un nötige
it ären
or bit
al itions
al oniki
re fra
re acted
st amp
ar o
ar an
ar ity
ar ien
ar tet
ro i
ro ut
ent setz
ent zogen
ent sorgen
ent schließung
be legen
be gehen
be ugen
be wegung
be kannte
be lasten
as che
as certain
to vers
ge lin
ge freut
ein nahmen
ein heiten
ein fordern
ein schließen
and em
om öglich
wi g
ur ges
ur ging
se at
we m
sch ür
sch merz
im ed
zu sehen
ve t
for ty
for wards
for cement
ou f
ver un
ver al
ver mo
ver einf
ver faßt
ver arbeitet
ver frü
ver sichere
ver ehrter
ver lagern
ol es
ab und
ab gere
ab gebaut
ab weichen
ra re
gen ossen
il legally
ct ious
ne ts
wir t
con gest
pro secut
pro tests
um zugehen
ir k
ir relevant
ir rational
id al
res ume
auf wend
auf gabe
auf zeigen
von nöten
tr al
tr ig
tr än
tr ick
tr ends
ment ions
pe ak
all ay
Ver ur
Ver suche
Ver zicht
if ikations
ges top
ges unken
op pon
ul ierungen
Un bedenk
mit tragen
mit wirken
mit gewirkt
la f
In halte
af ia
af fung
aus zur
aus führen
aus arbeiten
aus bauen
aus gerichteten
ta wa
Re isen
Re flex
vor bei
vor kommen
vor kommt
vor wärts
ex ile
sp a
sp ill
lie derung
Par adox
end anger
ident ities
co tt
ess aloniki
Be hinderung
Be wegungen
Be geister
ben annt
port ion
sh ut
nen ne
We lle
We isen
We igerung
fe ll
ag her
ungs system
hal be
An trägen
An meld
An bauf
Th om
Th ors
Th essaloniki
00 40
igen der
com for
com fort
ann ä
ann ten
ann iversary
do ctr
ern ster
St ufen
par alle
Pro fil
Pro cacc
out dated
Aus gabe
Aus länder
reg ung
up s
man kind
leg ungs
Er krank
dar k
dar gelegten
ac ies
Vor zug
Vor beding
Vor mittag
Vor züge
br and
br icht
inter view
Ab gabe
Ab wesen
her ic
her ds
unter breiteten
Ent stehen
part ment
part ite
Fr an
lin dern
lin king
Fra geb
ult ane
nach vollzieh
fr is
ass ert
Ge fällig
Ge trän
spe zial
ander ern
pre k
pre condition
Au roi
ill usion
tre es
lan ce
per secuted
wä hren
who ever
kon serv
mar t
mar okk
ank ünd
teil ungs
reich sten
need ing
under min
sol ven
cr yst
ak uum
fre ight
dam ages
dec ides
gesch wind
Kon stru
Kon sum
mehr jährige
ange griffen
Unter scheid
führ er
cy k
over due
ins ult
For ce
Kol onial
bo den
Ko dex
Ko alition
Ko alitions
änder ung
los er
produ z
stell vertreten
cur ious
deut sch
iden ced
clear ance
geben de
tell s
gleich zeit
best rafen
alt es
Bere chnungen
har vest
As syr
olog ische
point less
Land minen
Zu w
last ed
kl us
mittel ständ
add itions
pen den
Mittel zu
Min istr
Str enge
fest gelegte
besch loß
pa cken
plement arität
Rechts systeme
Rechts unsicherheit
meas uring
Besch reibung
cit ed
Rahmen beschlusses
Umwelt verträ
recht mäßigen
Le yla
tern wirtschaft
Me ilen
Politik ern
legal e
pl ating
main land
ful filling
Nach mittag
car bon
Her de
Finanz markt
Finanz hilfen
Finanz verwaltung
Finanz märkten
offen ders
ausge de
ausge grenz
Fl anders
Verein igungen
di kt
trans late
Ne ues
Mö chte
hö hlt
gew alts
20 50
Arbeits verhältnisse
strateg ischer
sc or
sc ene
reform iert
Schutz gebiet
Tr end
Regel ungs
different iated
Br u
Br uch
Br ücke
Br anchen
käm pf
consum ing
unterstütz ten
10 3
10 8
Pr im
pend ently
spr ung
spr ingen
Welt ordnung
zurück ziehen
On line
kün ften
Sozial partner
Sozial istische
Sozial versicherungs
amb ient
zieh ungs
Bed auer
Fe ucht
finanz ierte
after wards
inde pendently
einzel ner
einzel staatliche
back ward
Mill er
vis ibility
vis itors
cal m
approach ed
19 57
verständ liche
för m
zweit es
Is le
carr ies
Organ isations
Zust ands
Stra ff
itor ial
Durch schnitt
Struktur reformen
wach s
instrument al
geschlossen e
Mehr jahres
Kom plementarität
bed ienste
achieve ments
Markt organisation
fehl te
EC U
sei ther
Tagesordnung spunkt
Wh isky
Wirtschafts sektor
Fort unately
lauf end
Binnen grenzen
prä ferenz
abhäng igen
rele asing
sim ultane
Regierungskonferenz en
bereich s
exp lizit
dort igen
rece ives
success es
tem pt
subst itute
Rück schritt
Pol izisten
zunehmen dem
beim essen
cover age
ev asion
ev idenced
milit ar
vier zig
andid at
Geld fälschung
Entscheidung sträger
ator ische
umfassen des
cl ash
General versammlung
Gesetz en
fün fte
Ur teile
origin ating
wider setzen
particip ants
constru cted
Fest igung
Fest stellungen
non sense
aud iovis
verb racht
wahr lich
auszu statten
kom pens
Berichts entwurf
fünf zig
Bel grad
Verfü tter
atis ierungen
harmon ious
hes itation
Lin derung
Agrar preise
Ju an
arr ival
clar ifying
uner trä
uner läß
stu fe
stu fen
fort geführt
läu fe
Bas ically
buch st
Energie ein
share holders
18 0
sex es
würd igt
Volks republik
demonstr ieren
Handel spolitik
Post diensten
lement e
aff ungs
indic ations
Selbst bestimm
blo cks
San ktion
zentral es
zentral isierten
Schul ung
Natur schutz
tru ktur
unabhäng iges
assess ments
bank ing
gewä ssern
erne ute
irgend einen
irgend einem
sk ies
abge halten
abge ändert
Wel ches
bedeuten der
Os lo
fil es
specif ies
Landwir t
dienst es
Gar za
expla ins
bl att
Schokolade erzeugnisse
super ficial
wiederhol ten
Fehl verhalten
größer es
schle p
Beschäftigungs fähigkeit
Beschäftigungs strategie
asse m
gewicht ung
03 41
comment ing
Do yle
bezogen e
author itative
conv ictions
gering fü
aut or
extens ively
Stat ute
Verkehrs minister
nä ck
gesundheit lichen
profit ability
wissenschaft licher
Tier me
betre ibt
rahmen s
DA PH
broad cast
Wes ten
exerc ising
benöt igten
sitz ungen
chem ische
moral ity
198 5
Kern aufgaben
unge hindert
Kur ds
Ze uge
quant ified
bill ions
zufrieden heit
Aktionsp länen
Einzel plan
ersch ien
verw alten
verw altungen
Kar ib
Schl üsse
berecht igter
Verwaltungs vorschriften
voraus sichtlich
Mos cow
Verbr ennungs
Argument ation
Folge maßnahmen
wonder ing
SP A
spezif ischer
Straf gesetz
herz lichen
element aren
modif ication
Beamten statut
Verhältnis mäßigkeit
Ap par
außerord entliche
factor ies
attack ing
passen ger
angeb aut
hoff nungs
veran schau
sprach lichen
block ing
Mor gen
entit lement
Zentral isierung
Rea ktoren
Wissenschaft lichen
Wissenschaft lern
ignor es
pas sport
Can ad
vit ally
federal ism
Roman ian
Schre cken
Mensch lichkeit
She a
She ik
vig our
sole mn
Kontroll mechanismen
conduct ing
cou ples
speziell es
Redner in
Rind fle
frag te
deleg ate
simpl ifying
gek oppelt
occup ying
Nachbar staaten
Griechen lands
prem ises
verfolg ten
erlau be
schreck lich
Fünf tel
Fünf zehn
ira z
pi peline
occasion ally
Director ates
unbe fried
verwe chselt
illustr ation
sach lich
issu ing
Zustand e
schw achen
proto koll
tempor arily
Geber n
voran schreitet
010 4
010 6
010 7
anc ient
städ te
förder lich
förder fähigen
Gerichts barkeit
Palest ine
büro s
bele id
fas er
[...]
