{"<unk>":0,"<pad>":1,"<s>":2,"</s>":3,"!":4,"\"":5,"$":6,"%":7,"&":8,"'":9,"(":10,")":11,"+":12,",":13,"-":14,".":15,"/":16,"0":17,"1":18,"2":19,"3":20,"4":21,"5":22,"6":23,"7":24,"8":25,"9":26,":":27,";":28,"?":29,"A":30,"B":31,"C":32,"D":33,"E":34,"F":35,"G":36,"H":37,"I":38,"J":39,"K":40,"L":41,"M":42,"N":43,"O":44,"P":45,"Q":46,"R":47,"S":48,"T":49,"U":50,"V":51,"W":52,"X":53,"Y":54,"Z":55,"[":56,"]":57,"a":58,"b":59,"c":60,"d":61,"e":62,"f":63,"g":64,"h":65,"i":66,"j":67,"k":68,"l":69,"m":70,"n":71,"o":72,"p":73,"q":74,"r":75,"s":76,"t":77,"u":78,"v":79,"w":80,"x":81,"y":82,"z":83,"£":84,"­":85,"µ":86,"·":87,"¸":88,"º":89,"½":90,"¾":91,"Á":92,"Ä":93,"Å":94,"É":95,"Ö":96,"Ø":97,"Ü":98,"ß":99,"à":100,"á":101,"â":102,"ã":103,"ä":104,"å":105,"æ":106,"ç":107,"è":108,"é":109,"ê":110,"ë":111,"í":112,"î":113,"ï":114,"ñ":115,"ò":116,"ó":117,"ô":118,"ö":119,"ø":120,"ú":121,"û":122,"ü":123,"en":124,"er":125,"in":126,"ch":127,"th":128,"on":129,"es":130,"an":131,"is":132,"un":133,"at":134,"it":135,"ie":136,"the":137,"or":138,"al":139,"re":140,"ich":141,"ion":142,"der":143,"st":144,"ar":145,"ro":146,"ent":147,"le":148,"be":149,"as":150,"to":151,"ge":152,"of":153,"ung":154,"ein":155,"te":156,"die":157,"and":158,"au":159,"de":160,"om":161,"wi":162,"den":163,"und":164,"ur":165,"ing":166,"ig":167,"se":168,"am":169,"ll":170,"we":171,"sch":172,"im":173,"zu":174,"ve":175,"for":176,"ic":177,"ou":178,"icht":179,"ver":180,"ies":181,"ol":182,"omm":183,"ed":184,"ten":185,"ter":186,"ab":187,"ation":188,"rop":189,"em":190,"ra":191,"gen":192,"lich":193,"da":194,"no":195,"ber":196,"so":197,"il":198,"he":199,"that":200,"ct":201,"hr":202,"ly":203,"wh":204,"ür":205,"ne":206,"isch":207,"wir":208,"ut":209,"urop":210,"iss":211,"ist":212,"ke":213,"con":214,"pro":215,"um":216,"ere":217,"ir":218,"Europ":219,"id":220,"res":221,"us":222,"dies":223,"ier":224,"are":225,"auf":226,"ommiss":227,"ha":228,"für":229,"daß":230,"ce":231,"this":232,"ts":233,"von":234,"ld":235,"tr":236,"ment":237,"wer":238,"ommission":239,"pe":240,"des":241,"all":242,"ach":243,"ort":244,"me":245,"eine":246,"Ver":247,"if":248,"ges":249,"op":250,"ul":251,"not":252,"Un":253,"nicht":254,"men":255,"kt":256,"mit":257,"la":258,"which":259,"In":260,"das":261,"af":262,"ischen":263,"ould":264,"tz":265,"dem":266,"aus":267,"our":268,"ta":269,"with":270,"su":271,"ind":272,"gr":273,"sen":274,"est":275,"ive":276,"ate":277,"os":278,"have":279,"Europe":280,"ungen":281,"li":282,"Re":283,"ust":284,"vor":285,"ex":286,"ck":287,"sp":288,"auch":289,"ament":290,"lie":291,"Par":292,"end":293,"ident":294,"ad":295,"werden":296,"ste":297,"ial":298,"co":299,"ess":300,"Be":301,"än":302,"ben":303,"ma":304,"über":305,"ant":306,"port":307,"ity":308,"qu":309,"sh":310,"will":311,"sich":312,"nen":313,"We":314,"iv":315,"fe":316,"The":317,"ag":318,"ungs":319,"fa":320,"hal":321,"An":322,"ah":323,"ze":324,"uns":325,"Th":326,"by":327,"Commission":328,"ht":329,"00":330,"err":331,"European":332,"Union":333,"schaf":334,"igen":335,"wie":336,"uß":337,"ib":338,"com":339,"ann":340,"do":341,"Mr":342,"pol":343,"ions":344,"has":345,"ern":346,"hen":347,"its":348,"wor":349,"ther":350,"als":351,"St":352,"lo":353,"ap":354,"Herr":355,"par":356,"hat":357,"Kommission":358,"aben":359,"einer":360,"ien":361,"fen":362,"ik":363,"ft":364,"je":365,"was":366,"rä":367,"En":368,"iel":369,"wird":370,"Pro":371,"Ich":372,"llen":373,"sind":374,"out":375,"po":376,"chte":377,"Die":378,"Aus":379,"str":380,"Mit":381,"reg":382,"mö":383,"up":384,"ted":385,"haben":386,"el":387,"man":388,"bei":389,"ay":390,"leg":391,"Sch":392,"would":393,"also":394,"Wir":395,"ische":396,"et":397,"enn":398,"Er":399,"zur":400,"Europä":401,"keit":402,"wo":403,"ese":404,"dar":405,"ger":406,"schaft":407,"ise":408,"war":409,"imm":410,"form":411,"there":412,"gan":413,"able":414,"fü":415,"fer":416,"99":417,"ord":418,"ac":419,"one":420,"go":421,"lichen":422,"einen":423,"ob":424,"tra":425,"Vor":426,"heit":427,"pr":428,"bes":429,"cht":430,"br":431,"fin":432,"Ar":433,"sie":434,"inter":435,"dern":436,"Ab":437,"should":438,"Ber":439,"can":440,"her":441,"Pres":442,"ue":443,"lt":444,"hren":445,"ates":446,"ure":447,"unter":448,"räs":449,"ow":450,"weit":451,"mor":452,"vo":453,"ers":454,"lament":455,"prop":456,"polit":457,"aten":458,"ug":459,"Ent":460,"ember":461,"mo":462,"comm":463,"inc":464,"ip":465,"must":466,"ens":467,"räsident":468,"ble":469,"ations":470,"rom":471,"ige":472,"Parlament":473,"sam":474,"beit":475,"liament":476,"är":477,"part":478,"ön":479,"President":480,"cial":481,"urch":482,"Fr":483,"coun":484,"from":485,"ire":486,"ational":487,"lin":488,"ical":489,"but":490,"üs":491,"rit":492,"diese":493,"du":494,"ken":495,"sta":496,"pres":497,"Fra":498,"ult":499,"ommen":500,"ction":501,"pos":502,"nach":503,"chen":504,"igh":505,"sel":506,"very":507,"been":508,"Parliament":509,"Bericht":510,"ition":511,"Ein":512,"fr":513,"ous":514,"ass":515,"It":516,"Ge":517,"Präsident":518,"alle":519,"spe":520,"you":521,"Sie":522,"kann":523,"vel":524,"ander":525,"pre":526,"dis":527,"kön":528,"hin":529,"Au":530,"dieser":531,"ple":532,"ill":533,"durch":534,"age":535,"tre":536,"Gr":537,"ution":538,"national":539,"lan":540,"Member":541,"eit":542,"üssen":543,"ary":544,"EU":545,"now":546,"möchte":547,"liche":548,"od":549,"more":550,"Europäischen":551,"ör":552,"ard":553,"tro":554,"noch":555,"ät":556,"ute":557,"ff":558,"oun":559,"müssen":560,"countr":561,"gro":562,"per":563,"ide":564,"work":565,"other":566,"ih":567,"cil":568,"gem":569,"ün":570,"glie":571,"lic":572,"199":573,"iz":574,"like":575,"ieren":576,"muß":577,"Reg":578,"wä":579,"pt":580,"cess":581,"sed":582,"ctive":583,"tel":584,"che":585,"ish":586,"fore":587,"ans":588,"nah":589,"ierung":590,"soll":591,"This":592,"wur":593,"zum":594,"who":595,"conc":596,"ance":597,"ight":598,"Das":599,"200":600,"these":601,"erst":602,"ear":603,"kon":604,"nur":605,"ally":606,"report":607,"Mitglie":608,"cons":609,"gram":610,"mar":611,"ud":612,"ho":613,"hand":614,"ome":615,"legen":616,"yst":617,"ank":618,"schen":619,"ments":620,"ok":621,"tim":622,"lä":623,"inst":624,"og":625,"diesem":626,"Es":627,"ystem":628,"einem":629,"Coun":630,"glich":631,"ser":632,"gegen":633,"reat":634,"hl":635,"sicht":636,"teil":637,"cau":638,"können":639,"Council":640,"tzt":641,"blem":642,"ef":643,"wenn":644,"ktion":645,"oder":646,"sib":647,"ück":648,"Comm":649,"reich":650,"need":651,"ative":652,"polic":653,"under":654,"aber":655,"igkeit":656,"gt":657,"their":658,"gel":659,"unser":660,"ahr":661,"Frau":662,"anz":663,"what":664,"bet":665,"hmen":666,"Mitglied":667,"iert":668,"States":669,"sol":670,"cr":671,"way":672,"dr":673,"Um":674,"ast":675,"geb":676,"import":677,"sa":678,"ließ":679,"they":680,"int":681,"ated":682,"kommen":683,"lar":684,"vent":685,"fol":686,"any":687,"sein":688,"sup":689,"cause":690,"ights":691,"ious":692,"stand":693,"nung":694,"ak":695,"sten":696,"act":697,"min":698,"some":699,"tain":700,"velop":701,"fre":702,"sehr":703,"dam":704,"Men":705,"ced":706,"bar":707,"ub":708,"por":709,"enz":710,"setz":711,"my":712,"uropä":713,"sit":714,"leich":715,"dec":716,"Mitgliedsta":717,"gesch":718,"Kon":719,"about":720,"get":721,"uss":722,"mehr":723,"year":724,"wicht":725,"propos":726,"new":727,"arbeit":728,"countries":729,"ider":730,"Ma":731,"nis":732,"ange":733,"Unter":734,"führ":735,"utz":736,"änd":737,"ice":738,"itte":739,"only":740,"day":741,"schließ":742,"europä":743,"fact":744,"dire":745,"zw":746,"atter":747,"ia":748,"De":749,"Vorsch":750,"assen":751,"ner":752,"Zus":753,"vie":754,"weiter":755,"ities":756,"cy":757,"quest":758,"develop":759,"Dies":760,"uch":761,"dieses":762,"Menschen":763,"present":764,"tschaft":765,"eines":766,"ckl":767,"ty":768,"ds":769,"because":770,"Rat":771,"ism":772,"ople":773,"gese":774,"fo":775,"hier":776,"agre":777,"och":778,"onder":779,"econ":780,"lear":781,"ces":782,"just":783,"ang":784,"ose":785,"pla":786,"Än":787,"over":788,"ject":789,"time":790,"wickl":791,"son":792,"Änder":793,"prov":794,"king":795,"So":796,"partic":797,"Mitgliedstaaten":798,"ong":799,"important":800,"fir":801,"ins":802,"eben":803,"reas":804,"halb":805,"tet":806,"iven":807,"unity":808,"trä":809,"Grund":810,"policy":811,"For":812,"Kol":813,"ded":814,"bere":815,"bo":816,"ement":817,"ility":818,"such":819,"ument":820,"2000":821,"ibt":822,"rap":823,"thing":824,"concern":825,"uman":826,"Ko":827,"igt":828,"uation":829,"land":830,"ign":831,"people":832,"sub":833,"ular":834,"Inter":835,"änder":836,"Entwickl":837,"Auf":838,"ität":839,"system":840,"Der":841,"nehmen":842,"come":843,"aga":844,"fä":845,"Gem":846,"pf":847,"ustr":848,"los":849,"mer":850,"ting":851,"produ":852,"ite":853,"iß":854,"gu":855,"ied":856,"att":857,"esch":858,"stell":859,"ven":860,"take":861,"cur":862,"dif":863,"wend":864,"deut":865,"oper":866,"sche":867,"Gemein":868,"pon":869,"zial":870,"stü":871,"ammen":872,"bas":873,"iden":874,"rights":875,"program":876,"zie":877,"problem":878,"into":879,"clear":880,"deb":881,"ahl":882,"them":883,"halten":884,"nahmen":885,"ittee":886,"ures":887,"wirk":888,"therefore":889,"read":890,"say":891,"viel":892,"geben":893,"Art":894,"wurde":895,"Zusammen":896,"chts":897,"inv":898,"olit":899,"make":900,"econom":901,"being":902,"tell":903,"cour":904,"forder":905,"ihre":906,"gleich":907,"best":908,"äm":909,"chn":910,"unkt":911,"pect":912,"Über":913,"ink":914,"lag":915,"ding":916,"alt":917,"Frage":918,"jed":919,"lle":920,"stellen":921,"fall":922,"sible":923,"emp":924,"Europa":925,"kte":926,"Richt":927,"iger":928,"particular":929,"same":930,"Bere":931,"Maß":932,"support":933,"brauch":934,"mon":935,"besonder":936,"isation":937,"igung":938,"ihr":939,"1999":940,"ives":941,"human":942,"wever":943,"har":944,"wel":945,"Europäische":946,"hör":947,"iti":948,"rag":949,"ural":950,"fu":951,"denen":952,"Sta":953,"olitik":954,"As":955,"gibt":956,"Zeit":957,"wür":958,"gemein":959,"vern":960,"olog":961,"neu":962,"weil":963,"ific":964,"cas":965,"Fin":966,"ween":967,"when":968,"rel":969,"ision":970,"point":971,"between":972,"ansp":973,"ats":974,"made":975,"ot":976,"lau":977,"Änderungs":978,"sure":979,"richt":980,"wen":981,"stru":982,"Arbeit":983,"zwischen":984,"led":985,"order":986,"oug":987,"where":988,"atz":989,"formation":990,"sondern":991,"respon":992,"itution":993,"first":994,"know":995,"rat":996,"Haus":997,"ence":998,"ved":999,"than":1000,"political":1001,"damit":1002,"vir":1003,"ständ":1004,"diesen":1005,"jedoch":1006,"äch":1007,"dann":1008,"zeit":1009,"regard":1010,"social":1011,"were":1012,"those":1013,"ionen":1014,"oc":1015,"welt":1016,"Land":1017,"wirtschaft":1018,"cer":1019,"here":1020,"gehen":1021,"ater":1022,"groß":1023,"weise":1024,"Commissioner":1025,"ient":1026,"consider":1027,"Bereich":1028,"ual":1029,"xt":1030,"stütz":1031,"pub":1032,"issen":1033,"Zu":1034,"mich":1035,"entr":1036,"amend":1037,"ordnung":1038,"ms":1039,"isten":1040,"ket":1041,"halt":1042,"Herrn":1043,"Jahr":1044,"anderen":1045,"effe":1046,"cept":1047,"Ih":1048,"Aussch":1049,"app":1050,"fahren":1051,"europäischen":1052,"Bür":1053,"ues":1054,"nat":1055,"art":1056,"geht":1057,"Entwicklung":1058,"keine":1059,"gest":1060,"spre":1061,"ganz":1062,"Fre":1063,"onment":1064,"off":1065,"last":1066,"question":1067,"view":1068,"Con":1069,"fund":1070,"fra":1071,"comp":1072,"ating":1073,"denn":1074,"trag":1075,"hn":1076,"qual":1077,"ask":1078,"many":1079,"ordne":1080,"then":1081,"international":1082,"vironment":1083,"geordne":1084,"ional":1085,"govern":1086,"bst":1087,"within":1088,"innen":1089,"acht":1090,"sowie":1091,"see":1092,"mal":1093,"olle":1094,"ame":1095,"think":1096,"sicher":1097,"great":1098,"habe":1099,"most":1100,"icult":1101,"heute":1102,"ors":1103,"right":1104,"ateg":1105,"proposal":1106,"schie":1107,"bereits":1108,"kl":1109,"mittel":1110,"unsere":1111,"bal":1112,"Richtlin":1113,"ving":1114,"bring":1115,"add":1116,"issue":1117,"debate":1118,"pen":1119,"want":1120,"det":1121,"Mittel":1122,"Te":1123,"lu":1124,"Se":1125,"stimm":1126,"development":1127,"less":1128,"ves":1129,"Min":1130,"Str":1131,"ulation":1132,"far":1133,"amen":1134,"Community":1135,"wort":1136,"achen":1137,"Committee":1138,"ändern":1139,"bess":1140,"fest":1141,"finan":1142,"Parlaments":1143,"Maßnahmen":1144,"bin":1145,"wohl":1146,"loy":1147,"certain":1148,"ile":1149,"beste":1150,"belie":1151,"Abgeordne":1152,"chten":1153,"bie":1154,"ised":1155,"lagen":1156,"wes":1157,"ffen":1158,"ster":1159,"does":1160,"disc":1161,"exam":1162,"cont":1163,"ian":1164,"erg":1165,"pra":1166,"besch":1167,"schafts":1168,"tt":1169,"tun":1170,"bis":1171,"pa":1172,"ine":1173,"handel":1174,"isk":1175,"Fraktion":1176,"resol":1177,"ready":1178,"letz":1179,"plement":1180,"stehen":1181,"wa":1182,"Rechts":1183,"cannot":1184,"Kommiss":1185,"Vorschlag":1186,"isl":1187,"organ":1188,"prote":1189,"sagen":1190,"years":1191,"entlich":1192,"allen":1193,"dra":1194,"could":1195,"oh":1196,"meas":1197,"les":1198,"cond":1199,"Besch":1200,"There":1201,"Mrs":1202,"komm":1203,"möglich":1204,"own":1205,"Gro":1206,"wichtig":1207,"weis":1208,"Al":1209,"use":1210,"ress":1211,"udget":1212,"cit":1213,"wieder":1214,"inn":1215,"techn":1216,"Kommissar":1217,"even":1218,"environment":1219,"incip":1220,"ade":1221,"dan":1222,"kel":1223,"princip":1224,"roug":1225,"ahmen":1226,"economic":1227,"matter":1228,"adop":1229,"agreement":1230,"possible":1231,"immer":1232,"zwe":1233,"serv":1234,"Rahmen":1235,"piel":1236,"Bürger":1237,"Ho":1238,"public":1239,"rechte":1240,"course":1241,"level":1242,"darauf":1243,"ister":1244,"nahme":1245,"unserer":1246,"grund":1247,"träge":1248,"genommen":1249,"net":1250,"legisl":1251,"icher":1252,"well":1253,"position":1254,"sollten":1255,"already":1256,"against":1257,"ri":1258,"ätz":1259,"too":1260,"ele":1261,"Richtlinie":1262,"plan":1263,"Umwelt":1264,"situation":1265,"put":1266,"two":1267,"recht":1268,"sozial":1269,"Wie":1270,"ild":1271,"mir":1272,"Program":1273,"ough":1274,"real":1275,"Le":1276,"tern":1277,"operation":1278,"utions":1279,"believe":1280,"directive":1281,"employ":1282,"market":1283,"citiz":1284,"your":1285,"dafür":1286,"Me":1287,"vote":1288,"luß":1289,"Kollegen":1290,"cted":1291,"doch":1292,"set":1293,"sollte":1294,"zug":1295,"Sit":1296,"sprechen":1297,"alth":1298,"allem":1299,"Politik":1300,"währ":1301,"vention":1302,"That":1303,"imin":1304,"legal":1305,"red":1306,"requ":1307,"ory":1308,"führen":1309,"licht":1310,"vom":1311,"abl":1312,"good":1313,"pl":1314,"Im":1315,"itiative":1316,"action":1317,"tion":1318,"ker":1319,"satz":1320,"Da":1321,"beg":1322,"Ziel":1323,"main":1324,"taken":1325,"Wenn":1326,"every":1327,"kehr":1328,"compe":1329,"Mar":1330,"politik":1331,"differ":1332,"spec":1333,"meine":1334,"much":1335,"had":1336,"vers":1337,"uro":1338,"full":1339,"Dem":1340,"ority":1341,"self":1342,"voll":1343,"io":1344,"appro":1345,"ful":1346,"hap":1347,"gestell":1348,"okrat":1349,"country":1350,"selbst":1351,"Nach":1352,"num":1353,"besondere":1354,"reichen":1355,"ischer":1356,"erson":1357,"wn":1358,"process":1359,"hope":1360,"Or":1361,"financial":1362,"bre":1363,"No":1364,"how":1365,"may":1366,"setzen":1367,"implement":1368,"today":1369,"gent":1370,"said":1371,"lassen":1372,"ihrer":1373,"Them":1374,"large":1375,"budget":1376,"transp":1377,"klär":1378,"Ja":1379,"ited":1380,"increas":1381,"halts":1382,"measures":1383,"still":1384,"common":1385,"eng":1386,"isierung":1387,"Gen":1388,"fut":1389,"car":1390,"area":1391,"case":1392,"scheid":1393,"Her":1394,"setzung":1395,"antrag":1396,"Ges":1397,"Finanz":1398,"place":1399,"aid":1400,"ispiel":1401,"rough":1402,"offen":1403,"punkt":1404,"Sicher":1405,"Char":1406,"Problem":1407,"äft":1408,"wollen":1409,"jetzt":1410,"contin":1411,"lossen":1412,"cent":1413,"ks":1414,"tal":1415,"bewer":1416,"gener":1417,"soc":1418,"einige":1419,"Ihnen":1420,"Mein":1421,"stitution":1422,"ierungs":1423,"dazu":1424,"ürlich":1425,"üß":1426,"lage":1427,"Hin":1428,"hol":1429,"curr":1430,"However":1431,"hä":1432,"number":1433,"future":1434,"reason":1435,"besser":1436,"wissen":1437,"areas":1438,"respect":1439,"würde":1440,"uck":1441,"antwort":1442,"gangen":1443,"llow":1444,"Berichterst":1445,"citizens":1446,"beral":1447,"ös":1448,"information":1449,"industr":1450,"porte":1451,"example":1452,"ability":1453,"Afr":1454,"wurden":1455,"neuen":1456,"anges":1457,"stat":1458,"Des":1459,"necess":1460,"val":1461,"stim":1462,"long":1463,"cts":1464,"both":1465,"ohne":1466,"his":1467,"licher":1468,"through":1469,"itä":1470,"Group":1471,"heiten":1472,"press":1473,"ti":1474,"posit":1475,"Berichterstatter":1476,"But":1477,"gar":1478,"high":1479,"öl":1480,"strument":1481,"ausge":1482,"liegen":1483,"Gebie":1484,"Fl":1485,"atte":1486,"aller":1487,"ensure":1488,"why":1489,"group":1490,"invol":1491,"begr":1492,"accept":1493,"ically":1494,"Länder":1495,"fair":1496,"führt":1497,"amendments":1498,"porteur":1499,"nun":1500,"bereit":1501,"programme":1502,"falls":1503,"law":1504,"tegr":1505,"essen":1506,"zeich":1507,"uring":1508,"Koso":1509,"ablish":1510,"Verein":1511,"spra":1512,"auth":1513,"ouse":1514,"ktur":1515,"discuss":1516,"Diese":1517,"establish":1518,"achie":1519,"schon":1520,"Entschließ":1521,"rapporteur":1522,"beits":1523,"Mon":1524,"ince":1525,"half":1526,"seit":1527,"ential":1528,"government":1529,"ilfe":1530,"proced":1531,"ices":1532,"zel":1533,"worden":1534,"gestellt":1535,"darf":1536,"opin":1537,"Änderungsan":1538,"Leben":1539,"Gese":1540,"di":1541,"ga":1542,"nisse":1543,"If":1544,"ret":1545,"neue":1546,"ritt":1547,"ages":1548,"thank":1549,"machen":1550,"maj":1551,"Kosovo":1552,"regional":1553,"compet":1554,"hän":1555,"hel":1556,"trif":1557,"glichkeit":1558,"geleg":1559,"trans":1560,"ack":1561,"ßt":1562,"meiner":1563,"agt":1564,"Abstimm":1565,"Fragen":1566,"tens":1567,"trifft":1568,"Ne":1569,"imp":1570,"Mö":1571,"ests":1572,"represent":1573,"insbesondere":1574,"ital":1575,"urther":1576,"rif":1577,"means":1578,"Jahren":1579,"hö":1580,"könn":1581,"zen":1582,"fung":1583,"zahl":1584,"Euro":1585,"Recht":1586,"programm":1587,"Hand":1588,"particularly":1589,"resolution":1590,"gew":1591,"necessary":1592,"Kr":1593,"lim":1594,"entral":1595,"20":1596,"ree":1597,"cooperation":1598,"Haushalts":1599,"wäre":1600,"äß":1601,"Fall":1602,"klar":1603,"Arbeits":1604,"orities":1605,"contr":1606,"given":1607,"text":1608,"problems":1609,"employment":1610,"ffic":1611,"etwas":1612,"decision":1613,"einmal":1614,"politischen":1615,"world":1616,"treten":1617,"ßer":1618,"provide":1619,"aum":1620,"Entscheid":1621,"statt":1622,"before":1623,"Staaten":1624,"äuß":1625,"Proble":1626,"assung":1627,"Teil":1628,"give":1629,"kun":1630,"notwend":1631,"bestimm":1632,"istr":1633,"andere":1634,"Kin":1635,"zip":1636,"strateg":1637,"Treat":1638,"av":1639,"sc":1640,"reform":1641,"ocr":1642,"omen":1643,"acc":1644,"protection":1645,"without":1646,"Möglichkeit":1647,"He":1648,"öff":1649,"ismus":1650,"Namen":1651,"ttbewer":1652,"fle":1653,"sätz":1654,"Beit":1655,"ferenz":1656,"cing":1657,"hether":1658,"House":1659,"Verbrauch":1660,"zeug":1661,"refer":1662,"lichkeit":1663,"Stru":1664,"again":1665,"ähr":1666,"igten":1667,"opinion":1668,"ttbewerb":1669,"Ger":1670,"vorsch":1671,"Schutz":1672,"principle":1673,"ler":1674,"Tr":1675,"prom":1676,"Stand":1677,"Ausschuß":1678,"sect":1679,"conf":1680,"mend":1681,"seine":1682,"Zusammenarbeit":1683,"rei":1684,"System":1685,"ikel":1686,"whether":1687,"ante":1688,"ordin":1689,"samen":1690,"hang":1691,"lus":1692,"poin":1693,"sor":1694,"letzten":1695,"terms":1696,"Members":1697,"usses":1698,"ird":1699,"ium":1700,"issues":1701,"wish":1702,"derung":1703,"Regel":1704,"ship":1705,"gesam":1706,"ately":1707,"weisen":1708,"dür":1709,"atic":1710,"els":1711,"handl":1712,"All":1713,"finden":1714,"different":1715,"Br":1716,"käm":1717,"current":1718,"zun":1719,"leicht":1720,"consum":1721,"Menschenrechte":1722,"zwar":1723,"alten":1724,"rem":1725,"serious":1726,"Meinung":1727,"Was":1728,"wirklich":1729,"concerned":1730,"Artikel":1731,"ölker":1732,"however":1733,"natürlich":1734,"commun":1735,"amental":1736,"folgen":1737,"saf":1738,"extre":1739,"sibility":1740,"sign":1741,"unterstütz":1742,"require":1743,"llschaft":1744,"10":1745,"gung":1746,"gere":1747,"behalf":1748,"ika":1749,"gesehen":1750,"Abgeordneten":1751,"Pr":1752,"fahr":1753,"Ste":1754,"redu":1755,"accoun":1756,"Unterstütz":1757,"nal":1758,"isions":1759,"contro":1760,"raph":1761,"Am":1762,"inner":1763,"look":1764,"stellung":1765,"stär":1766,"ime":1767,"tragen":1768,"illion":1769,"proposals":1770,"gricult":1771,"invest":1772,"Wer":1773,"fun":1774,"Regierung":1775,"Deb":1776,"Gemeinschaft":1777,"bringen":1778,"find":1779,"glau":1780,"Amend":1781,"speak":1782,"näm":1783,"gang":1784,"nämlich":1785,"kten":1786,"ss":1787,"handelt":1788,"zwei":1789,"Unterstützung":1790,"steht":1791,"air":1792,"ktor":1793,"stimmen":1794,"Ländern":1795,"Mad":1796,"defin":1797,"ules":1798,"viele":1799,"ja":1800,"wert":1801,"besteht":1802,"Eben":1803,"jen":1804,"Li":1805,"vious":1806,"pend":1807,"change":1808,"itions":1809,"instit":1810,"zü":1811,"spr":1812,"altung":1813,"offe":1814,"Welt":1815,"follow":1816,"15":1817,"agen":1818,"Wettbewerb":1819,"Rates":1820,"star":1821,"sehen":1822,"uer":1823,"reif":1824,"Deshalb":1825,"project":1826,"Änderungsantrag":1827,"ban":1828,"manage":1829,"immt":1830,"whole":1831,"Kolleg":1832,"Zusammenhang":1833,"struct":1834,"Probleme":1835,"raft":1836,"mil":1837,"osed":1838,"since":1839,"aussch":1840,"Änderungsanträge":1841,"ko":1842,"gehör":1843,"going":1844,"ying":1845,"deal":1846,"ienst":1847,"kur":1848,"crit":1849,"ierten":1850,"selves":1851,"gesetzt":1852,"grö":1853,"führung":1854,"Vorschlä":1855,"Präsidentin":1856,"sequ":1857,"verschie":1858,"Verbraucher":1859,"regulation":1860,"zurück":1861,"darüber":1862,"-,":1863,"Best":1864,"On":1865,"kün":1866,"iety":1867,"Sozial":1868,"cor":1869,"ahre":1870,"proposed":1871,"Abstimmung":1872,"cre":1873,"kes":1874,"lobal":1875,"mention":1876,"ache":1877,"few":1878,"itt":1879,"diff":1880,"Situation":1881,"amb":1882,"neh":1883,"key":1884,"Madam":1885,"ihren":1886,"mög":1887,"commit":1888,"zieh":1889,"risk":1890,"inzip":1891,"sichtlich":1892,"basis":1893,"difficult":1894,"next":1895,"opport":1896,"ücksicht":1897,"Thema":1898,"fassen":1899,"erforder":1900,"betrifft":1901,"esen":1902,"Unternehmen":1903,"institutions":1904,"jo":1905,"wär":1906,"liegt":1907,"further":1908,"bau":1909,"ict":1910,"abil":1911,"What":1912,"nor":1913,"einge":1914,"ivil":1915,"stellt":1916,"12":1917,"Bed":1918,"Fund":1919,"gaben":1920,"prochen":1921,"seiner":1922,"onds":1923,"iele":1924,"fav":1925,"pract":1926,"Fe":1927,"ways":1928,"maß":1929,"finanz":1930,"sprache":1931,"contrib":1932,"gend":1933,"Sicherheit":1934,"exist":1935,"lick":1936,"wendung":1937,"Gesch":1938,"call":1939,"after":1940,"making":1941,"inclu":1942,"legislation":1943,"pay":1944,"adopted":1945,"To":1946,"med":1947,"used":1948,"ually":1949,"Debatte":1950,"ieden":1951,"wards":1952,"inde":1953,"comple":1954,"Afric":1955,"amil":1956,"ible":1957,"gesagt":1958,"subject":1959,"bt":1960,"var":1961,"Vertrag":1962,"riften":1963,"gut":1964,"initiative":1965,"arante":1966,"entlichen":1967,"daher":1968,"einzel":1969,"second":1970,"Verantwort":1971,"cost":1972,"quite":1973,"curity":1974,"environmental":1975,"back":1976,"icle":1977,"deutung":1978,"specific":1979,"Mill":1980,"vis":1981,"ife":1982,"davon":1983,"extreme":1984,"Wo":1985,"cal":1986,"Bedeutung":1987,"ports":1988,"Punkt":1989,"integr":1990,"allow":1991,"Institution":1992,"amework":1993,"fully":1994,"Treaty":1995,"cap":1996,"ention":1997,"ings":1998,"pri":1999,"food":2000,"done":2001,"enth":2002,"gegenüber":2003,"shall":2004,"Em":2005,"markt":2006,"favour":2007,"Aber":2008,"eigen":2009,"meet":2010,"regions":2011,"line":2012,"lang":2013,"institution":2014,"Lebens":2015,"guarante":2016,"State":2017,"iten":2018,"kunft":2019,"bel":2020,"ace":2021,"agree":2022,"ext":2023,"geschlagen":2024,"einf":2025,"zusam":2026,"Rechte":2027,"Beschäft":2028,"approach":2029,"Auß":2030,"down":2031,"clearly":2032,"Ansicht":2033,"Aussprache":2034,"access":2035,"nationalen":2036,"state":2037,"resour":2038,"gress":2039,"nie":2040,"espe":2041,"tax":2042,"Tur":2043,"Information":2044,"druck":2045,"account":2046,"19":2047,"vi":2048,"verfahren":2049,"help":2050,"society":2051,"ER":2052,"Jahre":2053,"tschafts":2054,"verständ":2055,"zeß":2056,"goti":2057,"Frauen":2058,"bezug":2059,"außer":2060,"edom":2061,"prü":2062,"quality":2063,"ys":2064,"rather":2065,"Kontro":2066,"begrüß":2067,"för":2068,"van":2069,"Verfahren":2070,"power":2071,"Regionen":2072,"clo":2073,"deren":2074,"gebra":2075,"kommt":2076,"wier":2077,"ared":2078,"ächst":2079,"effective":2080,"gelegt":2081,"unseren":2082,"zusammen":2083,"Lös":2084,"zweit":2085,"promo":2086,"ward":2087,"framework":2088,"colle":2089,"women":2090,"negoti":2091,"unterstützen":2092,"Produ":2093,"ents":2094,"impro":2095,"verkehr":2096,"arbeiten":2097,"Vol":2098,"EUR":2099,"Minister":2100,"Und":2101,"propri":2102,"ru":2103,"sweise":2104,"United":2105,"appropri":2106,"spolitik":2107,"post":2108,"control":2109,"ified":2110,"pfung":2111,"Is":2112,"Ch":2113,"Fisch":2114,"sm":2115,"water":2116,"konk":2117,"gern":2118,"regul":2119,"carr":2120,"gegeben":2121,"Verordnung":2122,"And":2123,"genau":2124,"working":2125,"person":2126,"vorgeschlagen":2127,"000":2128,"Organ":2129,"Zust":2130,"pens":2131,"deshalb":2132,"demokrat":2133,"appe":2134,"ielen":2135,"dings":2136,"atives":2137,"itself":2138,"zept":2139,"rän":2140,"ichte":2141,"urn":2142,"daran":2143,"iar":2144,"ierte":2145,"ivid":2146,"technolog":2147,"sozialen":2148,"erk":2149,"Ant":2150,"Stra":2151,"1998":2152,"agricult":2153,"towards":2154,"open":2155,"kannt":2156,"Tages":2157,"atten":2158,"schein":2159,"streng":2160,"cially":2161,"teilung":2162,"something":2163,"result":2164,"Lu":2165,"ep":2166,"rules":2167,"sid":2168,"itor":2169,"häng":2170,"addition":2171,"resources":2172,"Disk":2173,"sollen":2174,"ference":2175,"fäh":2176,"A5":2177,"ilt":2178,"ialog":2179,"ikan":2180,"ziehen":2181,"Durch":2182,"Gleich":2183,"fte":2184,"role":2185,"bede":2186,"direct":2187,"programmes":2188,"Struktur":2189,"Dar":2190,"bu":2191,"essential":2192,"Bes":2193,"sum":2194,"wiesen":2195,"lines":2196,"folg":2197,"Article":2198,"30":2199,"ichts":2200,"suc":2201,"schaffen":2202,"europäische":2203,"dürfen":2204,"Af":2205,"Lage":2206,"eig":2207,"Reform":2208,"halte":2209,"responsibility":2210,"SE":2211,"TO":2212,"Weise":2213,"each":2214,"wach":2215,"ale":2216,"igkeiten":2217,"procedure":2218,"Wi":2219,"general":2220,"positive":2221,"instrument":2222,"step":2223,"These":2224,"geschlossen":2225,"especially":2226,"ogen":2227,"ktiv":2228,"policies":2229,"danken":2230,"zeu":2231,"während":2232,"points":2233,"ail":2234,"ost":2235,"politische":2236,"troffen":2237,"based":2238,"Mehr":2239,"könnte":2240,"kämpfung":2241,"lud":2242,"million":2243,"let":2244,"committee":2245,"glaube":2246,"ising":2247,"leben":2248,"security":2249,"trade":2250,"pflicht":2251,"Seit":2252,"zung":2253,"Gemeinschafts":2254,"großen":2255,"Kom":2256,"ably":2257,"grif":2258,"Kolleginnen":2259,"democr":2260,"object":2261,"Europas":2262,"Wirtschaft":2263,"fundamental":2264,"hät":2265,"force":2266,"staat":2267,"understand":2268,"wün":2269,"unde":2270,"recent":2271,"hau":2272,"taking":2273,"Vorschläge":2274,"Qu":2275,"pur":2276,"gelegen":2277,"heits":2278,"Ausschusses":2279,"gentle":2280,"At":2281,"derzeit":2282,"individ":2283,"Ergeb":2284,"waren":2285,"crimin":2286,"during":2287,"fts":2288,"job":2289,"Regierungs":2290,"ktionen":2291,"Entschließung":2292,"sector":2293,"Ebene":2294,"cult":2295,"mone":2296,"einzu":2297,"icial":2298,"Proje":2299,"Austr":2300,"Ha":2301,"bind":2302,"völker":2303,"health":2304,"ctions":2305,"They":2306,"ersten":2307,"better":2308,"luding":2309,"ware":2310,"bed":2311,"schutz":2312,"exper":2313,"folgt":2314,"fragen":2315,"move":2316,"achieve":2317,"extremely":2318,"Port":2319,"Ind":2320,"industry":2321,"Rights":2322,"bur":2323,"global":2324,"progress":2325,"Markt":2326,"notwendig":2327,"least":2328,"fehl":2329,"obje":2330,"proper":2331,"idency":2332,"gentlemen":2333,"aim":2334,"gether":2335,"prec":2336,"services":2337,"competition":2338,"reco":2339,"Beispiel":2340,"ety":2341,"kein":2342,"ert":2343,"fairs":2344,"einigen":2345,"ards":2346,"various":2347,"50":2348,"Man":2349,"nichts":2350,"grat":2351,"Liberal":2352,"money":2353,"berücksicht":2354,"Programm":2355,"uf":2356,"oment":2357,"ierungen":2358,"trau":2359,"interests":2360,"Fir":2361,"lon":2362,"arge":2363,"geführt":2364,"ingen":2365,"forward":2366,"express":2367,"darin":2368,"scheiden":2369,"itäten":2370,"lead":2371,"wic":2372,"seem":2373,"internal":2374,"merk":2375,"sterreich":2376,"accord":2377,"EC":2378,"hoffe":2379,"communic":2380,"Institutionen":2381,"three":2382,"sei":2383,"effor":2384,"frage":2385,"reifen":2386,"kle":2387,"really":2388,"dabei":2389,"concerns":2390,"hält":2391,"Tagesordnung":2392,"Rolle":2393,"kind":2394,"inten":2395,"werde":2396,"priv":2397,"ehmen":2398,"unden":2399,"together":2400,"hervor":2401,"freedom":2402,"Portug":2403,"entsprechen":2404,"welche":2405,"effect":2406,"Hau":2407,"anim":2408,"ore":2409,"rechts":2410,"fordern":2411,"importance":2412,"Standpunkt":2413,"iod":2414,"iness":2415,"sowohl":2416,"Angelegen":2417,"bus":2418,"beding":2419,"wegen":2420,"Verw":2421,"feel":2422,"konferenz":2423,"needs":2424,"Wh":2425,"Wor":2426,"absol":2427,"Wirtschafts":2428,"schließlich":2429,"bestehen":2430,"did":2431,"ehr":2432,"fonds":2433,"term":2434,"Weg":2435,"welcome":2436,"intro":2437,"chan":2438,"once":2439,"ativen":2440,"Nat":2441,"Sol":2442,"übr":2443,"beispiel":2444,"genann":2445,"Erweiter":2446,"gebracht":2447,"schaften":2448,"comes":2449,"introdu":2450,"mut":2451,"ick":2452,"Demokrat":2453,"continue":2454,"Kinder":2455,"sur":2456,"peace":2457,"ennt":2458,"member":2459,"spräsident":2460,"benef":2461,"month":2462,"safety":2463,"Fort":2464,"lauf":2465,"ants":2466,"including":2467,"Zukunft":2468,"fficient":2469,"prevent":2470,"Auch":2471,"management":2472,"Hilfe":2473,"drei":2474,"ists":2475,"UN":2476,"blick":2477,"lack":2478,"Prodi":2479,"brauchen":2480,"applic":2481,"Not":2482,"Zahl":2483,"Bei":2484,"Verantwortung":2485,"improve":2486,"Ex":2487,"coming":2488,"fähr":2489,"gratul":2490,"inform":2491,"ationen":2492,"Ausdruck":2493,"Amendment":2494,"ters":2495,"affe":2496,"region":2497,"kontro":2498,"economy":2499,"Nor":2500,"entwic":2501,"ged":2502,"gerade":2503,"aware":2504,"suchen":2505,"authorities":2506,"First":2507,"third":2508,"another":2509,"Abkommen":2510,"questions":2511,"besonders":2512,"Binnen":2513,"tze":2514,"asser":2515,"deutlich":2516,"ought":2517,"Bar":2518,"always":2519,"versch":2520,"period":2521,"Gener":2522,"prä":2523,"Energ":2524,"Internet":2525,"konkre":2526,"abhäng":2527,"Med":2528,"bil":2529,"enlarge":2530,"dren":2531,"Form":2532,"fordert":2533,"wärt":2534,"event":2535,"ises":2536,"denken":2537,"ildren":2538,"Bevölker":2539,"treffen":2540,"Just":2541,"light":2542,"involved":2543,"innerhalb":2544,"Lis":2545,"Initiative":2546,"conditions":2547,"transport":2548,"äd":2549,"wed":2550,"solche":2551,"funds":2552,"transpar":2553,"tei":2554,"outh":2555,"activ":2556,"große":2557,"statement":2558,"beispielsweise":2559,"11":2560,"näch":2561,"schne":2562,"admin":2563,"enzen":2564,"majority":2565,"zogen":2566,"alk":2567,"idar":2568,"dest":2569,"dessen":2570,"gabe":2571,"Lösung":2572,"small":2573,"demand":2574,"waste":2575,"pers":2576,"trad":2577,"Gebiet":2578,"Bem":2579,"idence":2580,"Jahres":2581,"objectives":2582,"short":2583,"Umsetzung":2584,"Entwicklungs":2585,"products":2586,"yl":2587,"become":2588,"ladies":2589,"Millionen":2590,"Person":2591,"fang":2592,"iben":2593,"oll":2594,"rele":2595,"reach":2596,"Grün":2597,"ihnen":2598,"wirtschaftlichen":2599,"Africa":2600,"ither":2601,"vision":2602,"reicht":2603,"sour":2604,"unkte":2605,"schied":2606,"racy":2607,"erhalten":2608,"children":2609,"row":2610,"vorgesehen":2611,"darum":2612,"business":2613,"Erweiterung":2614,"road":2615,"seits":2616,"teilen":2617,"Charta":2618,"sim":2619,"ences":2620,"erb":2621,"uni":2622,"del":2623,"mean":2624,"projects":2625,"Regierungskonferenz":2626,"übrigen":2627,"len":2628,"ßen":2629,"anzu":2630,"Eine":2631,"bereich":2632,"relation":2633,"certainly":2634,"organis":2635,"künft":2636,"recog":2637,"aspect":2638,"llig":2639,"exp":2640,"äußerst":2641,"Dienst":2642,"För":2643,"jud":2644,"while":2645,"trie":2646,"einzelnen":2647,"dort":2648,"gilt":2649,"iation":2650,"rece":2651,"leisten":2652,"hinaus":2653,"Fol":2654,"life":2655,"esse":2656,"schwer":2657,"assist":2658,"grow":2659,"greater":2660,"draw":2661,"ildung":2662,"Ziele":2663,"creat":2664,"table":2665,"doc":2666,"success":2667,"fl":2668,"ency":2669,"aufge":2670,"Transp":2671,"document":2672,"länd":2673,"yet":2674,"14":2675,"CO":2676,"Sp":2677,"ances":2678,"Erklär":2679,"answer":2680,"zeitig":2681,"complete":2682,"lück":2683,"mals":2684,"upon":2685,"kurz":2686,"Aspe":2687,"gra":2688,"ief":2689,"tem":2690,"igr":2691,"Verhandl":2692,"pose":2693,"Wort":2694,"energ":2695,"eindeut":2696,"opportunity":2697,"objective":2698,"Res":2699,"Vertre":2700,"findet":2701,"interest":2702,"subst":2703,"isen":2704,"rachten":2705,"ily":2706,"amendment":2707,"hnt":2708,"groups":2709,"B5":2710,"lea":2711,"einander":2712,"mult":2713,"vic":2714,"Schaf":2715,"ipfe":2716,"Fä":2717,"ase":2718,"gemacht":2719,"Rück":2720,"bour":2721,"ren":2722,"uten":2723,"erreichen":2724,"increase":2725,"Zwe":2726,"regel":2727,"having":2728,"local":2729,"imply":2730,"democratic":2731,"mäß":2732,"denke":2733,"ifiz":2734,"Auff":2735,"EG":2736,"leist":2737,"ritte":2738,"char":2739,"ilfen":2740,"Bekämpfung":2741,"tellung":2742,"iellen":2743,"gewähr":2744,"akzept":2745,"Convention":2746,"Pol":2747,"Tür":2748,"entscheiden":2749,"leis":2750,"words":2751,"ultur":2752,"zunehmen":2753,"II":2754,"pop":2755,"attention":2756,"län":2757,"beim":2758,"old":2759,"Herren":2760,"eth":2761,"sto":2762,"create":2763,"Amer":2764,"cher":2765,"liberal":2766,"vorliegen":2767,"Anwendung":2768,"Region":2769,"conclus":2770,"compan":2771,"major":2772,"Erachten":2773,"Hier":2774,"ix":2775,"heiß":2776,"cover":2777,"avail":2778,"Erachtens":2779,"Dank":2780,"ermög":2781,"gefähr":2782,"alles":2783,"free":2784,"wenig":2785,"matters":2786,"fight":2787,"kung":2788,"const":2789,"Abgeordnete":2790,"unt":2791,"decisions":2792,"systems":2793,"responsible":2794,"following":2795,"Cour":2796,"ield":2797,"prof":2798,"mark":2799,"Charter":2800,"mentioned":2801,"enlargement":2802,"ev":2803,"ning":2804,"weg":2805,"ebenfalls":2806,"sterdam":2807,"service":2808,"happen":2809,"Amsterdam":2810,"milit":2811,"administr":2812,"..":2813,"13":2814,"Den":2815,"Stellung":2816,"wuß":2817,"undheit":2818,"weitere":2819,"Mil":2820,"Frei":2821,"simply":2822,"üh":2823,"Ende":2824,"With":2825,"dou":2826,"sing":2827,"ziel":2828,"aper":2829,"parliament":2830,"Ihre":2831,"draft":2832,"Court":2833,"ided":2834,"weniger":2835,"C5":2836,"hon":2837,"often":2838,"special":2839,"Hinblick":2840,"einz":2841,"Behör":2842,"actions":2843,"Überein":2844,"größ":2845,"eded":2846,"kr":2847,"vier":2848,"atast":2849,"isches":2850,"exce":2851,"hatte":2852,"Finally":2853,"verschiedenen":2854,"bezü":2855,"andid":2856,"weiß":2857,"beiden":2858,"Kosten":2859,"vielleicht":2860,"implementation":2861,"agenda":2862,"Balk":2863,"name":2864,"start":2865,"wichtige":2866,"Wasser":2867,"allgem":2868,"exc":2869,"low":2870,"morgen":2871,"Geld":2872,"others":2873,"utzen":2874,"gemeinsamen":2875,"Entscheidung":2876,"dien":2877,"enter":2878,"actually":2879,"haps":2880,"ziehungen":2881,"atastrop":2882,"contain":2883,"Instrument":2884,"einfach":2885,"appropriate":2886,"25":2887,"ator":2888,"gegenwärt":2889,"Grundlage":2890,"moment":2891,"igin":2892,"amt":2893,"edu":2894,"posed":2895,"wirkungen":2896,"würden":2897,"atsäch":2898,"Flug":2899,"Schaffung":2900,"meines":2901,"task":2902,"umfassen":2903,"ify":2904,"anderer":2905,"drück":2906,"gesellschaft":2907,"internationalen":2908,"Krit":2909,"Mal":2910,"cl":2911,"past":2912,"iner":2913,"theless":2914,"single":2915,"LA":2916,"erklär":2917,"aufgrund":2918,"Verpflicht":2919,"Wieder":2920,"verständlich":2921,"Sub":2922,"bon":2923,"ländern":2924,"ieg":2925,"schre":2926,"fortun":2927,"Interessen":2928,"cases":2929,"Programme":2930,"gangenen":2931,"General":2932,"You":2933,"ently":2934,"Frieden":2935,"eigenen":2936,"US":2937,"akt":2938,"civil":2939,"Schluß":2940,"organisation":2941,"legislative":2942,"My":2943,"Wahl":2944,"pass":2945,"vö":2946,"challen":2947,"isik":2948,"standards":2949,"principles":2950,"might":2951,"angenommen":2952,"Dah":2953,"Mo":2954,"lig":2955,"Arbeitsp":2956,"hinsichtlich":2957,"Ihr":2958,"care":2959,"vielen":2960,"Vereinigten":2961,"Wettbewerbs":2962,"wurf":2963,"colleag":2964,"Daher":2965,"seinen":2966,"wee":2967,"ragen":2968,"gemäß":2969,"apply":2970,"Gesetz":2971,"Diskuss":2972,"Affairs":2973,"Gipfe":2974,"cen":2975,"ont":2976,"utet":2977,"schließen":2978,"things":2979,"ocracy":2980,"receive":2981,"Damen":2982,"field":2983,"Österreich":2984,"ross":2985,"Beih":2986,"Conference":2987,"though":2988,"stens":2989,"auer":2990,"Auswirkungen":2991,"fün":2992,"commend":2993,"Ital":2994,"overn":2995,"gemeinschaft":2996,"Turkey":2997,"cut":2998,"show":2999,"doing":3000,"wesen":3001,"Ur":3002,"famil":3003,"kei":3004,"congratul":3005,"although":3006,"Emp":3007,"companies":3008,"tatsäch":3009,"origin":3010,"enten":3011,"wider":3012,"poll":3013,"prep":3014,"available":3015,"Auffassung":3016,"deta":3017,"urs":3018,"context":3019,"restr":3020,"Part":3021,"ago":3022,"jeder":3023,"ausschuß":3024,"Je":3025,"ness":3026,"sogar":3027,"stain":3028,"play":3029,"stützt":3030,"regarding":3031,"viol":3032,"Demokratie":3033,"Förderung":3034,"hist":3035,"ständig":3036,"soziale":3037,"gehört":3038,"Chin":3039,"keinen":3040,"erwä":3041,"tour":3042,"Verbesser":3043,"affen":3044,"que":3045,"allerdings":3046,"Beitrag":3047,"individual":3048,"Govern":3049,"erste":3050,"item":3051,"deter":3052,"sug":3053,"previous":3054,"neuer":3055,"farm":3056,"danger":3057,"Gesellschaft":3058,"agricultural":3059,"jeden":3060,"particip":3061,"consumer":3062,"erforderlich":3063,"Türkei":3064,"heißt":3065,"hend":3066,"refu":3067,"head":3068,"neg":3069,"shof":3070,"ience":3071,"2001":3072,"increasing":3073,"acceptable":3074,"conflic":3075,"Binnenmarkt":3076,"eh":3077,"kut":3078,"amoun":3079,"constru":3080,"Verkehr":3081,"Party":3082,"voted":3083,"Social":3084,"jenigen":3085,"negotiations":3086,".)":3087,"four":3088,"tes":3089,"never":3090,"Geschä":3091,"dist":3092,"bekannt":3093,"igungs":3094,"gemeinsam":3095,"agreements":3096,"governmental":3097,"schnell":3098,"Bo":3099,"Fest":3100,"sus":3101,"teid":3102,"alled":3103,"ground":3104,"weiterhin":3105,"monitor":3106,"Beding":3107,"nächsten":3108,"Doch":3109,"Für":3110,"meinen":3111,"ourselves":3112,"Rei":3113,"vorzu":3114,"frei":3115,"ebenso":3116,"ification":3117,"flex":3118,"bit":3119,"gesprochen":3120,"Interesse":3121,"Steuer":3122,"Bestimm":3123,"Beschäftigung":3124,"Informationen":3125,"Ir":3126,"Währ":3127,"non":3128,"Stabil":3129,"ünd":3130,"standen":3131,"schließend":3132,"indeed":3133,"enthalten":3134,"cho":3135,"aud":3136,"elle":3137,"ffice":3138,"ihrem":3139,"gestimmt":3140,"coordin":3141,"gemeinsame":3142,"itäts":3143,"Fortsch":3144,"mden":3145,"anu":3146,"betra":3147,"official":3148,"Kommissarin":3149,"Secon":3150,"länder":3151,"ende":3152,"atent":3153,"verb":3154,"nothing":3155,"heb":3156,"keep":3157,"uppen":3158,"Grundrechte":3159,"relations":3160,"protect":3161,"Fischere":3162,"wahr":3163,"nov":3164,"ihm":3165,"months":3166,"Bevölkerung":3167,"Second":3168,"schwier":3169,"auszu":3170,"haltung":3171,"Government":3172,"Geschäfts":3173,"AC":3174,"Kultur":3175,"Pos":3176,"kom":3177,"ining":3178,"Berichts":3179,"trägen":3180,"macht":3181,"sag":3182,"stra":3183,"democracy":3184,"fert":3185,"guide":3186,"signific":3187,"Mehrheit":3188,"LAF":3189,"fünf":3190,"amp":3191,"iving":3192,"zehn":3193,"minister":3194,"governments":3195,"joint":3196,"longer":3197,"völlig":3198,"16":3199,"BSE":3200,"EA":3201,"Leit":3202,"miss":3203,"inge":3204,"ichtet":3205,"among":3206,"Bel":3207,"strong":3208,"Lebensmittel":3209,"communication":3210,"Liss":3211,"ever":3212,"öt":3213,"abon":3214,"mitt":3215,"Beziehungen":3216,"Prozeß":3217,"legation":3218,"ennung":3219,"Isra":3220,"Lisbon":3221,"Lissabon":3222,"IN":3223,"Office":3224,"Sü":3225,"tzen":3226,"üsse":3227,"disast":3228,"mb":3229,"mind":3230,"alen":3231,"subsid":3232,"efforts":3233,"energy":3234,"turn":3235,"anal":3236,"states":3237,"bewuß":3238,"expect":3239,"warten":3240,"Gegen":3241,"firm":3242,"concerning":3243,"beschäft":3244,"maßnahmen":3245,"Dam":3246,"Risik":3247,"ruck":3248,"vol":3249,"iter":3250,"org":3251,"Verfü":3252,"worten":3253,"pot":3254,"baren":3255,"Kontrolle":3256,"Notwend":3257,"Dire":3258,"Text":3259,"gute":3260,"sy":3261,"she":3262,"inne":3263,"oblig":3264,"frist":3265,"vorschriften":3266,"precise":3267,"called":3268,"equ":3269,"äu":3270,"tomor":3271,"iges":3272,"zeigt":3273,"bleiben":3274,"linien":3275,"teilt":3276,"themselves":3277,"Sitzung":3278,"strategy":3279,"öffentlichen":3280,"close":3281,"Reihe":3282,"tomorrow":3283,"border":3284,"oft":3285,"imum":3286,"ritts":3287,"itionen":3288,"diskut":3289,"Landwirtschaft":3290,"currently":3291,"Antwort":3292,"fli":3293,"tung":3294,"ches":3295,"ics":3296,"vertreten":3297,"cken":3298,"prinzip":3299,"unterstützt":3300,"langen":3301,"developing":3302,"Ratspräsident":3303,"Heraus":3304,"Pri":3305,"hu":3306,"lies":3307,"initi":3308,"onstr":3309,"atis":3310,"tag":3311,"richtig":3312,"bisher":3313,"due":3314,"ton":3315,"Öff":3316,"ana":3317,"ased":3318,"idea":3319,"weiteren":3320,"harmon":3321,"OLAF":3322,"Sel":3323,"Zun":3324,"hes":3325,"zentr":3326,"top":3327,"grar":3328,"solution":3329,"Strateg":3330,"costs":3331,"him":3332,"stre":3333,"met":3334,"könnten":3335,"ittle":3336,"merksam":3337,"Zweit":3338,"raum":3339,"enough":3340,"indem":3341,"dert":3342,"offer":3343,"sever":3344,"lied":3345,"ritten":3346,"ffiz":3347,"regulations":3348,"Austria":3349,"Let":3350,"little":3351,"lok":3352,"telle":3353,"emphas":3354,"Entschließungs":3355,"nehmer":3356,"guarantee":3357,"Verhandlungen":3358,"Prior":3359,"))":3360,"Sum":3361,"disch":3362,"ücht":3363,"Presidency":3364,"Präsidentschaft":3365,"hätte":3366,"Industr":3367,"leistet":3368,"Lin":3369,"isher":3370,"utes":3371,"irc":3372,"grenz":3373,"makes":3374,"marke":3375,"Dieser":3376,"ledge":3377,"Agrar":3378,"Ju":3379,"jähr":3380,"unterschied":3381,"Gefahr":3382,"Regierungen":3383,"sicherheit":3384,"Als":3385,"consumers":3386,"members":3387,"Notwendigkeit":3388,"fish":3389,"ph":3390,"som":3391,"leit":3392,"rac":3393,"ände":3394,"gelten":3395,"absolute":3396,"Americ":3397,"Bedingungen":3398,"circ":3399,"gument":3400,"changes":3401,"lei":3402,"comb":3403,"perhaps":3404,"Luft":3405,"Human":3406,"Sicht":3407,"Tats":3408,"uese":3409,"ders":3410,"arr":3411,"quo":3412,"dring":3413,"discussion":3414,"Gericht":3415,"Portuguese":3416,"entwickel":3417,"Gipfel":3418,"Pal":3419,"clar":3420,"vest":3421,"erreicht":3422,"llt":3423,"weder":3424,"wichtigen":3425,"lastung":3426,"Serb":3427,"hlt":3428,"remain":3429,"Antrag":3430,"parties":3431,"found":3432,"basic":3433,"Außer":3434,"jobs":3435,"seems":3436,"Behörden":3437,"Arbeitsplä":3438,"Secondly":3439,"request":3440,"abzu":3441,"resul":3442,"Vertrau":3443,"wenden":3444,"reasons":3445,"Co":3446,"nimmt":3447,"uner":3448,"folge":3449,"Menschenrechts":3450,"schieden":3451,"fähigkeit":3452,"tabled":3453,"fortunately":3454,"Ob":3455,"Thank":3456,"ody":3457,"gemessen":3458,"konn":3459,"Aufgabe":3460,"gleichen":3461,"kommens":3462,"Außen":3463,"guidelines":3464,"Spra":3465,"stu":3466,"stum":3467,"def":3468,"unserem":3469,"richtung":3470,"handeln":3471,"gesamten":3472,"NA":3473,"dom":3474,"atory":3475,"llent":3476,"try":3477,"faßt":3478,"forderungen":3479,"fallen":3480,"bedeutet":3481,"bezüglich":3482,"Janu":3483,"ras":3484,"ane":3485,"entliche":3486,"consequ":3487,"Inform":3488,"uppe":3489,"kennen":3490,"Pe":3491,"Viel":3492,"1997":3493,"values":3494,"Nahr":3495,"chnung":3496,"rect":3497,"fort":3498,"olate":3499,"spricht":3500,"treat":3501,"hlen":3502,"Staats":3503,"struktur":3504,"Prinzip":3505,"appear":3506,"Miß":3507,"Zum":3508,"meinem":3509,"iting":3510,"verantwort":3511,"portug":3512,"läu":3513,"procedures":3514,"provided":3515,"portugies":3516,"ath":3517,"fern":3518,"krit":3519,"encour":3520,"recommend":3521,"voting":3522,"pressed":3523,"Organisation":3524,"Bas":3525,"Punkte":3526,"Uhr":3527,"buch":3528,"hnen":3529,"ativ":3530,"repe":3531,"tom":3532,"hear":3533,"needed":3534,"rest":3535,"production":3536,"Energie":3537,"excellent":3538,"ench":3539,"anted":3540,"Kommissions":3541,"type":3542,"burg":3543,"growth":3544,"Tag":3545,"bzw":3546,"share":3547,"üssel":3548,"läßt":3549,"Konfli":3550,"Vorschriften":3551,"Bereichen":3552,"include":3553,"activities":3554,"population":3555,"17":3556,"18":3557,"Dok":3558,"five":3559,"reports":3560,"sex":3561,"zusätz":3562,"abo":3563,"aufgenommen":3564,"achten":3565,"Invest":3566,"ibility":3567,"hatten":3568,"commer":3569,"Gemeinsamen":3570,"würd":3571,"Volks":3572,"24":3573,"Mär":3574,"ften":3575,"choc":3576,"Partei":3577,"obvious":3578,"Berichterstatterin":3579,"meeting":3580,"eindeutig":3581,"Ira":3582,"Kap":3583,"ME":3584,"cation":3585,"beteil":3586,"conne":3587,"respe":3588,"ceed":3589,"demonstr":3590,"sieht":3591,"provid":3592,"provisions":3593,"Minder":3594,"maintain":3595,"Handel":3596,"bestimmte":3597,"Vertrags":3598,"eigentlich":3599,"Erklärung":3600,"Damit":3601,"Nahrungs":3602,"Post":3603,"eas":3604,"itim":3605,"zustellen":3606,"lange":3607,"solchen":3608,"agreed":3609,"submit":3610,"aterial":3611,"zunächst":3612,"discharge":3613,"Außerdem":3614,"Kön":3615,"Nicht":3616,"müß":3617,"rein":3618,"teile":3619,"iglich":3620,"setzt":3621,"sustain":3622,"exten":3623,"stead":3624,"Gelegen":3625,"commitment":3626,"genannten":3627,"Beihilfen":3628,"Partner":3629,"Our":3630,"Qual":3631,"mis":3632,"uld":3633,"letzt":3634,"verfü":3635,"verhin":3636,"fail":3637,"stage":3638,"Änderung":3639,"lement":3640,"partner":3641,"berücksichtigt":3642,"Verfügung":3643,"Dokument":3644,"chocolate":3645,"ians":3646,"mand":3647,"ring":3648,"yo":3649,"yes":3650,"orr":3651,"derart":3652,"gewiesen":3653,"using":3654,"aff":3655,"comprom":3656,"gleichzeitig":3657,"Haushalt":3658,"adopt":3659,"ethn":3660,"krä":3661,"san":3662,"ined":3663,"itu":3664,"sufficient":3665,"sense":3666,"quick":3667,"gesetz":3668,"lediglich":3669,"asked":3670,"technical":3671,"Möglichkeiten":3672,"criter":3673,"ialogue":3674,"until":3675,"Aktion":3676,"War":3677,"chter":3678,"seen":3679,"verein":3680,"indic":3681,"ugos":3682,"days":3683,"Fremden":3684,"balance":3685,"established":3686,"Selbst":3687,"DER":3688,"LEA":3689,"blo":3690,"erinn":3691,"imens":3692,"okol":3693,"arbeitet":3694,"angesichts":3695,"Verbesserung":3696,"INT":3697,"LEADER":3698,"owed":3699,"rep":3700,"etwa":3701,"Themen":3702,"honour":3703,"significant":3704,"Informations":3705,"entire":3706,"demokratischen":3707,"prepared":3708,"iled":3709,"ühr":3710,"meth":3711,"mechan":3712,"tack":3713,"advan":3714,"ungsverfahren":3715,"Mitteilung":3716,"Techn":3717,"Flücht":3718,"Nr":3719,"body":3720,"either":3721,"lling":3722,"heut":3723,"motion":3724,"reiche":3725,"utzung":3726,"justice":3727,"prüfen":3728,"klein":3729,"relev":3730,"China":3731,"Zweitens":3732,"Hels":3733,"REG":3734,"WTO":3735,"mere":3736,"enor":3737,"ators":3738,"itz":3739,"imes":3740,"rad":3741,"Uns":3742,"Regional":3743,"inki":3744,"Democr":3745,"promote":3746,"carried":3747,"scheint":3748,"strengthen":3749,"determin":3750,"Helsinki":3751,"Pf":3752,"active":3753,"dialogue":3754,"hne":3755,"ize":3756,"seinem":3757,"betroffen":3758,"raised":3759,"soon":3760,"expressed":3761,"whose":3762,"ported":3763,"getan":3764,"INTER":3765,"Plen":3766,"San":3767,"Sor":3768,"zentral":3769,"ielle":3770,"Schul":3771,"erster":3772,"wirtschaftliche":3773,"elect":3774,"confidence":3775,"sagte":3776,"INTERREG":3777,"erfü":3778,"total":3779,"resear":3780,"Integr":3781,"Proto":3782,"Schwe":3783,"final":3784,"unternehmen":3785,"plans":3786,"zweite":3787,"according":3788,"Dialog":3789,"herr":3790,"prozeß":3791,"arbeitung":3792,"reading":3793,"competit":3794,"Strukturfonds":3795,"aspects":3796,"research":3797,"Rom":3798,"wand":3799,"enden":3800,"unities":3801,"true":3802,"ifel":3803,"vorgelegt":3804,"ihn":3805,"cru":3806,"presented":3807,"fälle":3808,"Entscheidungen":3809,"Natur":3810,"benefit":3811,"Vertreter":3812,"Öffentlich":3813,"hung":3814,"mein":3815,"leider":3816,"eingehen":3817,"edon":3818,"Eng":3819,"Schritt":3820,"French":3821,"fraud":3822,"langu":3823,"Bürgern":3824,"address":3825,"pension":3826,"Freiheit":3827,"Zunächst":3828,"rang":3829,"erien":3830,"beant":3831,"tru":3832,"legung":3833,"Erstens":3834,"wobei":3835,"wesentlich":3836,"congratulate":3837,"One":3838,"dat":3839,"hard":3840,"iff":3841,"Schokol":3842,"modern":3843,"prakt":3844,"Empfehl":3845,"Gelegenheit":3846,"iop":3847,"stress":3848,"befür":3849,"scht":3850,"vergangenen":3851,"Forsch":3852,"contribution":3853,"Seite":3854,"Bestimmungen":3855,"results":3856,"Pre":3857,"South":3858,"list":3859,"unabhäng":3860,"ente":3861,"sec":3862,"funding":3863,"adequ":3864,"throughout":3865,"nü":3866,"oten":3867,"bear":3868,"schluß":3869,"Rechnung":3870,"face":3871,"assess":3872,"solidar":3873,"decided":3874,"Tatsache":3875,"graph":3876,"lö":3877,"rural":3878,"sage":3879,"verstär":3880,"facil":3881,"ulture":3882,"humanit":3883,"nature":3884,"mitteln":3885,"Vereinbar":3886,"ktr":3887,"side":3888,"thiop":3889,"ichen":3890,"Betr":3891,"Richtung":3892,"istrib":3893,"required":3894,"Ergebnis":3895,"Projekte":3896,"tradition":3897,"refuge":3898,"Strategie":3899,"markets":3900,"80":3901,"Famil":3902,"bank":3903,"pite":3904,"stop":3905,"gewä":3906,"heben":3907,"fast":3908,"Zugang":3909,"practice":3910,"fördern":3911,"additional":3912,"haupt":3913,"Öffentlichkeit":3914,"Pra":3915,"Raum":3916,"Sinne":3917,"erne":3918,"alität":3919,"irgend":3920,"gessen":3921,"üng":3922,"Mitglieder":3923,"lands":3924,"sorgen":3925,"nehm":3926,"existing":3927,"integration":3928,"wünschen":3929,"tatsächlich":3930,"Israel":3931,"bewußt":3932,"haft":3933,"agraph":3934,"Mitgliedstaat":3935,"Zeitpunkt":3936,"zeichne":3937,"enntnis":3938,"recogn":3939,"several":3940,"imension":3941,"lung":3942,"ond":3943,"held":3944,"ession":3945,"model":3946,"unseres":3947,"setzungen":3948,"grundlegen":3949,"Regelung":3950,"ikanischen":3951,"40":3952,"avo":3953,"satis":3954,"ült":3955,"foreign":3956,"foc":3957,"Sektor":3958,"Beschluß":3959,"spruch":3960,"Angelegenheit":3961,"application":3962,"ckt":3963,"sk":3964,"innov":3965,"anno":3966,"iell":3967,"sucht":3968,"lik":3969,"counter":3970,"gerungen":3971,"hinweisen":3972,"Amendments":3973,"criminal":3974,"Fischerei":3975,"angemessen":3976,"territ":3977,"mitglie":3978,"party":3979,"cris":3980,"sitting":3981,"pendent":3982,"ufig":3983,"assistance":3984,"allgemeinen":3985,"Nos":3986,"zustimmen":3987,"abge":3988,"legt":3989,"Abschließend":3990,"Einführung":3991,"prepar":3992,"saying":3993,"Afrika":3994,"achieved":3995,"institutional":3996,"transparency":3997,"amount":3998,"criteria":3999,"Hö":4000,"bildung":4001,"central":4002,"iver":4003,"chst":4004,"gehend":4005,"reser":4006,"coher":4007,"Wel":4008,"discrimin":4009,"product":4010,"implemented":4011,"zeichnet":4012,"Krieg":4013,"safe":4014,"quickly":4015,"bitte":4016,"ellen":4017,"dela":4018,"schem":4019,"abour":4020,"wirken":4021,"conclu":4022,"hoch":4023,"gebie":4024,"Koordin":4025,"Intergovernmental":4026,"losigkeit":4027,"approved":4028,"correct":4029,"rene":4030,"Summit":4031,"NATO":4032,"Fern":4033,"Nationen":4034,"assoc":4035,"tage":4036,"pover":4037,"Voraus":4038,"ärm":4039,"langt":4040,"levels":4041,"breit":4042,"Firstly":4043,"Leitlinien":4044,"ffer":4045,"hilfe":4046,"pted":4047,"child":4048,"iterr":4049,"igte":4050,"ume":4051,"jedem":4052,"continu":4053,"talk":4054,"verschieden":4055,"capital":4056,"completely":4057,"\".":4058,"live":4059,"suffer":4060,"endlich":4061,"bru":4062,"provision":4063,"ständigen":4064,"regards":4065,"großer":4066,"stehenden":4067,"everyone":4068,"sätze":4069,"Beitritts":4070,"priority":4071,"bedeuten":4072,"ermöglichen":4073,"Ti":4074,"nissen":4075,"formen":4076,"poor":4077,"else":4078,"sels":4079,"included":4080,"Komprom":4081,"Angelegenheiten":4082,"Diskussion":4083,"ACP":4084,"above":4085,"AK":4086,"Os":4087,"sinn":4088,"ctural":4089,"istischen":4090,"Rede":4091,"damage":4092,"wendet":4093,"representatives":4094,"Structural":4095,"critic":4096,"begrüße":4097,"griffen":4098,"Gründen":4099,"Transpar":4100,"Stellungnahme":4101,"doubt":4102,"conflict":4103,"AKP":4104,"EN":4105,"East":4106,"Sache":4107,"Wach":4108,"fil":4109,"ging":4110,"keiner":4111,"ison":4112,"isse":4113,"lege":4114,"betreffen":4115,"urgent":4116,"aufzu":4117,"brit":4118,"incor":4119,"inciner":4120,"pleased":4121,"gesamt":4122,"gerecht":4123,"structure":4124,"Span":4125,"analys":4126,"relevant":4127,"Kraft":4128,"PP":4129,"test":4130,"eren":4131,"onen":4132,"refle":4133,"werte":4134,"Ansatz":4135,"Grundsatz":4136,"specif":4137,"angesprochen":4138,"Febru":4139,"organisations":4140,"Haltung":4141,"Les":4142,"Vielen":4143,"ai":4144,"bare":4145,"gre":4146,"nommen":4147,"verstanden":4148,"workers":4149,"anzös":4150,"Landwir":4151,"beschlossen":4152,"talking":4153,"begrüßen":4154,"Daten":4155,"Tät":4156,"erheb":4157,"arian":4158,"annual":4159,"immigr":4160,"Absatz":4161,"community":4162,"Rechtsvorschriften":4163,"hold":4164,"private":4165,"AL":4166,"Brit":4167,"Paper":4168,"dienst":4169,"hind":4170,"angen":4171,"amer":4172,"ampf":4173,"icy":4174,"ichten":4175,"oph":4176,"except":4177,"legitim":4178,"Schwier":4179,"obil":4180,"Groß":4181,"Dabei":4182,"pointed":4183,"Verwalt":4184,"sof":4185,"yr":4186,"isiert":4187,"left":4188,"ändert":4189,"knowledge":4190,"Handels":4191,"bestimmten":4192,"bedingt":4193,"Dienstleist":4194,"farmers":4195,"ugosla":4196,"data":4197,"Transparenz":4198,"Ru":4199,"Stelle":4200,"Tour":4201,"bür":4202,"candid":4203,"liches":4204,"ktions":4205,"immung":4206,"allein":4207,"consideration":4208,"budgetary":4209,"funktion":4210,"ziehung":4211,"namely":4212,"poverty":4213,"erfolg":4214,"eind":4215,"ressed":4216,"iveness":4217,"ologie":4218,"extent":4219,"Mediterr":4220,"Vertrauen":4221,"02":4222,"Gar":4223,"Völker":4224,"rate":4225,"chend":4226,"einheit":4227,"verl":4228,"hören":4229,"limit":4230,"cultural":4231,"Bemerk":4232,"absolutely":4233,"anean":4234,"erinnern":4235,"Mediterranean":4236,"Dritt":4237,"Op":4238,"miß":4239,"win":4240,"äl":4241,"expla":4242,"spar":4243,"formul":4244,"chtung":4245,"remind":4246,"Funds":4247,"Verwaltung":4248,"akzeptieren":4249,"compromise":4250,"fig":4251,"tele":4252,"note":4253,"meisten":4254,"bleibt":4255,"durchaus":4256,"beschrän":4257,"Policy":4258,"colleagues":4259,"Belg":4260,"Mex":4261,"cord":4262,"pts":4263,"uted":4264,"deli":4265,"schl":4266,"vergessen":4267,"nograph":4268,"Erfahr":4269,"acce":4270,"gebung":4271,"isms":4272,"rapid":4273,"forderung":4274,"considered":4275,"reference":4276,"accession":4277,"Meine":4278,"bl":4279,"na":4280,"ound":4281,"icles":4282,"istic":4283,"iers":4284,"Beteil":4285,"Ang":4286,"Anfrage":4287,"mot":4288,"konzentr":4289,"wesentlichen":4290,"koll":4291,"closed":4292,"week":4293,"histor":4294,"dangerous":4295,"construction":4296,"precisely":4297,"Apr":4298,"distrib":4299,"tar":4300,"zieht":4301,"Leg":4302,"ternal":4303,"Volk":4304,"Durchführung":4305,"sourcen":4306,"Industrie":4307,"April":4308,"Patten":4309,"hinter":4310,"tin":4311,"anken":4312,"immed":4313,"ordn":4314,"Develop":4315,"applied":4316,"attem":4317,"berücksichtigen":4318,"military":4319,"drücklich":4320,"Verpflichtungen":4321,"Schlußfol":4322,"):":4323,"Chr":4324,"Dinge":4325,"Haf":4326,"Katastrop":4327,"euro":4328,"fisher":4329,"pfen":4330,"oren":4331,"takes":4332,"obwohl":4333,"practical":4334,"Zustimmung":4335,"White":4336,"Personen":4337,"connection":4338,"method":4339,"Schokolade":4340,"wise":4341,"indest":4342,"review":4343,"Verteid":4344,"interess":4345,"französ":4346,"bald":4347,"impact":4348,"Ergebnisse":4349,"Folgen":4350,"crisis":4351,"Gre":4352,"aden":4353,"equal":4354,"defen":4355,"heard":4356,"spir":4357,"lot":4358,"paragraph":4359,"comments":4360,"ograph":4361,"sitzen":4362,"danke":4363,"Sicherheits":4364,"value":4365,"requirements":4366,"buil":4367,"griff":4368,"persön":4369,"USA":4370,"received":4371,"21":4372,"Last":4373,"Tat":4374,"ested":4375,"eing":4376,"verab":4377,"beru":4378,"Konferenz":4379,"trächt":4380,"Asyl":4381,"Mittelme":4382,"involve":4383,"potential":4384,"immedi":4385,"volle":4386,"Vergangen":4387,"super":4388,"Weiß":4389,"training":4390,"heraus":4391,"relating":4392,"wiederhol":4393,"everything":4394,"status":4395,"bourg":4396,"länger":4397,"solidarity":4398,"Development":4399,"sent":4400,"schü":4401,"cks":4402,"Environment":4403,"Armut":4404,"propose":4405,"Entlastung":4406,"assismus":4407,"Änderungen":4408,"scient":4409,"Fehl":4410,"Liberalisierung":4411,"kontroll":4412,"vorliegenden":4413,"initiatives":4414,"Nahrungsmittel":4415,"thin":4416,"ismen":4417,"getroffen":4418,"weist":4419,"genet":4420,"alloc":4421,"überhaupt":4422,"aging":4423,"Erzeug":4424,"Absicht":4425,"hingewiesen":4426,"times":4427,"Sep":4428,"Gesundheit":4429,"handlung":4430,"zeugen":4431,"hätten":4432,"Quest":4433,"konkrete":4434,"gewährleisten":4435,"conclusions":4436,"verhindern":4437,"young":4438,"specifically":4439,"Lesung":4440,"Schwierigkeiten":4441,"UR":4442,"bro":4443,"raten":4444,"yn":4445,"unbedingt":4446,"iture":4447,"diejenigen":4448,"keits":4449,"stelle":4450,"Beam":4451,"frü":4452,"ished":4453,"zumindest":4454,"Zusatz":4455,"rought":4456,"Fundamental":4457,"zweiten":4458,"Zuständ":4459,"technology":4460,"ländlichen":4461,"tourism":4462,"Wachstum":4463,"Vergangenheit":4464,"60":4465,"Ro":4466,"Wider":4467,"ination":4468,"unemployment":4469,"behandelt":4470,"proceed":4471,"pornograph":4472,"Dieses":4473,"Richtlinien":4474,"größer":4475,"opportunities":4476,"Balkan":4477,"coordination":4478,"entwickeln":4479,"Integration":4480,"Betrug":4481,"Patent":4482,"Russ":4483,"date":4484,"gült":4485,"run":4486,"xen":4487,"remo":4488,"manu":4489,"Erfolg":4490,"interpre":4491,"linie":4492,"spezie":4493,"trotz":4494,"ierenden":4495,"overall":4496,"Forderung":4497,"response":4498,"beglück":4499,"discussions":4500,"finanziellen":4501,"instruments":4502,"circum":4503,"Komm":4504,"Of":4505,"giving":4506,"ält":4507,"behind":4508,"tot":4509,"teen":4510,"schle":4511,"ürz":4512,"sichern":4513,"wogen":4514,"Augen":4515,"anything":4516,"geschaffen":4517,"content":4518,"increased":4519,"stärker":4520,"Beschäftigungs":4521,"agriculture":4522,"pursu":4523,"Entschließungsantrag":4524,"cies":4525,"mass":4526,"asse":4527,"gewicht":4528,"auern":4529,"intervention":4530,"läss":4531,"ämt":4532,"authority":4533,"staatlichen":4534,"Aspekte":4535,"dringend":4536,"manufact":4537,"Kenntnis":4538,"Rassismus":4539,"bi":4540,"ford":4541,"mensch":4542,"Einw":4543,"frieden":4544,"measure":4545,"plann":4546,"Gebiete":4547,"reduce":4548,"structural":4549,"priorities":4550,"carry":4551,"culture":4552,"Geschäftsordnung":4553,"Protokoll":4554,"avoid":4555,"03":4556,"Kampf":4557,"äter":4558,"erung":4559,"unacceptable":4560,"zusetzen":4561,"nel":4562,"developed":4563,"insgesamt":4564,"beginn":4565,"Werte":4566,"funden":4567,"powers":4568,"laufen":4569,"creating":4570,"pollution":4571,"Arbeitsplätze":4572,"incorpor":4573,").":4574,"FR":4575,"az":4576,"eil":4577,"gän":4578,"material":4579,"uine":4580,"zö":4581,"erweise":4582,"bedarf":4583,"gefordert":4584,"living":4585,"liebe":4586,"cohes":4587,"Proz":4588,"comment":4589,"staaten":4590,"front":4591,"hinzu":4592,"crime":4593,"proving":4594,"Hinsicht":4595,"Gebieten":4596,"sectors":4597,"reiben":4598,"affected":4599,"bilater":4600,"ühungen":4601,"education":4602,"detail":4603,"Gerichtshof":4604,"Kompromiß":4605,"Further":4606,"Nie":4607,"hunder":4608,"session":4609,"scho":4610,"versuchen":4611,"utter":4612,"Inde":4613,"Vorgehen":4614,"Entwurf":4615,"Grenzen":4616,"2006":4617,"Aufgaben":4618,"sprechend":4619,"investment":4620,"penditure":4621,"normal":4622,"purpose":4623,"konkreten":4624,"bitten":4625,"sustainable":4626,"adequate":4627,"Koordinierung":4628,"23":4629,"Budget":4630,"Do":4631,"ec":4632,"mü":4633,"bezogen":4634,"asyl":4635,"despite":4636,"demn":4637,"Ausführ":4638,"Untersuch":4639,"risks":4640,"rule":4641,"recently":4642,"substant":4643,"victim":4644,"suggest":4645,"consequences":4646,"encourage":4647,"Minderheiten":4648,"Plenum":4649,"GM":4650,"Män":4651,"When":4652,"cred":4653,"flo":4654,"feind":4655,"mess":4656,"stability":4657,"beziehen":4658,"wide":4659,"immen":4660,"ktive":4661,"Annahme":4662,"France":4663,"hoben":4664,"Finanzierung":4665,"author":4666,"Monaten":4667,"gelegten":4668,"bindung":4669,"liberalisation":4670,"honourable":4671,"candidate":4672,"Weißbuch":4673,"BA":4674,"mann":4675,"via":4676,"inf":4677,"ones":4678,"gency":4679,"illegal":4680,"expenditure":4681,"cope":4682,"jeweil":4683,"ighted":4684,"works":4685,"Arbeitnehmer":4686,"effects":4687,"bedingungen":4688,"trieben":4689,"tember":4690,"exclus":4691,"monitoring":4692,"asylum":4693,"Wissen":4694,"away":4695,"jahr":4696,"rimin":4697,"around":4698,"sound":4699,"conv":4700,"Verträge":4701,"laß":4702,"liability":4703,"hase":4704,"möchten":4705,"Gew":4706,"spee":4707,"prehen":4708,"europäischer":4709,"Kollege":4710,"bessern":4711,"wichtigsten":4712,"selbstverständlich":4713,"Regeln":4714,"stark":4715,"kontrolle":4716,"Fällen":4717,"Fortschritte":4718,"ffizient":4719,"Achtung":4720,"fach":4721,"nern":4722,"isieren":4723,"deral":4724,"entschieden":4725,"gekommen":4726,"getragen":4727,"genuine":4728,"laim":4729,"goes":4730,"link":4731,"presidency":4732,"ünft":4733,"limited":4734,"Stellen":4735,"Straß":4736,"entsprechenden":4737,"electr":4738,"refugees":4739,"discrimination":4740,"ophob":4741,"Christ":4742,"Drit":4743,"dut":4744,"orn":4745,"bevor":4746,"zuführen":4747,"terday":4748,"abkommen":4749,"ussed":4750,"Aufmerksam":4751,"pflich":4752,"ological":4753,"known":4754,"Änderungsanträgen":4755,"transfer":4756,"gesamte":4757,"ehrte":4758,"künftig":4759,"renew":4760,"cohesion":4761,"Aufmerksamkeit":4762,"El":4763,"nutzen":4764,"verse":4765,"prob":4766,"tritt":4767,"nachhalt":4768,"valu":4769,"referred":4770,"enthält":4771,"experience":4772,"Natürlich":4773,"challenge":4774,"Linie":4775,"erneut":4776,"circumst":4777,"Prä":4778,"cers":4779,"claim":4780,"fal":4781,"hab":4782,"thaf":4783,"aner":4784,"outs":4785,"Veränder":4786,"Verhält":4787,"woll":4788,"gering":4789,"reichend":4790,"Dec":4791,"attle":4792,"Politiken":4793,"return":4794,"gehören":4795,"accordance":4796,"Solidar":4797,"Justiz":4798,"Kriterien":4799,"Friedens":4800,"crucial":4801,"ktron":4802,"Ausführungen":4803,"Fle":4804,"GC":4805,"How":4806,"IGC":4807,"Per":4808,"col":4809,"eign":4810,"kts":4811,"thy":4812,"thus":4813,"stud":4814,"arch":4815,"undheits":4816,"verbessern":4817,"contra":4818,"Initi":4819,"sper":4820,"gerichtet":4821,"beitragen":4822,"perfe":4823,"2002":4824,"direction":4825,"wirksam":4826,"Bereiche":4827,"thanks":4828,"verkehrs":4829,"intended":4830,"Nun":4831,"Rand":4832,"fassung":4833,"home":4834,"vital":4835,"zä":4836,"unver":4837,"gefunden":4838,"aut":4839,"death":4840,"schlä":4841,"veh":4842,"kelt":4843,"Frank":4844,"possibility":4845,"myself":4846,"braucht":4847,"occas":4848,"publik":4849,"seriously":4850,"Bemühungen":4851,"Übereinkommen":4852,"disaster":4853,"National":4854,"Zivil":4855,"sämt":4856,"onnen":4857,"dell":4858,"verur":4859,"verstehen":4860,"liz":4861,"exer":4862,"max":4863,"jedes":4864,"discussed":4865,"Beschl":4866,"ausgezeichne":4867,"Woche":4868,"conclusion":4869,"racism":4870,"Qualität":4871,"May":4872,"ling":4873,"pun":4874,"six":4875,"extens":4876,"Stat":4877,"traffic":4878,"supported":4879,"vernünft":4880,"feststellen":4881,"drawn":4882,"Therefore":4883,"establishing":4884,"investig":4885,"capac":4886,"außerdem":4887,"Justice":4888,"created":4889,"officials":4890,"circumstances":4891,"Falle":4892,"Har":4893,"efficient":4894,"greifen":4895,"sive":4896,"uter":4897,"enable":4898,"intens":4899,"leiten":4900,"teien":4901,"grant":4902,"exact":4903,"lose":4904,"strö":4905,"uellen":4906,"proport":4907,"Fraktionen":4908,"goods":4909,"structures":4910,"Verkehrs":4911,"fishing":4912,"PPE":4913,"URBA":4914,"totally":4915,"URBAN":4916,"Ban":4917,"Gel":4918,"Spe":4919,"cle":4920,"jur":4921,"nä":4922,"took":4923,"schuld":4924,"gesundheit":4925,"seek":4926,"speaking":4927,"recognis":4928,"huge":4929,"partnership":4930,"lösen":4931,"Ged":4932,"Ide":4933,"LI":4934,"Pub":4935,"Wahr":4936,"rie":4937,"zif":4938,"erwarten":4939,"stated":4940,"stoffe":4941,"gruppen":4942,"Überwach":4943,"applies":4944,"ategor":4945,"möglichst":4946,"setting":4947,"businesses":4948,"profit":4949,"September":4950,"Eind":4951,"More":4952,"Plan":4953,"Red":4954,"effizient":4955,"xis":4956,"ilar":4957,"ires":4958,"Verwendung":4959,"gründ":4960,"ously":4961,"produce":4962,"bestät":4963,"wissenschaft":4964,"zeugt":4965,"reached":4966,"administration":4967,"Prioritäten":4968,"König":4969,"vereinbar":4970,"kleinen":4971,"xenophob":4972,"Furthermore":4973,"Agen":4974,"Lassen":4975,"Meiner":4976,"ffe":4977,"istische":4978,"achtet":4979,"freue":4980,"Aufnahme":4981,"operations":4982,"möglichkeit":4983,"bauen":4984,"Haupt":4985,"gegenwärtig":4986,"Schlußfolgerungen":4987,"Agenda":4988,"brought":4989,"öst":4990,"atisch":4991,"einiger":4992,"sensit":4993,"ureau":4994,"morning":4995,"nochmals":4996,"Landes":4997,"elektron":4998,"Nove":4999,"contrary":5000,"Regelungen":5001,"parliamentary":5002,"ehm":5003,"Kommissionsmitglie":5004,"Mac":5005,"Tier":5006,"oil":5007,"yp":5008,"erhö":5009,"inspe":5010,"anced":5011,"staff":5012,"arily":5013,"betre":5014,"rahmen":5015,"ventions":5016,"begin":5017,"implementing":5018,"garant":5019,"administrative":5020,"People":5021,"Unsere":5022,"school":5023,"90":5024,"Econ":5025,"nation":5026,"ref":5027,"verpflich":5028,"dadurch":5029,"iken":5030,"agement":5031,"ünst":5032,"consult":5033,"ergreifen":5034,"Treaties":5035,"wertung":5036,"Position":5037,"Jugend":5038,"Solidarität":5039,"Econom":5040,"Bö":5041,"DA":5042,"VO":5043,"broad":5044,"hoffen":5045,"äum":5046,"üro":5047,"along":5048,"gets":5049,"mel":5050,"Beg":5051,"mag":5052,"erns":5053,"Wirk":5054,"brief":5055,"finally":5056,"natural":5057,"Wert":5058,"milk":5059,"properly":5060,"somit":5061,"heutigen":5062,"\",":5063,"Gree":5064,"Nations":5065,"RO":5066,"Wes":5067,"big":5068,"orient":5069,"ands":5070,"änden":5071,"forms":5072,"acio":5073,"ären":5074,"concentr":5075,"okraten":5076,"placed":5077,"producers":5078,"Transport":5079,"zielt":5080,"Palacio":5081,"sanctions":5082,"focus":5083,"exerc":5084,"none":5085,"almost":5086,"design":5087,"benöt":5088,"comprehen":5089,"warum":5090,"obtain":5091,"ärenz":5092,"barkeit":5093,"ology":5094,"Gesprä":5095,"offensichtlich":5096,"regionalen":5097,"Haider":5098,"Balkans":5099,"combat":5100,"yesterday":5101,"Public":5102,"FE":5103,"Von":5104,"bung":5105,"cross":5106,"kauf":5107,"mber":5108,"scope":5109,"instead":5110,"atik":5111,"separ":5112,"schlossen":5113,"forces":5114,"across":5115,"betonen":5116,"sitz":5117,"wichtiger":5118,"related":5119,"richten":5120,"pack":5121,"resolutions":5122,"Dazu":5123,"notwendigen":5124,"Prü":5125,"looking":5126,"function":5127,"postal":5128,"dienen":5129,"schreiten":5130,"Ihrer":5131,"itude":5132,"outside":5133,"November":5134,"chem":5135,"bey":5136,"amber":5137,"schäd":5138,"verfolgen":5139,"condemn":5140,"Inst":5141,"stets":5142,"parts":5143,"etary":5144,"darstellt":5145,"firstly":5146,"festgelegt":5147,"industrie":5148,"helfen":5149,"zahlen":5150,"creation":5151,"vorgeschlagenen":5152,"entsprechende":5153,"Kommun":5154,"Frankreich":5155,"capacity":5156,"27":5157,"Mio":5158,"gab":5159,"kulture":5160,"reag":5161,"entsprechend":5162,"eingesch":5163,"llos":5164,"dafr":5165,"umwelt":5166,"external":5167,"spo":5168,"moral":5169,"politisch":5170,"handen":5171,"ternative":5172,"citizen":5173,"198":5174,"Bildung":5175,"Cy":5176,"Fun":5177,"IT":5178,"Now":5179,"ake":5180,"billion":5181,"cke":5182,"ye":5183,"zielen":5184,"emer":5185,"ush":5186,"Unser":5187,"adv":5188,"regular":5189,"durchgeführt":5190,"Delegation":5191,"guard":5192,"difficulties":5193,"medium":5194,"directives":5195,"zeuge":5196,"participation":5197,"Königreich":5198,"37":5199,"hnung":5200,"kraft":5201,"anen":5202,"unanim":5203,"derungen":5204,"gelt":5205,"emiss":5206,"ilf":5207,"allowed":5208,"Anstreng":5209,"strict":5210,"Einsatz":5211,"allel":5212,"intention":5213,"bodies":5214,"guten":5215,"bringt":5216,"Mitteln":5217,"elections":5218,"pression":5219,"Arbeitslosigkeit":5220,"independent":5221,"summit":5222,"movement":5223,"effort":5224,"bürger":5225,"Verteidigung":5226,"Fa":5227,"Kern":5228,"Nord":5229,"came":5230,"glichen":5231,"unge":5232,"entscheid":5233,"schätz":5234,"1995":5235,"ption":5236,"caused":5237,"declar":5238,"considerable":5239,"rightly":5240,"bieten":5241,"Programms":5242,"reality":5243,"langfrist":5244,"Portugal":5245,"affect":5246,"Kapital":5247,"Pflicht":5248,"LIFE":5249,"verpflichtet":5250,"Element":5251,"Kur":5252,"fug":5253,"iend":5254,"labour":5255,"ons":5256,"ales":5257,"gewesen":5258,"igungen":5259,"ilities":5260,"esses":5261,"ungsan":5262,"price":5263,"Abschluß":5264,"1996":5265,"minimum":5266,"Staat":5267,"laub":5268,"remember":5269,"Diskrimin":5270,"bestehenden":5271,"covered":5272,"leitet":5273,"building":5274,"victims":5275,"message":5276,"rieben":5277,"Bank":5278,"Swe":5279,"Ze":5280,"tät":5281,"oral":5282,"bekommen":5283,"sektor":5284,"concept":5285,"afr":5286,"quant":5287,"shown":5288,"Third":5289,"ienste":5290,"bot":5291,"qualifiz":5292,"achtung":5293,"gangs":5294,"ausschusses":5295,"African":5296,"Austrian":5297,"documents":5298,"Wiederauf":5299,"obviously":5300,"Iraq":5301,"Sanktionen":5302,"analysis":5303,"defence":5304,"Druck":5305,"Ku":5306,"NG":5307,"bill":5308,"gliche":5309,"later":5310,"threat":5311,"eingere":5312,"trying":5313,"werk":5314,"opol":5315,"ktiven":5316,"ending":5317,"übernehmen":5318,"feed":5319,"darstellen":5320,"Berlin":5321,"views":5322,"addit":5323,"...":5324,"mittl":5325,"arrange":5326,"coherence":5327,"Question":5328,"beyond":5329,"Hoff":5330,"fif":5331,"itation":5332,"itious":5333,"ausch":5334,"ller":5335,"zufrieden":5336,"rak":5337,"condu":5338,"Inhalt":5339,"ively":5340,"exchange":5341,"appoint":5342,"ganze":5343,"prim":5344,"ensuring":5345,"Koh":5346,"directly":5347,"animal":5348,"einzige":5349,"kräft":5350,"Aktionsp":5351,"delay":5352,"incineration":5353,"perfect":5354,"100":5355,"Agricult":5356,"yse":5357,"nock":5358,"vorhanden":5359,"ahn":5360,"ielt":5361,"Ausgaben":5362,"besten":5363,"ired":5364,"pressure":5365,"Einzel":5366,"cri":5367,"Gesundheits":5368,"kosten":5369,"effectively":5370,"Haar":5371,"ermöglicht":5372,"negative":5373,"verbunden":5374,"enorm":5375,"Beteiligung":5376,"Angol":5377,"probably":5378,"ain":5379,"eher":5380,"rong":5381,"ersch":5382,"verw":5383,"dagegen":5384,"labe":5385,"explan":5386,"zeigen":5387,"ibil":5388,"friend":5389,"anders":5390,"consist":5391,"Deut":5392,"steller":5393,"operate":5394,"ihres":5395,"Abgeordneter":5396,"March":5397,"genteil":5398,"scale":5399,"speakers":5400,"entwickelt":5401,"simple":5402,"repeat":5403,"Anstrengungen":5404,"Kar":5405,"Niel":5406,"ada":5407,"div":5408,"noise":5409,"ussels":5410,"ierter":5411,"ournal":5412,"Parteien":5413,"Erika":5414,"Vorbereit":5415,"Einhaltung":5416,"police":5417,"ganzen":5418,"schiede":5419,"discussing":5420,"Brussels":5421,"gemeinschaftlichen":5422,"family":5423,"ethnic":5424,"Sorge":5425,"Forschung":5426,"humanitarian":5427,"recognise":5428,"fisheries":5429,"26":5430,"HO":5431,"Terr":5432,"wrong":5433,"geleistet":5434,"omé":5435,"gesche":5436,"später":5437,"Abfall":5438,"Maße":5439,"useful":5440,"reforms":5441,"Brüssel":5442,"communities":5443,"commitments":5444,"ifellos":5445,"Directive":5446,"American":5447,"konnte":5448,"März":5449,"submitted":5450,"accepted":5451,"Indeed":5452,"Aktiv":5453,"Fonds":5454,"Sto":5455,"lier":5456,"mist":5457,"word":5458,"log":5459,"eseit":5460,"acqu":5461,"hohen":5462,"cycl":5463,"fällt":5464,"bessere":5465,"financing":5466,"Meer":5467,"Ort":5468,"reasonable":5469,"prüft":5470,"diskutieren":5471,"Eindruck":5472,"AR":5473,"ping":5474,"rig":5475,"rise":5476,"argument":5477,"delegation":5478,"uls":5479,"zep":5480,"Gegenteil":5481,"nationale":5482,"direkt":5483,"festgestellt":5484,"pain":5485,"stimme":5486,"constit":5487,"restrict":5488,"mission":5489,"assessment":5490,"Tätigkeit":5491,"scientific":5492,"Aktionen":5493,"Kl":5494,"La":5495,"Since":5496,"Zur":5497,"clos":5498,"infra":5499,"behör":5500,"dealt":5501,"near":5502,"anti":5503,"nennen":5504,"Schl":5505,"sibilities":5506,"Mai":5507,"learn":5508,"berecht":5509,"weltweit":5510,"istence":5511,"paid":5512,"Alban":5513,"zeichnen":5514,"Aller":5515,"Vorschlägen":5516,"Solana":5517,"militär":5518,"MEP":5519,"Democrats":5520,"Verwaltungs":5521,"eingeschrän":5522,"bab":5523,"hig":5524,"sort":5525,"aums":5526,"verme":5527,"ums":5528,"umgesetzt":5529,"mittag":5530,"voraus":5531,"fear":5532,"ciliation":5533,"kommenden":5534,"board":5535,"vielmehr":5536,"respond":5537,"gestalten":5538,"wishes":5539,"ambitious":5540,"erforderlichen":5541,"Turk":5542,"Zweifel":5543,"Gesetzgebung":5544,"erwähnt":5545,"Südafr":5546,"Praxis":5547,"Opfer":5548,"früher":5549,"convinc":5550,"Haarder":5551,"EQ":5552,"Some":5553,"UAL":5554,"bad":5555,"sagt":5556,"ähn":5557,"unfortunately":5558,"itors":5559,"dead":5560,"zufolge":5561,"vert":5562,"constitution":5563,"Verhalten":5564,"optim":5565,"spielen":5566,"Stre":5567,"konom":5568,"aka":5569,"utzt":5570,"grundlage":5571,"rift":5572,"zahlreiche":5573,"reduction":5574,"Milliar":5575,"Projekt":5576,"judge":5577,"challenges":5578,"müßte":5579,"exactly":5580,"Kohärenz":5581,"geschehen":5582,"EQUAL":5583,"Dan":5584,"Global":5585,"Mos":5586,"ped":5587,"ature":5588,"orgung":5589,"beziehung":5590,"geworden":5591,"Versch":5592,"Verbr":5593,"votes":5594,"läß":5595,"Umfang":5596,"situ":5597,"ologien":5598,"ständige":5599,"internationale":5600,"sicherlich":5601,"bietet":5602,"committed":5603,"personal":5604,"Darüber":5605,"similar":5606,"schwerwie":5607,"successful":5608,"mäßig":5609,"Familien":5610,"Initiativen":5611,"Economic":5612,"Ad":5613,"Alle":5614,"Denn":5615,"Fahr":5616,"atically":5617,"alter":5618,"reje":5619,"derer":5620,"dence":5621,"urspr":5622,"versucht":5623,"genug":5624,"proz":5625,"Verbindung":5626,"ours":5627,"chtet":5628,"legungen":5629,"Argument":5630,"stands":5631,"Zeitraum":5632,"stimmt":5633,"requires":5634,"Alli":5635,"dealing":5636,"fördert":5637,"explo":5638,"Folge":5639,"January":5640,"commerce":5641,"British":5642,"beglückwünschen":5643,"Nielson":5644,"Che":5645,"GVO":5646,"Sinn":5647,"hor":5648,"ior":5649,"nu":5650,"wonder":5651,"ök":5652,"init":5653,"lehnt":5654,"geäuß":5655,"sech":5656,"gestern":5657,"oppe":5658,"vorher":5659,"tedly":5660,"Berichte":5661,"Grundsätze":5662,"Entscheidungs":5663,"Kinnock":5664,"strategic":5665,"Wochen":5666,"Lux":5667,"intend":5668,"animals":5669,"Ressourcen":5670,"sugges":5671,"erfüllen":5672,"associ":5673,"näher":5674,"labelling":5675,"Allerdings":5676,"Ac":5677,"Macht":5678,"SP":5679,"Spiel":5680,"thre":5681,"union":5682,"alone":5683,"reject":5684,"round":5685,"entspricht":5686,"ampa":5687,"absicht":5688,"Bedenken":5689,"Stär":5690,"approv":5691,"Einbeziehung":5692,"udgets":5693,"läne":5694,"fällen":5695,"Heute":5696,"Kontrollen":5697,"Gleichgewicht":5698,"Herausforderungen":5699,"Herausforderung":5700,"Garant":5701,"spirit":5702,"thinking":5703,"initial":5704,"Di":5705,"Ist":5706,"caus":5707,"keines":5708,"thought":5709,"atch":5710,"ieht":5711,"urge":5712,"Reformen":5713,"Republik":5714,"fellow":5715,"regret":5716,"former":5717,"Geb":5718,"serve":5719,"actual":5720,"minorities":5721,"Rats":5722,"Jahrhunder":5723,"organised":5724,"happ":5725,"break":5726,"kämpfen":5727,"Barn":5728,"demands":5729,"cycling":5730,"IC":5731,"south":5732,"bemü":5733,"geograph":5734,"autom":5735,"grün":5736,"vorlegen":5737,"überein":5738,"spezif":5739,"Aud":5740,"developments":5741,"office":5742,"company":5743,"World":5744,"erklärt":5745,"Januar":5746,"portugiesischen":5747,"providing":5748,"merely":5749,"konzentrieren":5750,"attempt":5751,"ernsthaf":5752,"28":5753,"campa":5754,"gives":5755,"koh":5756,"nes":5757,"reden":5758,"improving":5759,"forth":5760,"heart":5761,"Verletz":5762,"iency":5763,"Präsidenten":5764,"geschieht":5765,"Maßnahme":5766,"beginnen":5767,"Chamber":5768,"bilden":5769,"activity":5770,"Währung":5771,"Konflikt":5772,"Empfehlung":5773,"influ":5774,"Funktion":5775,"Turkish":5776,"ökolog":5777,"),":5778,"IP":5779,"Rules":5780,"dise":5781,"dank":5782,"dauer":5783,"bein":5784,"sele":5785,"llschaften":5786,"verfolgt":5787,"bericht":5788,"granted":5789,"Schließ":5790,"speed":5791,"prefer":5792,"Forderungen":5793,"qualified":5794,"contribute":5795,"Straf":5796,"build":5797,"events":5798,"schwierig":5799,"Investitionen":5800,"beteiligt":5801,"speech":5802,"December":5803,"vehicles":5804,"sensitive":5805,"comprehensive":5806,"Milliarden":5807,"ES":5808,"Lud":5809,"Sach":5810,"dient":5811,"ique":5812,"kürz":5813,"lant":5814,"mä":5815,"tür":5816,"ökonom":5817,"ergriffen":5818,"ino":5819,"onic":5820,"aler":5821,"asbourg":5822,"forced":5823,"vergen":5824,"terr":5825,"neigh":5826,"pet":5827,"send":5828,"Behandlung":5829,"ival":5830,"Anges":5831,"apprec":5832,"prison":5833,"herz":5834,"voc":5835,"gelungen":5836,"sonst":5837,"gleiche":5838,"Strasbourg":5839,"centur":5840,"Never":5841,"zeugung":5842,"erkennung":5843,"trieb":5844,"Aspekt":5845,"Kritik":5846,"Verpflichtung":5847,"Subsid":5848,"colleague":5849,"language":5850,"ynam":5851,"manufactur":5852,"jeweiligen":5853,"Agriculture":5854,"Luxem":5855,"Barnier":5856,"neighbour":5857,"35":5858,"Kaka":5859,"income":5860,"unsch":5861,"unmittel":5862,"entwurf":5863,"schn":5864,"olution":5865,"affairs":5866,"Republic":5867,"observ":5868,"gelöst":5869,"akter":5870,"lause":5871,"penal":5872,"wesend":5873,"grundsätz":5874,"plen":5875,"mainly":5876,"versal":5877,"häufig":5878,"tiket":5879,"Priv":5880,"steps":5881,"zeuger":5882,"letter":5883,"Seiten":5884,"communications":5885,"Volksgesundheit":5886,"Preis":5887,"Vereinbarung":5888,"ordnungs":5889,"manner":5890,"Veränderungen":5891,"Überwachung":5892,"threaten":5893,"campaign":5894,"Ihren":5895,"Pap":5896,"fes":5897,"nöt":5898,"went":5899,"wanted":5900,"erv":5901,"unch":5902,"stabil":5903,"befinden":5904,"einschließlich":5905,"zudem":5906,"heim":5907,"deser":5908,"wortet":5909,"earlier":5910,"trägt":5911,"produced":5912,"Hauses":5913,"iode":5914,"industrial":5915,"positiv":5916,"vorschlä":5917,"definition":5918,"critical":5919,"Geschichte":5920,"institutionellen":5921,"niedr":5922,"appropriations":5923,"gegebenen":5924,"iarity":5925,"After":5926,"wachsen":5927,"Worte":5928,"Erklärungen":5929,"leave":5930,"ehem":5931,"ampere":5932,"konnten":5933,"treatment":5934,"Mittelmeer":5935,"duty":5936,"Harmon":5937,"situations":5938,"Angesichts":5939,"32":5940,"Blick":5941,"Etiket":5942,"Führ":5943,"Gra":5944,"Nutzung":5945,"Tro":5946,"ners":5947,"tland":5948,"zember":5949,"entgegen":5950,"verbind":5951,"raise":5952,"lying":5953,"label":5954,"Anerkennung":5955,"combin":5956,"Vorhaben":5957,"Fri":5958,"linge":5959,"fried":5960,"Gruppe":5961,"supplement":5962,"Dezember":5963,"element":5964,"ausgewogen":5965,"establishment":5966,"acknow":5967,"jene":5968,"wären":5969,"finanzielle":5970,"demokratische":5971,"absolut":5972,"informed":5973,"COM":5974,"andidaten":5975,"erklären":5976,"komp":5977,"portugiesische":5978,"provides":5979,"sinnvoll":5980,"Nieder":5981,"substantial":5982,"ström":5983,"xenophobia":5984,"Sonder":5985,"Tampere":5986,"dlich":5987,"jüng":5988,"rup":5989,"erkennen":5990,"chance":5991,"ancen":5992,"schlagen":5993,"endgült":5994,"etimes":5995,"räsent":5996,"modif":5997,"Grunde":5998,"wält":5999,"gelassen":6000,"attitude":6001,"Bereit":6002,"plant":6003,"sorge":6004,"contains":6005,"orgnis":6006,"grenzung":6007,"verfügen":6008,"betroffenen":6009,"schützen":6010,"Beamten":6011,"beginning":6012,"Verhältnis":6013,"additives":6014,"Ak":6015,"Ere":6016,"Fo":6017,"zedon":6018,"orre":6019,"reffen":6020,"bezieht":6021,"asking":6022,"depend":6023,"schet":6024,"vertre":6025,"istisch":6026,"oss":6027,"export":6028,"excess":6029,"überzeugt":6030,"gerung":6031,"finde":6032,"assungen":6033,"harm":6034,"addressed":6035,"adopting":6036,"versity":6037,"complex":6038,"derzeitigen":6039,"Hause":6040,"transparent":6041,"Italien":6042,"immediately":6043,"Ap":6044,"Hinter":6045,"Lärm":6046,"Lomé":6047,"Zw":6048,"dre":6049,"fluß":6050,"haus":6051,"targe":6052,"wit":6053,"äden":6054,"anten":6055,"une":6056,"rete":6057,"assure":6058,"einsetzen":6059,"eingesetzt":6060,"iction":6061,"steuer":6062,"Anfang":6063,"ernst":6064,"losen":6065,"caution":6066,"supp":6067,"wirklichen":6068,"competen":6069,"brechen":6070,"Gesamt":6071,"involving":6072,"Vereinten":6073,"gewalt":6074,"Systems":6075,"künd":6076,"außerord":6077,"Chance":6078,"künftigen":6079,"charter":6080,"class":6081,"Festlegung":6082,"Stabilität":6083,"rasch":6084,"Flüchtl":6085,"verschiedene":6086,"Cypr":6087,"convinced":6088,"Com":6089,"Eing":6090,"GA":6091,"craft":6092,"dro":6093,"iere":6094,"kaum":6095,"zone":6096,"österreich":6097,"anwesend":6098,"rema":6099,"behalten":6100,"geeig":6101,"coa":6102,"Grü":6103,"ffend":6104,"early":6105,"freien":6106,"Kontin":6107,"Consum":6108,"möglicherweise":6109,"highly":6110,"hängt":6111,"stattfinden":6112,"weeks":6113,"subsidiarity":6114,"Drittens":6115,"Südafrika":6116,"Ludford":6117,"türk":6118,"Subsidiar":6119,"plenary":6120,"schetschen":6121,"remains":6122,"Nur":6123,"Zyp":6124,"fla":6125,"falt":6126,"tief":6127,"yer":6128,"itag":6129,"becoming":6130,"ulated":6131,"ausführ":6132,"existence":6133,"Berücksicht":6134,"mehrere":6135,"factor":6136,"condition":6137,"rechtlichen":6138,"höch":6139,"reducing":6140,"möglichen":6141,"prior":6142,"Produkte":6143,"Fischler":6144,"introduced":6145,"constant":6146,"größere":6147,"territor":6148,"feindlichkeit":6149,"Faktor":6150,"Aktivitäten":6151,"approval":6152,"22":6153,"Bild":6154,"Dann":6155,"Gest":6156,"Ire":6157,"Nutzen":6158,"Pers":6159,"Yugosla":6160,"lit":6161,"attack":6162,"amm":6163,"soz":6164,"uropa":6165,"usw":6166,"lives":6167,"räum":6168,"solutions":6169,"wicklung":6170,"stimmung":6171,"zeichnung":6172,"Health":6173,"vorschlag":6174,"Kollegin":6175,"Bestand":6176,"Gleichzeitig":6177,"Personal":6178,"relationship":6179,"gegenwärtigen":6180,"closely":6181,"commercial":6182,"Straßburg":6183,"Bananen":6184,"Schließlich":6185,"listen":6186,"wants":6187,"thous":6188,"ara":6189,"asch":6190,"sett":6191,"contrad":6192,"laid":6193,"ausschließlich":6194,"stet":6195,"Anal":6196,"Mitarbeit":6197,"trol":6198,"komme":6199,"elected":6200,"höher":6201,"höhung":6202,"German":6203,"Wohl":6204,"Willen":6205,"ECHO":6206,"Fremdenfeindlichkeit":6207,"französischen":6208,"renewable":6209,"Beginn":6210,"Thirdly":6211,"happy":6212,"Nevertheless":6213,"ehemal":6214,"Cyprus":6215,"DE":6216,"Pl":6217,"Sw":6218,"bild":6219,"passen":6220,"wahl":6221,"unkten":6222,"rech":6223,"befassen":6224,"imbab":6225,"forget":6226,"peop":6227,"Verständ":6228,"iveau":6229,"idents":6230,"Schif":6231,"obin":6232,"samm":6233,"balanced":6234,"Alters":6235,"zweifellos":6236,"Meth":6237,"vollständig":6238,"judicial":6239,"regeln":6240,"Instrumente":6241,"tasks":6242,"mbly":6243,"Warum":6244,"announ":6245,"Erfahrungen":6246,"Katastrophe":6247,"möglichkeiten":6248,"kompliz":6249,"Ireland":6250,"peoples":6251,"Sen":6252,"Spain":6253,"Voll":6254,"erneuer":6255,"angeb":6256,"unsten":6257,"einverstanden":6258,"extra":6259,"cocoa":6260,"Kommissionspräsident":6261,"jede":6262,"fügen":6263,"Vorsitzen":6264,"prices":6265,"decide":6266,"typ":6267,"Leist":6268,"positions":6269,"fficiency":6270,"kunfts":6271,"Emiss":6272,"scheinlich":6273,"Resolution":6274,"easy":6275,"Rechnungshof":6276,"Tibet":6277,"criticism":6278,"figures":6279,"study":6280,"Berücksichtigung":6281,"29":6282,"31":6283,"dimension":6284,"hoff":6285,"sult":6286,"ühren":6287,"anf":6288,"arm":6289,"beabsicht":6290,"urban":6291,"sehe":6292,"imit":6293,"veran":6294,"verteid":6295,"pective":6296,"Insel":6297,"grenzen":6298,"osp":6299,"Revision":6300,"Bezug":6301,"appar":6302,"Ausbildung":6303,"Erwä":6304,"lled":6305,"richtungen":6306,"klare":6307,"wait":6308,"Umweltschutz":6309,"begrenz":6310,"sprach":6311,"Risiken":6312,"borders":6313,"sometimes":6314,"block":6315,"vermeiden":6316,"Globalisierung":6317,"Etikett":6318,"kret":6319,"ses":6320,"gegangen":6321,"gezogen":6322,"dep":6323,"zulegen":6324,"Unfortunately":6325,"grunde":6326,"spent":6327,"Erhöhung":6328,"Auto":6329,"permit":6330,"Regulation":6331,"erstör":6332,"Umst":6333,"führungs":6334,"qualität":6335,"Although":6336,"putting":6337,"breiten":6338,"bereitet":6339,"regionale":6340,"join":6341,"calling":6342,"Ministers":6343,"Chancen":6344,"introduce":6345,"Liste":6346,"Milch":6347,"Wettbewerbsfähigkeit":6348,"quote":6349,"schemes":6350,"Moreover":6351,"higher":6352,"sechs":6353,"95":6354,"Car":6355,"Central":6356,"Ethiop":6357,"Go":6358,"Po":6359,"UK":6360,"Will":6361,"ktors":6362,"ausreichen":6363,"Bewertung":6364,"willing":6365,"worth":6366,"lost":6367,"Proced":6368,"stren":6369,"regime":6370,"wart":6371,"concrete":6372,"ließen":6373,"standard":6374,"Mazedon":6375,"occur":6376,"Rechtsgrundlage":6377,"networks":6378,"licherweise":6379,"Neu":6380,"Today":6381,"prüfung":6382,"statements":6383,"diskutiert":6384,"verantwortlich":6385,"keinerlei":6386,"cording":6387,"Fehler":6388,"Roth":6389,"sämtliche":6390,"maximum":6391,"Angola":6392,"Harmonisierung":6393,"Procedure":6394,"By":6395,"Dimension":6396,"Even":6397,"Jo":6398,"Mor":6399,"lom":6400,"zah":6401,"erfolgen":6402,"erläu":6403,"entit":6404,"andels":6405,"deg":6406,"whom":6407,"quot":6408,"politischer":6409,"anderung":6410,"ittees":6411,"Freitag":6412,"compens":6413,"letzte":6414,"adoption":6415,"gewisse":6416,"maßen":6417,"eigene":6418,"guarantees":6419,"vorgesehenen":6420,"happened":6421,"Dennoch":6422,"parliaments":6423,"original":6424,"grounds":6425,"mbol":6426,"Sprachen":6427,"Sprache":6428,"stuff":6429,"reply":6430,"izei":6431,"Höhe":6432,"Voraussetzung":6433,"Spanien":6434,"Mexic":6435,"deliver":6436,"interpret":6437,"planning":6438,"GMOs":6439,"recognised":6440,"Dis":6441,"Lo":6442,"PT":6443,"Zentral":6444,"gh":6445,"unable":6446,"stor":6447,"urance":6448,"weak":6449,"imately":6450,"conciliation":6451,"Rea":6452,"Schwer":6453,"konstru":6454,"freu":6455,"fält":6456,"Control":6457,"ziplin":6458,"öffentlich":6459,"sorg":6460,"unterstütze":6461,"reduced":6462,"aircraft":6463,"mögliche":6464,"promoting":6465,"wünsche":6466,"Why":6467,"Fälle":6468,"andererseits":6469,"vorzulegen":6470,"betrachten":6471,"extend":6472,"advantage":6473,"competitive":6474,"safeguard":6475,"explain":6476,"wiederholen":6477,"Wissenschaft":6478,"enormous":6479,"Auditors":6480,"imbabwe":6481,"300":6482,"equality":6483,"hop":6484,"paper":6485,"unzu":6486,"zuständigen":6487,"verwendet":6488,"launch":6489,"gruppe":6490,"überschreiten":6491,"ikation":6492,"Schaden":6493,"goal":6494,"partners":6495,"Einfluß":6496,"Grenz":6497,"ideas":6498,"proposes":6499,"proposing":6500,"Zusätz":6501,"bound":6502,"ignor":6503,"International":6504,"systeme":6505,"cars":6506,"begrün":6507,"transition":6508,"öffentliche":6509,"außerhalb":6510,"Medien":6511,"Moz":6512,"betrachtet":6513,"harmonisation":6514,"Engagement":6515,"Gewalt":6516,"electronic":6517,"Mazedonien":6518,"Cor":6519,"Hä":6520,"Moment":6521,"Yet":6522,"aktiv":6523,"bra":6524,"pas":6525,"patent":6526,"wind":6527,"ya":6528,"alternative":6529,"beef":6530,"bekämpfung":6531,"sea":6532,"zugrunde":6533,"verbr":6534,"verurs":6535,"genü":6536,"aufmerksam":6537,"Infra":6538,"Anliegen":6539,"jetz":6540,"outcome":6541,"Schritte":6542,"got":6543,"interven":6544,"poses":6545,"aged":6546,"Mitglieds":6547,"dram":6548,"Aufbau":6549,"monopol":6550,"richtige":6551,"elements":6552,"achieving":6553,"representative":6554,"limits":6555,"Problemen":6556,"Kindern":6557,"stärk":6558,"Todes":6559,"media":6560,"fähig":6561,"enterpr":6562,"Italy":6563,"increasingly":6564,"competitiveness":6565,"Dienstleistungen":6566,"Tourismus":6567,"exercise":6568,"läßlich":6569,"schwerwiegen":6570,"sammlung":6571,"Bro":6572,"Can":6573,"Lat":6574,"Mir":6575,"Sa":6576,"cement":6577,"hy":6578,"hre":6579,"mid":6580,"punkte":6581,"wan":6582,"ift":6583,"taint":6584,"estim":6585,"ived":6586,"Stim":6587,"parlament":6588,"Unterschiede":6589,"weiterer":6590,"says":6591,"natur":6592,"iox":6593,"Meinungs":6594,"currency":6595,"äußern":6596,"sprü":6597,"sequently":6598,"COS":6599,"Zweck":6600,"III":6601,"Wahlen":6602,"history":6603,"Iran":6604,"Risiko":6605,"Priorität":6606,"Organisationen":6607,"zusätzliche":6608,"languages":6609,"secure":6610,"immigration":6611,"MEPs":6612,"Mozamb":6613,"Infrastruktur":6614,"Bird":6615,"Punkten":6616,"Tun":6617,"katastrop":6618,"uelle":6619,"vit":6620,"ina":6621,"streichen":6622,"geiz":6623,"tete":6624,"schrän":6625,"impossible":6626,"verbesser":6627,"Europol":6628,"allgemein":6629,"federal":6630,"worfen":6631,"selben":6632,"perman":6633,"ierende":6634,"minority":6635,"Defin":6636,"certaint":6637,"discip":6638,"approve":6639,"Monate":6640,"dürfte":6641,"Produkt":6642,"vorgeschlagene":6643,"burden":6644,"expression":6645,"intends":6646,"Normen":6647,"perspective":6648,"Malta":6649,"freiheit":6650,"wahrscheinlich":6651,"defend":6652,"mechanisms":6653,"conclude":6654,"February":6655,"Erzeugnisse":6656,"wollte":6657,"Beschlüsse":6658,"ufen":6659,"enze":6660,"rechten":6661,"behandeln":6662,"veränder":6663,"verletz":6664,"embar":6665,"genere":6666,"ausdrücklich":6667,"ibi":6668,"gerne":6669,"acter":6670,"iplom":6671,"ized":6672,"marks":6673,"supporting":6674,"zugunsten":6675,"Handl":6676,"signed":6677,"Lösungen":6678,"technologies":6679,"Strukturen":6680,"bedau":6681,"globalisation":6682,"Bevölkerungs":6683,"character":6684,"emphasise":6685,"Serbia":6686,"Roman":6687,"unabhängig":6688,"continuing":6689,"Februar":6690,"sofern":6691,"Kommissionsmitglied":6692,"quotas":6693,"Klar":6694,"flag":6695,"orf":6696,"iment":6697,"noon":6698,"issens":6699,"confirm":6700,"uses":6701,"aussprechen":6702,"ausreichend":6703,"worr":6704,"Schre":6705,"acy":6706,"urely":6707,"unternommen":6708,"Gruppen":6709,"lanzen":6710,"hohe":6711,"intent":6712,"highlight":6713,"Abstimmungen":6714,"guaranteed":6715,"akzeptiert":6716,"choice":6717,"appears":6718,"müßten":6719,"Flüchtlinge":6720,"facilit":6721,"century":6722,"Privat":6723,"Consumer":6724,"Birdal":6725,"70":6726,"Kü":6727,"bureau":6728,"cto":6729,"uals":6730,"anischen":6731,"angebracht":6732,"anschließen":6733,"entschlossen":6734,"igkeits":6735,"verehrte":6736,"olz":6737,"abstimmen":6738,"sogenannten":6739,"opposed":6740,"Commissioners":6741,"vollen":6742,"moder":6743,"precaution":6744,"Mitgliedern":6745,"sibly":6746,"osevic":6747,"bestand":6748,"Dafür":6749,"version":6750,"laws":6751,"gain":6752,"implic":6753,"fleisch":6754,"Beitritt":6755,"taxation":6756,"introduction":6757,"ollar":6758,"Gründe":6759,"gewährleistet":6760,"Milosevic":6761,"umfassende":6762,"carefully":6763,"flexibility":6764,"unterschiedliche":6765,"combating":6766,"defic":6767,"läuft":6768,"scheme":6769,"Macedon":6770,"reagieren":6771,"According":6772,"Zypern":6773,"IS":6774,"Offen":6775,"ca":6776,"iate":6777,"Äthiop":6778,"reib":6779,"omb":6780,"ingt":6781,"imat":6782,"ctor":6783,"neben":6784,"desire":6785,"Unabhäng":6786,"added":6787,"ienz":6788,"Berat":6789,"anderem":6790,"illar":6791,"otherwise":6792,"1994":6793,"Mensch":6794,"Überlegungen":6795,"Überzeugung":6796,"weshalb":6797,"Mechan":6798,"experien":6799,"fehlen":6800,"benefits":6801,"COD":6802,"evidence":6803,"obligations":6804,"ffizienz":6805,"Technologien":6806,"Schweiz":6807,"Empfehlungen":6808,"territory":6809,"breitung":6810,"airo":6811,"Bemerkung":6812,"Zuständigkeit":6813,"Budgetary":6814,"Flex":6815,"Prüfung":6816,"ibilität":6817,"Metho":6818,"degree":6819,"Stimme":6820,"parlamentar":6821,"Mozambique":6822,"King":6823,"Wunsch":6824,"efficiency":6825,"iö":6826,"night":6827,"oben":6828,"enh":6829,"erwar":6830,"annehmen":6831,"ari":6832,"ares":6833,"behau":6834,"einbezogen":6835,"verz":6836,"abgeschlossen":6837,"rail":6838,"wirkt":6839,"destro":6840,"demokraten":6841,"advoc":6842,"feld":6843,"obser":6844,"Vorred":6845,"anderes":6846,"angeht":6847,"ergän":6848,"technischen":6849,"Gesam":6850,"nunmehr":6851,"gave":6852,"Krisen":6853,"vorschlagen":6854,"defined":6855,"managed":6856,"calls":6857,"includes":6858,"Liberalen":6859,"hervorheben":6860,"flexible":6861,"Währungs":6862,"Ratspräsidentschaft":6863,"Irak":6864,"Regionalpolitik":6865,"Landwirte":6866,"behaup":6867,"She":6868,"Tschetschen":6869,"kennt":6870,"mutzung":6871,"rates":6872,"sized":6873,"Öl":6874,"erfahren":6875,"gebe":6876,"geändert":6877,"schwe":6878,"emit":6879,"dacht":6880,"ilst":6881,"heav":6882,"Verf":6883,"indire":6884,"ateful":6885,"benach":6886,"übertragen":6887,"Anspruch":6888,"Einrichtung":6889,"2003":6890,"instance":6891,"ventionen":6892,"decis":6893,"Überprüfung":6894,"Asse":6895,"Seattle":6896,"Mindest":6897,"bereiten":6898,"klaren":6899,"Germany":6900,"Systeme":6901,"Sozialschutz":6902,"niemand":6903,"konkret":6904,"drawing":6905,"Serbien":6906,"Widerspruch":6907,"proportion":6908,"Gedanken":6909,"Diskriminierung":6910,"perfectly":6911,"closer":6912,"Stärkung":6913,"zahlt":6914,"Fün":6915,"High":6916,"dt":6917,"late":6918,"mär":6919,"ugen":6920,"vig":6921,"dere":6922,"leiden":6923,"wid":6924,"impression":6925,"conference":6926,"peten":6927,"erring":6928,"prevention":6929,"mine":6930,"decl":6931,"fulfil":6932,"gestellten":6933,"generally":6934,"integrated":6935,"nieder":6936,"Darum":6937,"Worten":6938,"präz":6939,"substances":6940,"strongly":6941,"Lebensmittelsicherheit":6942,"disasters":6943,"beschäftigen":6944,"recommendation":6945,"Roma":6946,"Bemerkungen":6947,"eingereicht":6948,"adapt":6949,"rejected":6950,"ursprüng":6951,"herzlich":6952,"außerordentlich":6953,"ibiot":6954,"Äthiopien":6955,"%.":6956,"Agre":6957,"Def":6958,"Hung":6959,"Lanno":6960,"Tobin":6961,"Wicht":6962,"Wür":6963,"don":6964,"pft":6965,"uern":6966,"ße":6967,"chair":6968,"undes":6969,"sole":6970,"erecht":6971,"aufzunehmen":6972,"Vergleich":6973,"opou":6974,"Rechten":6975,"lieben":6976,"admit":6977,"Beweis":6978,"facing":6979,"elimin":6980,"Ern":6981,"committees":6982,"Einige":6983,"izon":6984,"timet":6985,"geln":6986,"solcher":6987,"geschrieben":6988,"führten":6989,"angs":6990,"debates":6991,"chnya":6992,"richtlinie":6993,"knows":6994,"technische":6995,"Trans":6996,"züg":6997,"sequent":6998,"contributions":6999,"Kontroll":7000,"improved":7001,"controls":7002,"aims":7003,"improvement":7004,"aufgefordert":7005,"ländliche":7006,"happening":7007,"dienste":7008,"organisationen":7009,"constructive":7010,"streben":7011,"Basis":7012,"Informationsgesellschaft":7013,"sofort":7014,"spartei":7015,"habit":7016,"schlägt":7017,"arrangements":7018,"Vorbereitung":7019,"Chechnya":7020,"Kingdom":7021,"Agreement":7022,"Sy":7023,"jem":7024,"krat":7025,"sachen":7026,"üben":7027,"reaction":7028,"gefü":7029,"andal":7030,"dennoch":7031,"ceil":7032,"Verzö":7033,"ifying":7034,"tabel":7035,"dish":7036,"dispos":7037,"örper":7038,"check":7039,"teilweise":7040,"akzep":7041,"justified":7042,"stellungen":7043,"base":7044,"neues":7045,"wenigen":7046,"Ihrem":7047,"offiz":7048,"Tele":7049,"employed":7050,"versorgung":7051,"Ord":7052,"continent":7053,"New":7054,"represents":7055,"Krimin":7056,"glauben":7057,"starting":7058,"postpon":7059,"binding":7060,"ehrgeiz":7061,"Exper":7062,"meaning":7063,"übrigens":7064,"Modern":7065,"Stabilitäts":7066,"obligation":7067,"erfolgreich":7068,"persönlich":7069,"nonetheless":7070,"afrikanischen":7071,"conduct":7072,"Mosamb":7073,"Grünen":7074,"Tschetschenien":7075,"Assembly":7076,"Lannoye":7077,"akzeptabel":7078,"Dimit":7079,"Lauf":7080,"NS":7081,"Sc":7082,"cou":7083,"cust":7084,"dict":7085,"migr":7086,"range":7087,"zer":7088,"üb":7089,"ergeben":7090,"entstehen":7091,"told":7092,"toler":7093,"gehalten":7094,"einträcht":7095,"wiß":7096,"ouver":7097,"tert":7098,"beide":7099,"series":7100,"drän":7101,"Gemeinsame":7102,"responsibilities":7103,"compuls":7104,"internationaler":7105,"Hinweis":7106,"highl":7107,"Krank":7108,"allowing":7109,"Besorgnis":7110,"surpr":7111,"sources":7112,"detailed":7113,"participate":7114,")).":7115,"nehmbar":7116,"satisf":7117,"Betrugs":7118,"speziell":7119,"Wirklichkeit":7120,"package":7121,"ordnungsgemäß":7122,"Analyse":7123,"Ethiopia":7124,"stuffs":7125,"opoulos":7126,"Don":7127,"Tra":7128,"Viele":7129,"cup":7130,"clim":7131,"dynam":7132,"ucht":7133,"enjo":7134,"erfolgt":7135,"altet":7136,"reiter":7137,"beträcht":7138,"gefördert":7139,"denk":7140,"zulassen":7141,"verweisen":7142,"consen":7143,"ulierung":7144,"coast":7145,"übernommen":7146,"Erzeuger":7147,"Abkommens":7148,"Presse":7149,"lined":7150,"reichung":7151,"Umwel":7152,"Konsequ":7153,"insof":7154,"welcher":7155,"Stadt":7156,"Finn":7157,"Entwicklungspolitik":7158,"Umweltfragen":7159,"Leider":7160,"Charakter":7161,"Brenn":7162,"understanding":7163,"source":7164,"delighted":7165,"Modell":7166,"Partnerschaft":7167,"derartige":7168,"Sektoren":7169,"amerikanischen":7170,"verloren":7171,"Greens":7172,"Redner":7173,"supply":7174,"Definition":7175,"Defiz":7176,"compulsory":7177,"45":7178,"Dienste":7179,"Every":7180,"Krä":7181,"Ober":7182,"attet":7183,"rev":7184,"beauf":7185,"beha":7186,"ash":7187,"geber":7188,"imal":7189,"vereign":7190,"abor":7191,"sovereign":7192,"ilo":7193,"descri":7194,"meant":7195,"grateful":7196,"sensible":7197,"Realität":7198,"Betrifft":7199,"Stud":7200,"Schiff":7201,"uell":7202,"nationaler":7203,"1993":7204,"frecht":7205,"factory":7206,"Formen":7207,"Minutes":7208,"folgendes":7209,"north":7210,"pensions":7211,"staatliche":7212,"interesting":7213,"leaders":7214,"lokalen":7215,"unterschiedlichen":7216,"Voraussetzungen":7217,"distribution":7218,"ausgezeichneten":7219,"fugnisse":7220,"Wiederaufbau":7221,"rakopoulos":7222,"Deutsch":7223,"eingeschränkt":7224,"Ereig":7225,"precautionary":7226,"Dimitrakopoulos":7227,"48":7228,"Byr":7229,"June":7230,"KO":7231,"Many":7232,"Mart":7233,"Rind":7234,"Wales":7235,"nungen":7236,"sser":7237,"äre":7238,"öhn":7239,"entwicklung":7240,"einig":7241,"seven":7242,"secut":7243,"ables":7244,"prosper":7245,"usion":7246,"allzu":7247,"ulations":7248,"ausgesprochen":7249,"überw":7250,"Anfragen":7251,"Anlaß":7252,"legally":7253,"Vorsorge":7254,"Abfälle":7255,"enswert":7256,"undertaking":7257,"anyone":7258,"wirkung":7259,"compat":7260,"Hohen":7261,"employe":7262,"differences":7263,"Krise":7264,"wünsch":7265,"individuals":7266,"Zahlen":7267,"Subject":7268,"subsidies":7269,"erfüllt":7270,"Welche":7271,"pornography":7272,"floor":7273,"influence":7274,"certainty":7275,"Mosambik":7276,"consensus":7277,"Byrne":7278,"44":7279,"Akte":7280,"Ganz":7281,"Kür":7282,"Leinen":7283,"dle":7284,"mach":7285,"münd":7286,"ples":7287,"erzielen":7288,"unru":7289,"itten":7290,"stip":7291,"außen":7292,"schritt":7293,"neither":7294,"iding":7295,"Anforderungen":7296,"daraus":7297,"betont":7298,"angehör":7299,"besonderen":7300,"publ":7301,"examine":7302,"Herzen":7303,"zahlreichen":7304,"sätzen":7305,"promotion":7306,"Übereinstimmung":7307,"größte":7308,"mittler":7309,"grenzüberschreiten":7310,"recommendations":7311,"Fremdenverkehr":7312,"Drittländern":7313,"nahe":7314,"target":7315,"consultation":7316,"declaration":7317,"nuclear":7318,"geäußert":7319,"oppel":7320,"Bos":7321,"Büro":7322,"Effizienz":7323,"Hul":7324,"Juni":7325,"Tagen":7326,"rück":7327,"uct":7328,"va":7329,"vast":7330,"itime":7331,"telt":7332,"igent":7333,"soeben":7334,"istan":7335,"proje":7336,"umfang":7337,"Vermittl":7338,"option":7339,"Report":7340,"Erwart":7341,"fine":7342,"politics":7343,"nachdrücklich":7344,"Grie":7345,"gegenseit":7346,"uropäischen":7347,"getting":7348,"operators":7349,"Stauner":7350,"relig":7351,"spreche":7352,"Freedom":7353,"fragt":7354,"realistic":7355,"folgende":7356,"persons":7357,"technological":7358,"leading":7359,"erwähn":7360,"Feststellung":7361,"protecting":7362,"strafe":7363,"respective":7364,"beschränken":7365,"Green":7366,"exclusion":7367,"Christian":7368,"designed":7369,"Verletzung":7370,"entitled":7371,"KOM":7372,"Are":7373,"Kat":7374,"Kre":7375,"bahn":7376,"frag":7377,"lis":7378,"präsident":7379,"rich":7380,"rational":7381,"tut":7382,"ato":7383,"alte":7384,"gelangen":7385,"dete":7386,"deleg":7387,"verste":7388,"abol":7389,"abend":7390,"empf":7391,"kept":7392,"Befür":7393,"Ents":7394,"Ausgrenzung":7395,"finance":7396,"politic":7397,"nachzu":7398,"freut":7399,"Kohä":7400,"attach":7401,"schiedet":7402,"Vorschlags":7403,"rechtliche":7404,"involves":7405,"seitens":7406,"Ebenso":7407,"eingegangen":7408,"eingeführt":7409,"appeal":7410,"eva":7411,"zielle":7412,"einzigen":7413,"shows":7414,"violations":7415,"conflicts":7416,"Binnenmarktes":7417,"Fortschritt":7418,"beschäftigung":7419,"tackle":7420,"verabschiedet":7421,"elektronischen":7422,"consistent":7423,"Macedonia":7424,"Kohäs":7425,"Budgets":7426,"Jugosla":7427,"Mü":7428,"Meines":7429,"NRO":7430,"Ster":7431,"Sco":7432,"Ter":7433,"VP":7434,"diplom":7435,"klang":7436,"täu":7437,"ene":7438,"erzielt":7439,"ines":7440,"anche":7441,"isp":7442,"atur":7443,"vertrau":7444,"opt":7445,"miteinander":7446,"tail":7447,"vorange":7448,"expe":7449,"spät":7450,"Wege":7451,"Weiter":7452,"ivity":7453,"faced":7454,"Prof":7455,"thereby":7456,"samkeit":7457,"Gewähr":7458,"durchzuführen":7459,"welchen":7460,"drast":7461,"Sitz":7462,"Hersteller":7463,"sprachen":7464,"Teilen":7465,"notwendige":7466,"erfordert":7467,"Verfahrens":7468,"Organe":7469,"North":7470,"simpl":7471,"multi":7472,"Freiheiten":7473,"volution":7474,"huber":7475,"Arbeitsplätzen":7476,"MEDA":7477,"respekt":7478,"Sorgen":7479,"truly":7480,"elsewhere":7481,"Eastern":7482,"Volkspartei":7483,"methods":7484,"Greece":7485,"Aktionsplan":7486,"forthcoming":7487,"Friday":7488,"sozi":7489,"Verständnis":7490,"hoffentlich":7491,"jetzigen":7492,"naturally":7493,"timetable":7494,"disposal":7495,"Erwartungen":7496,"Jugoslawi":7497,"hm":7498,"tie":7499,"envis":7500,"isemit":7501,"unless":7502,"stoff":7503,"lebt":7504,"gek":7505,"geprüft":7506,"denkt":7507,"seien":7508,"schau":7509,"icip":7510,"oul":7511,"proof":7512,"haften":7513,"spie":7514,"Mitentscheid":7515,"mögen":7516,"Erarbeitung":7517,"gers":7518,"obst":7519,"standing":7520,"Übergangs":7521,"gestattet":7522,"pendence":7523,"Security":7524,"amended":7525,"path":7526,"Zielsetzungen":7527,"breite":7528,"Geneva":7529,"valuation":7530,"diversity":7531,"investments":7532,"define":7533,"genannt":7534,"nächste":7535,"allgemeine":7536,"families":7537,"Jetzt":7538,"nevertheless":7539,"Botschaft":7540,"sym":7541,"itzer":7542,"determination":7543,"Schweden":7544,"counterfe":7545,"erheblich":7546,"tariff":7547,"allocated":7548,"größeren":7549,"massive":7550,"bilateral":7551,"linked":7552,"erhöhen":7553,"behörde":7554,"disease":7555,"Yugoslavia":7556,"Mexico":7557,"42":7558,"From":7559,"Mc":7560,"Waffen":7561,"nations":7562,"wing":7563,"erinner":7564,"anstatt":7565,"isierungs":7566,"theit":7567,"beunru":7568,"ofin":7569,"deep":7570,"ama":7571,"veget":7572,"ilater":7573,"achs":7574,"Ungleich":7575,"atever":7576,"spunkt":7577,"Anteil":7578,"Angaben":7579,"annt":7580,"worse":7581,"presence":7582,"Auft":7583,"likely":7584,"barer":7585,"insurance":7586,"anspr":7587,"politically":7588,"occup":7589,"seeking":7590,"binden":7591,"Zielen":7592,"changed":7593,"started":7594,"opening":7595,"Besonder":7596,"bedro":7597,"informieren":7598,"restric":7599,"Socialists":7600,"Agrarpolitik":7601,"Selbstverständlich":7602,"Vereinbarungen":7603,"abgelehnt":7604,"betreffenden":7605,"Russian":7606,"occasions":7607,"Status":7608,"wissenschaftlichen":7609,"suggested":7610,"schnitt":7611,"Modernisierung":7612,"ouverän":7613,"Trade":7614,"%,":7615,"38":7616,"Kategor":7617,"TSE":7618,"Zoll":7619,"crop":7620,"mi":7621,"pillar":7622,"ties":7623,"writ":7624,"erör":7625,"thor":7626,"ardis":7627,"bekräft":7628,"diesbezüglich":7629,"opposition":7630,"ausgehen":7631,"vorgenommen":7632,"spielt":7633,"endor":7634,"codecision":7635,"compar":7636,"compla":7637,"beizu":7638,"supposed":7639,"mindes":7640,"Soll":7641,"comply":7642,"resolve":7643,"Nachbar":7644,"positiven":7645,"opinions":7646,"strategie":7647,"Heimat":7648,"letztendlich":7649,"exists":7650,"Quoten":7651,"contained":7652,"Diskussionen":7653,"Irland":7654,"amongst":7655,"Vielleicht":7656,"herrscht":7657,"Prakt":7658,"Höchst":7659,"britischen":7660,"Spanish":7661,"Russia":7662,"Bösch":7663,"spoken":7664,"emergency":7665,"modified":7666,"flax":7667,"Schiffe":7668,"passed":7669,"custom":7670,"enjoy":7671,"Hulten":7672,"Griechen":7673,"Kenn":7674,"fangen":7675,"hilfen":7676,"passung":7677,"äst":7678,"ermaßen":7679,"chner":7680,"atischen":7681,"itel":7682,"reten":7683,"revision":7684,"reconstruction":7685,"recycling":7686,"aust":7687,"schef":7688,"imposed":7689,"zugelassen":7690,"verlei":7691,"stechn":7692,"coll":7693,"Beif":7694,"Begriff":7695,"fehlt":7696,"failed":7697,"Anzahl":7698,"einerseits":7699,"prem":7700,"consol":7701,"somewhat":7702,"factors":7703,"anging":7704,"wirtschaftung":7705,"festgelegten":7706,"loyment":7707,"besseren":7708,"gewiss":7709,"accounts":7710,"ausschau":7711,"collective":7712,"genannte":7713,"gradu":7714,"regelung":7715,"stock":7716,"vorliegende":7717,"fighting":7718,"Italian":7719,"ampag":7720,"letztlich":7721,"Pflanzen":7722,"Familie":7723,"winden":7724,"Lastly":7725,"speziellen":7726,"benötigen":7727,"Deutschland":7728,"AI":7729,"CNS":7730,"Kop":7731,"Sign":7732,"Zif":7733,"ry":7734,"scr":7735,"won":7736,"ón":7737,"eröff":7738,"arf":7739,"arded":7740,"schung":7741,"verfolg":7742,"verring":7743,"verlangt":7744,"utin":7745,"Verlauf":7746,"gesicher":7747,"ado":7748,"adjust":7749,"Unions":7750,"lower":7751,"treated":7752,"idet":7753,"insist":7754,"ception":7755,"difference":7756,"holding":7757,"seiten":7758,"gewöhn":7759,"practices":7760,"lebens":7761,"Energien":7762,"universal":7763,"Prinzipien":7764,"association":7765,"suffering":7766,"Tiere":7767,"legitimate":7768,"Mexik":7769,"Legal":7770,"incorporated":7771,"anerkannt":7772,"juris":7773,"tätig":7774,"horizon":7775,"competence":7776,"geeigne":7777,"thousands":7778,"permanent":7779,"Schreyer":7780,"decisive":7781,"MU":7782,"Pa":7783,"Ruß":7784,"SV":7785,"Swo":7786,"TA":7787,"ahead":7788,"hü":7789,"hund":7790,"russ":7791,"üter":7792,"erweiter":7793,"erlau":7794,"chsel":7795,"thir":7796,"belong":7797,"gezeigt":7798,"wettbewerb":7799,"heer":7800,"whilst":7801,"ischem":7802,"celon":7803,"meld":7804,"tzung":7805,"liable":7806,"Ausnahme":7807,"geboten":7808,"boda":7809,"fällig":7810,"wirtschaftlicher":7811,"wichtigste":7812,"wiederum":7813,"Flor":7814,"Monetary":7815,"Barcelon":7816,"künftige":7817,"Polizei":7818,"wegs":7819,"exclu":7820,"schreck":7821,"endeav":7822,"emphasis":7823,"demonstrated":7824,"verfügt":7825,"herrschen":7826,"traditional":7827,"reflect":7828,"funktioniert":7829,"separate":7830,"Sweden":7831,"targets":7832,"Fünf":7833,"jemand":7834,"Vorsorgeprinzip":7835,"Bosn":7836,"consolid":7837,"Swoboda":7838,"Barcelona":7839,"75":7840,"EL":7841,"Eigen":7842,"Here":7843,"Hilf":7844,"Lien":7845,"Tai":7846,"fand":7847,"hours":7848,"kungen":7849,"kap":7850,"korre":7851,"mobil":7852,"zerstör":7853,"stö":7854,"icks":7855,"verage":7856,"emann":7857,"acher":7858,"Vers":7859,"Versammlung":7860,"spolit":7861,"bene":7862,"mak":7863,"überzeugen":7864,"Theato":7865,"Stu":7866,"Städ":7867,"Vorbe":7868,"Frist":7869,"Einklang":7870,"fordere":7871,"relative":7872,"greatest":7873,"See":7874,"evening":7875,"requested":7876,"represented":7877,"italien":7878,"capable":7879,"Beste":7880,"substance":7881,"regelmäß":7882,"größten":7883,"umfassend":7884,"familiar":7885,"beschäftigt":7886,"America":7887,"Vielfalt":7888,"advanta":7889,"recognition":7890,"proceedings":7891,"Idee":7892,"concentrate":7893,"NGOs":7894,"Hoffnung":7895,"Streit":7896,"nötig":7897,"Kriminalität":7898,"Ben":7899,"Journal":7900,"Mobil":7901,"Syr":7902,"Vice":7903,"bir":7904,"dign":7905,"ij":7906,"ira":7907,"pi":7908,"uche":7909,"wann":7910,"anas":7911,"itologie":7912,"remarks":7913,"bedeut":7914,"town":7915,"andel":7916,"omit":7917,"urgency":7918,"wealth":7919,"schrift":7920,"olk":7921,"abgestimmt":7922,"vorbe":7923,"space":7924,"spending":7925,"Begründ":7926,"überall":7927,"Schäden":7928,"etc":7929,"woh":7930,"1992":7931,"läufig":7932,"Konzept":7933,"weiteres":7934,"wirksame":7935,"beings":7936,"lautet":7937,"virt":7938,"considers":7939,"considerations":7940,"istenz":7941,"Mittelpunkt":7942,"wesentliche":7943,"resolved":7944,"kommun":7945,"highest":7946,"requirement":7947,"niemals":7948,"rufen":7949,"Komitologie":7950,"experts":7951,"kleiner":7952,"growing":7953,"Milit":7954,"drafting":7955,"amounts":7956,"symbol":7957,"studies":7958,"praktisch":7959,"grundlegenden":7960,"Katastrophen":7961,"involvement":7962,"ecological":7963,"falsch":7964,"occasion":7965,"clean":7966,"kulturellen":7967,"causes":7968,"supplementary":7969,"Hintergrund":7970,"enterprises":7971,"obstac":7972,"Beifall":7973,"Mexiko":7974,"Lienemann":7975,"DS":7976,"Rent":7977,"evaluation":7978,"hemp":7979,"kam":7980,"mm":7981,"island":7982,"tool":7983,"seh":7984,"zuletzt":7985,"verm":7986,"versichern":7987,"genehm":7988,"beraten":7989,"prospe":7990,"werten":7991,"oppos":7992,"mittelt":7993,"vorrang":7994,"Beob":7995,"006":7996,"warm":7997,"mehreren":7998,"rapie":7999,"bringing":8000,"festzulegen":8001,"letzter":8002,"2010":8003,"folgenden":8004,"speaker":8005,"züglich":8006,"bananas":8007,"built":8008,"release":8009,"double":8010,"violence":8011,"clarify":8012,"zusätzlichen":8013,"entirely":8014,"innovation":8015,"immigrants":8016,"menschlichen":8017,"credibility":8018,"betreffend":8019,"Meeres":8020,"infrastructure":8021,"constitutional":8022,"manufacturers":8023,"penalty":8024,"Trotz":8025,"Mitarbeiter":8026,"sorgfält":8027,"implications":8028,"53":8029,"Aktions":8030,"Dring":8031,"Fer":8032,"Futter":8033,"Pact":8034,"cret":8035,"glück":8036,"mill":8037,"präsent":8038,"tests":8039,"erous":8040,"isierten":8041,"eingebracht":8042,"zuständig":8043,"verk":8044,"genutzt":8045,"ides":8046,"Versicher":8047,"vorgelegten":8048,"ends":8049,"antworten":8050,"ahara":8051,"Europeans":8052,"weitgehend":8053,"nachdem":8054,"worked":8055,"undertaken":8056,"supports":8057,"Konsult":8058,"angekünd":8059,"foll":8060,"Foreign":8061,"Secret":8062,"stehende":8063,"waiting":8064,"Rechtsstaat":8065,"plants":8066,"approx":8067,"offenbar":8068,"Monti":8069,"hängen":8070,"Haushaltskontrolle":8071,"stattung":8072,"Only":8073,"visit":8074,"ikanen":8075,"kleine":8076,"ixed":8077,"Behörde":8078,"hebung":8079,"schwierigen":8080,"Director":8081,"jährlich":8082,"Mißbrauch":8083,"Tagung":8084,"nütz":8085,"innovative":8086,"Zusatzstoffe":8087,"remote":8088,"verurteilt":8089,"extension":8090,"emissions":8091,"feeding":8092,"eseitigung":8093,"judgement":8094,"Verbrennung":8095,"Joint":8096,"Zusätzlichkeit":8097,"verbessert":8098,"Flexibilität":8099,"Ordnung":8100,"horizontal":8101,"Dub":8102,"ED":8103,"Mid":8104,"Rural":8105,"Vier":8106,"Vitor":8107,"hom":8108,"pat":8109,"ückt":8110,"changing":8111,"record":8112,"bezeichnet":8113,"deten":8114,"depart":8115,"sets":8116,"imag":8117,"fores":8118,"conce":8119,"conta":8120,"convention":8121,"Verbreitung":8122,"geste":8123,"suit":8124,"Any":8125,"Anders":8126,"comit":8127,"Ausarbeitung":8128,"formal":8129,"Vorausschau":8130,"moving":8131,"inclus":8132,"possibly":8133,"hinder":8134,"sold":8135,"Konta":8136,"courage":8137,"Assozi":8138,"großes":8139,"protected":8140,"realise":8141,"vollkommen":8142,"Nachdruck":8143,"Problems":8144,"Hindern":8145,"Berichterstatters":8146,"höchst":8147,"definite":8148,"payment":8149,"calc":8150,"sides":8151,"introducing":8152,"Entwicklungsländer":8153,"leader":8154,"stood":8155,"markts":8156,"prepare":8157,"potent":8158,"domin":8159,"respected":8160,"additionality":8161,"Nahrungsmittelhilfe":8162,"territorial":8163,"intentions":8164,"benachteil":8165,"erinnert":8166,"Dublin":8167,"Effe":8168,"FP":8169,"Kou":8170,"Klim":8171,"Such":8172,"astr":8173,"average":8174,"gone":8175,"nerst":8176,"sha":8177,"zieren":8178,"unbe":8179,"beeinträcht":8180,"ases":8181,"gewissen":8182,"section":8183,"sekret":8184,"verwe":8185,"ille":8186,"proble":8187,"diesbezü":8188,"tsein":8189,"trib":8190,"lad":8191,"Real":8192,"spür":8193,"willigen":8194,"feil":8195,"ahen":8196,"sieben":8197,"Einigung":8198,"mehrfach":8199,"economies":8200,"Genehm":8201,"Regierungschef":8202,"Verbraucherpolitik":8203,"Straßen":8204,"Atlant":8205,"aimed":8206,"effectiveness":8207,"bereiche":8208,"ifizierung":8209,"profess":8210,"expectations":8211,"Basque":8212,"würdigkeit":8213,"Handeln":8214,"Democrat":8215,"gewähl":8216,"figure":8217,"Untersuchung":8218,"briefly":8219,"vergence":8220,"jüngsten":8221,"wältigen":8222,"announced":8223,"Umständen":8224,"Disziplin":8225,"dignity":8226,"wohner":8227,"Kouchner":8228,"34":8229,"Bundes":8230,"Mann":8231,"Mot":8232,"Osten":8233,"West":8234,"card":8235,"fats":8236,"gin":8237,"sal":8238,"ints":8239,"einstimm":8240,"anda":8241,"omin":8242,"versicher":8243,"prove":8244,"Innov":8245,"Instead":8246,"exem":8247,"schafft":8248,"Schro":8249,"gerufen":8250,"Abänder":8251,"modell":8252,"beiträ":8253,"spezielle":8254,"illustr":8255,"conserv":8256,"seines":8257,"acting":8258,"freund":8259,"deckt":8260,"uchs":8261,"operational":8262,"Zusammenhalt":8263,"welchem":8264,"Zeitplan":8265,"wenige":8266,"examples":8267,"wichtiges":8268,"zweifel":8269,"happens":8270,"Liikanen":8271,"meetings":8272,"ehrten":8273,"mutual":8274,"improvements":8275,"stoßen":8276,"Socialist":8277,"sufficiently":8278,"Forschungs":8279,"menschliche":8280,"Gelder":8281,"nationals":8282,"referring":8283,"Western":8284,"Zeichen":8285,"Todesstrafe":8286,"Vorredner":8287,"climate":8288,"thorough":8289,"AIDS":8290,"016":8291,"46":8292,"Bau":8293,"Hoch":8294,"Mand":8295,"cities":8296,"east":8297,"mob":8298,"nut":8299,"sach":8300,"ull":8301,"üg":8302,"erarbeitet":8303,"inzwischen":8304,"isol":8305,"ley":8306,"bekämpfen":8307,"verdient":8308,"dac":8309,"issu":8310,"confir":8311,"conven":8312,"convergence":8313,"hafte":8314,"trial":8315,"mitteilen":8316,"Bewer":8317,"Because":8318,"Beisp":8319,"felt":8320,"Anlagen":8321,"Then":8322,"Ausrichtung":8323,"elig":8324,"partly":8325,"izüg":8326,"zwungen":8327,"producing":8328,"laut":8329,"Arbeiten":8330,"financed":8331,"Programmen":8332,"Dav":8333,"airports":8334,"Wettbewerbspolitik":8335,"eingehalten":8336,"eingeleitet":8337,"gutes":8338,"viour":8339,"Zustand":8340,"appell":8341,"expert":8342,"informiert":8343,"eindeutige":8344,"equip":8345,"geltenden":8346,"repeated":8347,"ührt":8348,"preparing":8349,"Tourism":8350,"Prozent":8351,"details":8352,"extensive":8353,"bestätigt":8354,"österreichischen":8355,"erneuerbaren":8356,"behaviour":8357,"Rindfleisch":8358,"compatible":8359,"politicians":8360,"expected":8361,"mindestens":8362,"Beispiele":8363,"Dro":8364,"Dän":8365,"Lie":8366,"Mol":8367,"PH":8368,"Souverän":8369,"Zul":8370,"abe":8371,"ba":8372,"bio":8373,"dent":8374,"dritten":8375,"fare":8376,"ifor":8377,"lif":8378,"sü":8379,"Är":8380,"inational":8381,"retain":8382,"auton":8383,"ication":8384,"verlangen":8385,"teren":8386,"whatever":8387,"umzusetzen":8388,"meat":8389,"auseinander":8390,"sens":8391,"ckx":8392,"Angriff":8393,"Anpassung":8394,"worte":8395,"Schreiben":8396,"gert":8397,"links":8398,"assume":8399,"ört":8400,"hands":8401,"solve":8402,"solid":8403,"uba":8404,"considerably":8405,"wahren":8406,"innere":8407,"Left":8408,"rapporteurs":8409,"Bedarf":8410,"subjects":8411,"begrüßt":8412,"personally":8413,"Organismen":8414,"kurzem":8415,"krimin":8416,"applying":8417,"heading":8418,"Gegensatz":8419,"Luftverkehr":8420,"Obwohl":8421,"würdig":8422,"Waren":8423,"gebiete":8424,"exception":8425,"Wachstums":8426,"Einwanderung":8427,"bestätigen":8428,"ernsthaft":8429,"unmittelbar":8430,"gegebenenfalls":8431,"Flüchtlings":8432,"Perspe":8433,"secutor":8434,"Sterckx":8435,"beunruh":8436,"Praktiken":8437,"verleihen":8438,"Begründung":8439,"Beseitigung":8440,"Dary":8441,"Pens":8442,"ZB":8443,"cast":8444,"günst":8445,"ws":8446,"engen":8447,"chung":8448,"itzen":8449,"roo":8450,"room":8451,"geehrte":8452,"dez":8453,"weap":8454,"schw":8455,"schreiben":8456,"edter":8457,"dahin":8458,"proto":8459,"tzeit":8460,"ausgaben":8461,"endt":8462,"identity":8463,"regarded":8464,"Ernen":8465,"darunter":8466,"incent":8467,"linary":8468,"ishing":8469,"maritime":8470,"hole":8471,"damals":8472,"Maastr":8473,"overcome":8474,"Gemeinschaften":8475,"vieler":8476,"natür":8477,"pakt":8478,"Politiker":8479,"bestimmt":8480,"bestimmter":8481,"refers":8482,"signal":8483,"Bedür":8484,"Antworten":8485,"ikanische":8486,"ktivität":8487,"globalen":8488,"peaceful":8489,"reaching":8490,"tempor":8491,"umfassenden":8492,"obligator":8493,"Märkte":8494,"extended":8495,"failure":8496,"mandate":8497,"facilities":8498,"humanitären":8499,"Dienstleistungs":8500,"materials":8501,"inspection":8502,"kohär":8503,"Zwischen":8504,"Switzer":8505,"types":8506,"heavy":8507,"sovereignty":8508,"Jugoslawien":8509,"Ferber":8510,"followed":8511,"Secretary":8512,"comitology":8513,"Schroedter":8514,"Switzerland":8515,"41":8516,"Ano":8517,"Bil":8518,"Bolk":8519,"Glück":8520,"Ident":8521,"dorf":8522,"efe":8523,"echte":8524,"pir":8525,"wal":8526,"written":8527,"án":8528,"attra":8529,"atisation":8530,"ream":8531,"remark":8532,"ark":8533,"entweder":8534,"lehnung":8535,"bek":8536,"geist":8537,"ingdorf":8538,"verhalten":8539,"ctors":8540,"diesel":8541,"gestr":8542,"oppose":8543,"withdraw":8544,"estein":8545,"advis":8546,"Beachtung":8547,"Betrieb":8548,"Ausnahmen":8549,"Ausmaß":8550,"ugg":8551,"Parlamente":8552,"Geber":8553,"kannten":8554,"solches":8555,"schließt":8556,"Entwicklungen":8557,"monetary":8558,"richtigen":8559,"Freizüg":8560,"complic":8561,"abling":8562,"Problematik":8563,"häfen":8564,"industries":8565,"competent":8566,"gewinnen":8567,"Beiträ":8568,"Sozialpolitik":8569,"payments":8570,"Gleichstellung":8571,"Kompeten":8572,"purposes":8573,"privaten":8574,"Baringdorf":8575,"Entwicklungsländern":8576,"triebe":8577,"Gegenstand":8578,"quota":8579,"Außenpolitik":8580,"grundlegende":8581,"breitet":8582,"beschränkt":8583,"immediate":8584,"genetically":8585,"Randlage":8586,"Instanz":8587,"constitute":8588,"Graefe":8589,"Akin":8590,"excessive":8591,"türkischen":8592,"Bestandteil":8593,"contradict":8594,"employees":8595,"Rußland":8596,"Dänem":8597,"Another":8598,"Bolkestein":8599,"47":8600,"AO":8601,"Dingen":8602,"Ele":8603,"EZB":8604,"Fet":8605,"Grem":8606,"Glaub":8607,"Wissens":8608,"evalu":8609,"fill":8610,"leng":8611,"lös":8612,"phen":8613,"inadequate":8614,"aters":8615,"iegen":8616,"rea":8617,"rechen":8618,"stoffen":8619,"befaßt":8620,"zuläss":8621,"protest":8622,"irregular":8623,"aufen":8624,"ulner":8625,"voran":8626,"cker":8627,"endum":8628,"haltet":8629,"Anderer":8630,"hence":8631,"lob":8632,"apart":8633,"parallel":8634,"ikations":8635,"regionen":8636,"Schne":8637,"Vorrang":8638,"interested":8639,"Ablehnung":8640,"konvention":8641,"lächen":8642,"sites":8643,"geschü":8644,"debt":8645,"debatt":8646,"ott":8647,"sicherzustellen":8648,"Alter":8649,"rechtfert":8650,"processes":8651,"Gesicht":8652,"Finanzierungs":8653,"Eurodac":8654,"secondly":8655,"taxes":8656,"Produktion":8657,"wachstum":8658,"derzeitige":8659,"Marktes":8660,"hervorge":8661,"freedoms":8662,"Kinderpornograph":8663,"multinational":8664,"leistungen":8665,"Denmark":8666,"Übereinkommens":8667,"krieg":8668,"farming":8669,"offers":8670,"Engl":8671,"truth":8672,"wesentlicher":8673,"satisfactory":8674,"einheitliche":8675,"ptsäch":8676,"ordnungen":8677,"hinzufügen":8678,"Perhaps":8679,"granting":8680,"bemüht":8681,"Funktionieren":8682,"beinhaltet":8683,"Food":8684,"Etikettierung":8685,"Reaktion":8686,"Häfen":8687,"facilitate":8688,"ursprünglichen":8689,"iloso":8690,"Ereignisse":8691,"vegetable":8692,"Taiwan":8693,"inclusion":8694,"Regierungschefs":8695,"Maastricht":8696,"Andererseits":8697,"Kinderpornographie":8698,"010":8699,"Aust":8700,"Du":8701,"Dut":8702,"Häl":8703,"Lang":8704,"Labour":8705,"Ohne":8706,"Wall":8707,"körper":8708,"latter":8709,"pie":8710,"phase":8711,"vulner":8712,"öder":8713,"erneu":8714,"erleicht":8715,"erhält":8716,"anc":8717,"orum":8718,"städ":8719,"stressed":8720,"entstanden":8721,"impose":8722,"verwiesen":8723,"abuse":8724,"uting":8725,"trust":8726,"ktiver":8727,"grenze":8728,"Europäer":8729,"goals":8730,"obli":8731,"führte":8732,"merken":8733,"courts":8734,"relates":8735,"strukt":8736,"Zudem":8737,"governance":8738,"sicherstellen":8739,"ategory":8740,"inevit":8741,"zweck":8742,"Leute":8743,"numerous":8744,"talks":8745,"Arbeitsmarkt":8746,"ships":8747,"core":8748,"finanziert":8749,"förder":8750,"Having":8751,"gratulieren":8752,"evident":8753,"played":8754,"firmly":8755,"beantra":8756,"verstärken":8757,"coherent":8758,"Landwirtschafts":8759,"einheitlichen":8760,"Belgien":8761,"planned":8762,"Untersuchungen":8763,"Zivilgesellschaft":8764,"äumt":8765,"Territor":8766,"arguments":8767,"restrictions":8768,"Allianz":8769,"Niederland":8770,"räumen":8771,"Küsten":8772,"destroy":8773,"Würde":8774,"couple":8775,"prosperity":8776,"Griechenland":8777,"wettbewerbs":8778,"Vitorino":8779,"sekretär":8780,"Freizügigkeit":8781,"Hälfte":8782,"55":8783,"Alt":8784,"Dollar":8785,"Phase":8786,"Renten":8787,"bor":8788,"hle":8789,"hem":8790,"house":8791,"lust":8792,"mlich":8793,"orgt":8794,"leun":8795,"beob":8796,"touch":8797,"dak":8798,"het":8799,"Verurs":8800,"Ins":8801,"vorhin":8802,"split":8803,"mail":8804,"Anträge":8805,"Anmerk":8806,"annien":8807,"ionsfonds":8808,"therlands":8809,"register":8810,"Wird":8811,"warn":8812,"Vorsitz":8813,"ighten":8814,"freie":8815,"decentral":8816,"news":8817,"Unterschied":8818,"gleichheit":8819,"igerung":8820,"relativ":8821,"compli":8822,"qualit":8823,"paßt":8824,"requests":8825,"Netherlands":8826,"Arbeitszeit":8827,"strategischen":8828,"Gerichts":8829,"iums":8830,"follows":8831,"banana":8832,"größt":8833,"difficulty":8834,"197":8835,"hauptsäch":8836,"hervorragen":8837,"uniform":8838,"keeping":8839,"strafrecht":8840,"leitung":8841,"entwickelten":8842,"Palest":8843,"demonstrate":8844,"easier":8845,"beantworten":8846,"befürworten":8847,"britannien":8848,"Großbritannien":8849,"distributed":8850,"Gebäu":8851,"terror":8852,"ehemaligen":8853,"verletzungen":8854,"märkte":8855,"highlighted":8856,"Katifor":8857,"Klima":8858,"Bewerber":8859,"Glaubwürdigkeit":8860,"Katiforis":8861,"Blok":8862,"Clear":8863,"Other":8864,"Women":8865,"awaren":8866,"büro":8867,"diction":8868,"hib":8869,"kn":8870,"kre":8871,"rid":8872,"tungs":8873,"erfordern":8874,"erscheint":8875,"intelle":8876,"entre":8877,"lehnen":8878,"bele":8879,"befindet":8880,"absur":8881,"resist":8882,"usual":8883,"liber":8884,"vorstellen":8885,"elder":8886,"beigetragen":8887,"Wirkung":8888,"ennungsan":8889,"gericht":8890,"Vorlage":8891,"Einschrän":8892,"mußten":8893,"instream":8894,"stande":8895,"operating":8896,"intoler":8897,"großem":8898,"Free":8899,"danach":8900,"Debatten":8901,"finding":8902,"Once":8903,"afternoon":8904,"zweitens":8905,"EURO":8906,"essentially":8907,"succeed":8908,"preventing":8909,"applicable":8910,"Vertretern":8911,"leistung":8912,"Flughäfen":8913,"negativen":8914,"Steuerzahl":8915,"Positionen":8916,"kräfte":8917,"strengthening":8918,"correctly":8919,"supervision":8920,"Männern":8921,"nachhaltige":8922,"ausgezeichnete":8923,"ROM":8924,"nearly":8925,"Garantie":8926,"Bereitstellung":8927,"Brenner":8928,"verstehe":8929,"millions":8930,"strukture":8931,"awareness":8932,"43":8933,"Aut":8934,"Four":8935,"Holz":8936,"Säu":8937,"Yes":8938,"cop":8939,"doppel":8940,"fas":8941,"purely":8942,"slight":8943,"slow":8944,"erteilen":8945,"thly":8946,"annehmbar":8947,"atische":8948,"tex":8949,"deck":8950,"weight":8951,"tene":8952,"abstain":8953,"hrendt":8954,"umfaßt":8955,"ido":8956,"auftreten":8957,"werfen":8958,"Verbot":8959,"grie":8960,"code":8961,"Behrendt":8962,"Annäher":8963,"Stability":8964,"wasser":8965,"preser":8966,"Berichten":8967,"durchführen":8968,"anzun":8969,"gebaut":8970,"Grundsätzen":8971,"debating":8972,"fuhr":8973,"wirtschaftlich":8974,"tragung":8975,"handels":8976,"statist":8977,"necessarily":8978,"lernen":8979,"jener":8980,"nehme":8981,"taxpay":8982,"zusammenarbeiten":8983,"griffe":8984,"Projekten":8985,"Haug":8986,"Förder":8987,"Generaldire":8988,"violation":8989,"Verbesserungen":8990,"bekanntlich":8991,"choose":8992,"komple":8993,"equally":8994,"beteiligen":8995,"determined":8996,"verstärkt":8997,"Beitrittsk":8998,"Britain":8999,"Erfahrung":9000,"motiv":9001,"Legisl":9002,"Prozesses":9003,"Wahrung":9004,"Greek":9005,"explanation":9006,"prozesses":9007,"exploitation":9008,"keineswegs":9009,"appreciate":9010,"threatened":9011,"vorschläge":9012,"constantly":9013,"rechtzeit":9014,"compensation":9015,"disciplinary":9016,"generell":9017,"Mechanismen":9018,"described":9019,"sympa":9020,"restricted":9021,"Hilfs":9022,"Souveränität":9023,"Bedürf":9024,"phenomen":9025,"39":9026,"AT":9027,"FY":9028,"Kle":9029,"Rin":9030,"Vallel":9031,"bann":9032,"btedly":9033,"cro":9034,"gst":9035,"kil":9036,"mosp":9037,"nine":9038,"tä":9039,"waters":9040,"erlassen":9041,"inhalt":9042,"orous":9043,"react":9044,"becomes":9045,"died":9046,"auber":9047,"urteilung":9048,"sebene":9049,"oubtedly":9050,"soweit":9051,"soever":9052,"ausende":9053,"spart":9054,"überlassen":9055,"ager":9056,"trace":9057,"Vorteile":9058,"unterstreichen":9059,"ersund":9060,"politisches":9061,"butter":9062,"hinweg":9063,"consc":9064,"gebill":9065,"facts":9066,"gesellschaften":9067,"places":9068,"considering":9069,"vessels":9070,"Also":9071,"bereitgestellt":9072,"Gesellschaften":9073,"transl":9074,"stärken":9075,"independence":9076,"förderung":9077,"genauso":9078,"bedauer":9079,"While":9080,"applicant":9081,"affects":9082,"Binnenmarkts":9083,"verschär":9084,"äußerster":9085,"Während":9086,"treaties":9087,"easily":9088,"indicated":9089,"determine":9090,"Welth":9091,"explained":9092,"Hafen":9093,"beruht":9094,"speriode":9095,"garantieren":9096,"functioning":9097,"Elemente":9098,"fifteen":9099,"Danish":9100,"Alliance":9101,"Jahrhundert":9102,"Luxembourg":9103,"Kakaob":9104,"Papier":9105,"acknowledge":9106,"Kontinent":9107,"Subsidiarität":9108,"Platz":9109,"beabsichtigt":9110,"intervene":9111,"insofern":9112,"wonach":9113,"opposite":9114,"hervorgehoben":9115,"vulnerable":9116,"Blokland":9117,"FYROM":9118,"Vallelersund":9119,"500":9120,"CIT":9121,"Hab":9122,"Hanf":9123,"Kir":9124,"Mut":9125,"PSE":9126,"Sk":9127,"Wur":9128,"bomb":9129,"categor":9130,"journal":9131,"jido":9132,"kü":9133,"lists":9134,"messen":9135,"sinc":9136,"erzeug":9137,"erarbeiten":9138,"betrieben":9139,"gearbeitet":9140,"schlag":9141,"genie":9142,"noted":9143,"neun":9144,"utung":9145,"Versuch":9146,"Verring":9147,"Verlust":9148,"ausgeschlossen":9149,"exter":9150,"identified":9151,"cooperate":9152,"Betra":9153,"shared":9154,"Ank":9155,"Erhaltung":9156,"herstellung":9157,"ipher":9158,"Parlamentar":9159,"Einrichtungen":9160,"pleas":9161,"gelingt":9162,"Internationalen":9163,"basically":9164,"ansprechen":9165,"network":9166,"rechtlich":9167,"Herkunfts":9168,"aviation":9169,"ordinary":9170,"handlungen":9171,"jenen":9172,"starken":9173,"pays":9174,"einzelne":9175,"gebrachten":9176,"zusammenarbeit":9177,"Produktions":9178,"carrying":9179,"ECB":9180,"feeling":9181,"surv":9182,"entscheidende":9183,"entscheidenden":9184,"passiert":9185,"sexual":9186,"maintaining":9187,"poorest":9188,"funktionieren":9189,"Belgium":9190,"interessiert":9191,"längerung":9192,"Männer":9193,"Gespräche":9194,"Stoffe":9195,"mistake":9196,"associated":9197,"ICAO":9198,"dankbar":9199,"mächt":9200,"neighbouring":9201,"erläutern":9202,"Unabhängigkeit":9203,"chairman":9204,"Kräfte":9205,"endorse":9206,"Andersson":9207,"Genehmigung":9208,"Dänemark":9209,"ilosoph":9210,"dakis":9211,"griech":9212,"anzunehmen":9213,"Vallelersundi":9214,"33":9215,"Ejido":9216,"Get":9217,"Kandidaten":9218,"Sh":9219,"Trad":9220,"aken":9221,"beseit":9222,"eder":9223,"greif":9224,"glad":9225,"korr":9226,"zt":9227,"ähl":9228,"ergibt":9229,"erleben":9230,"anse":9231,"replace":9232,"stät":9233,"einger":9234,"forem":9235,"verpflicht":9236,"tere":9237,"aband":9238,"conventions":9239,"umed":9240,"Verträgen":9241,"Verfassung":9242,"Verbrechen":9243,"Uni":9244,"Inkraft":9245,"Represent":9246,"Betrag":9247,"Ausnah":9248,"percent":9249,"undertake":9250,"whatsoever":9251,"saving":9252,"acts":9253,"Menge":9254,"court":9255,"amending":9256,"plies":9257,"angestre":9258,"Abstimmungs":9259,"Netz":9260,"Netze":9261,"Brief":9262,"Sicherheitspolitik":9263,"einfachen":9264,"drücken":9265,"Österreichs":9266,"Employment":9267,"restruct":9268,"Boden":9269,"phys":9270,"racist":9271,"unerläßlich":9272,"concluded":9273,"continued":9274,"telecommunications":9275,"GMO":9276,"trafficking":9277,"Swedish":9278,"militärischen":9279,"kürzlich":9280,"grundsätzlich":9281,"Senkung":9282,"verteidigen":9283,"Chancengleichheit":9284,"Ernähr":9285,"counterfeiting":9286,"Auftrag":9287,"gesichert":9288,"jurisdiction":9289,"relatively":9290,"Militär":9291,"Middle":9292,"eligible":9293,"Identität":9294,"Verringerung":9295,"foremost":9296,"Akt":9297,"DR":9298,"Eisen":9299,"Präs":9300,"Pläne":9301,"TEN":9302,"dän":9303,"eten":9304,"pap":9305,"trop":9306,"twent":9307,"zenten":9308,"ended":9309,"erad":9310,"charge":9311,"ony":9312,"atal":9313,"bewältigen":9314,"teten":9315,"undoubtedly":9316,"schö":9317,"zukommen":9318,"iry":9319,"lap":9320,"vorzunehmen":9321,"loc":9322,"appointed":9323,"jective":9324,"Ausbe":9325,"Auseinander":9326,"Schuld":9327,"Arten":9328,"Beruf":9329,"count":9330,"Fragest":9331,"durchge":9332,"solange":9333,"folgung":9334,"angehen":9335,"welches":9336,"welfare":9337,"yourself":9338,"voller":9339,"centre":9340,"Gerade":9341,"answers":9342,"kurzfrist":9343,"Cooperation":9344,"ferner":9345,"Minderheit":9346,"reserv":9347,"delays":9348,"Ferner":9349,"verabschieden":9350,"Kuhne":9351,"acquis":9352,"Schlüssel":9353,"früheren":9354,"Fahrzeuge":9355,"Vollbeschäftigung":9356,"Brok":9357,"Handlungs":9358,"ergänzen":9359,"Krankheit":9360,"beauftrag":9361,"Ziffer":9362,"scrutin":9363,"einstimmig":9364,"Verursacher":9365,"compliance":9366,"Clearly":9367,"texts":9368,"020":9369,"81":9370,"85":9371,"During":9372,"Oz":9373,"Raums":9374,"Vize":9375,"Where":9376,"Zimbabwe":9377,"dung":9378,"dritte":9379,"ote":9380,"sil":9381,"erhoben":9382,"anische":9383,"gewiß":9384,"igu":9385,"zugleich":9386,"forese":9387,"verlassen":9388,"verwenden":9389,"verändert":9390,"cting":9391,"proved":9392,"aufnehmen":9393,"Verlängerung":9394,"tzten":9395,"ausgesetzt":9396,"ausstattung":9397,"spread":9398,"Parität":9399,"Befugnisse":9400,"sho":9401,"shilfe":9402,"Auswahl":9403,"trages":9404,"stake":9405,"Einer":9406,"Einheit":9407,"Einkommen":9408,"wässer":9409,"konstitution":9410,"konsequent":9411,"anker":9412,"understood":9413,"frequ":9414,"zwangs":9415,"Internal":9416,"responding":9417,"effektiv":9418,"gestaltet":9419,"lesen":9420,"environmentally":9421,"largely":9422,"Gebiets":9423,"Amts":9424,"koordin":9425,"Verbraucherschutz":9426,"finanziell":9427,"smaller":9428,"openha":9429,"ikaner":9430,"Durchführungs":9431,"Gemeinschaftsinitiative":9432,"membership":9433,"Verhandlungs":9434,"gegenwärtige":9435,"Generalsekretär":9436,"aktuellen":9437,"Gesetzgeb":9438,"fields":9439,"erwähnen":9440,"distort":9441,"Luftverkehrs":9442,"Staatsan":9443,"encouraging":9444,"restor":9445,"Plenar":9446,"rapidly":9447,"motions":9448,"historic":9449,"Haftung":9450,"allocation":9451,"nachhaltigen":9452,"Kommunikation":9453,"advance":9454,"unanimously":9455,"bemühen":9456,"Kakao":9457,"acknowled":9458,"witness":9459,"ghter":9460,"satisfied":9461,"Studien":9462,"published":9463,"professional":9464,"elderly":9465,"Beitrittskandidaten":9466,"sincere":9467,"Präsid":9468,"Vizepräsident":9469,"Bureau":9470,"Eigent":9471,"Fas":9472,"Gu":9473,"Gerecht":9474,"Redu":9475,"Wähl":9476,"dlichen":9477,"ell":9478,"eight":9479,"gap":9480,"kto":9481,"rassist":9482,"übt":9483,"infr":9484,"unmöglich":9485,"unnecessary":9486,"entsteht":9487,"getr":9488,"gefaßt":9489,"uren":9490,"forme":9491,"tend":9492,"absen":9493,"nex":9494,"ressourcen":9495,"estic":9496,"vorliegt":9497,"vorbereitet":9498,"liefert":9499,"steuropa":9500,"lock":9501,"ikas":9502,"Schwä":9503,"Schicks":9504,"Erit":9505,"commod":9506,"ultimately":9507,"Einstellung":9508,"Gewicht":9509,"Gefahren":9510,"1990":9511,"gelingen":9512,"minutes":9513,"angewand":9514,"zwingen":9515,"importantly":9516,"lausel":9517,"breach":9518,"Herkunft":9519,"valid":9520,"Haushaltsjahr":9521,"Head":9522,"Prime":9523,"glaub":9524,"definiert":9525,"starke":9526,"uerung":9527,"Bestre":9528,"Situationen":9529,"Unternehmens":9530,"verschle":9531,"explic":9532,"flation":9533,"Aspekten":9534,"gefährlichen":9535,"marked":9536,"jährigen":9537,"strukturen":9538,"verantwortungs":9539,"verhindert":9540,"angemessene":9541,"preparation":9542,"ärmsten":9543,"suffered":9544,"urgently":9545,"verlieren":9546,"television":9547,"schlimm":9548,"französische":9549,"beruhen":9550,"brochen":9551,"seekers":9552,"condemned":9553,"langfristig":9554,"primary":9555,"primarily":9556,"spezifischen":9557,"Faktoren":9558,"depth":9559,"Laufe":9560,"Konsequenzen":9561,"crops":9562,"austausch":9563,"Signal":9564,"excluded":9565,"forestry":9566,"Assoziierungs":9567,"Disziplinar":9568,"issued":9569,"confirmed":9570,"Dutch":9571,"hauptsächlich":9572,"Annäherung":9573,"Fragestunde":9574,".,":9575,"700":9576,"96":9577,"Bis":9578,"Buch":9579,"Cit":9580,"Ech":9581,"Gang":9582,"Nein":9583,"Niveau":9584,"UE":9585,"fted":9586,"flow":9587,"iqu":9588,"limin":9589,"pict":9590,"tter":9591,"ennen":9592,"erwiesen":9593,"theor":9594,"bewegen":9595,"geleis":9596,"aul":9597,"dex":9598,"denjenigen":9599,"seas":9600,"seeing":9601,"ischung":9602,"kehren":9603,"umän":9604,"idung":9605,"haf":9606,"ulate":9607,"steigen":9608,"antibiot":9609,"faction":9610,"compon":9611,"Prote":9612,"stron":9613,"chtungen":9614,"bruch":9615,"unterbrochen":9616,"Gefü":9617,"prelimin":9618,"please":9619,"margin":9620,"teilnehmen":9621,"dringen":9622,"gebunden":9623,"barr":9624,"träger":9625,"Aufgrund":9626,"fäll":9627,"ziemlich":9628,"bestimmen":9629,"artige":9630,"governing":9631,"pended":9632,"organisms":9633,"Market":9634,"engag":9635,"Finanzkontrolle":9636,"Deswegen":9637,"itäre":9638,"accidents":9639,"extrem":9640,"corrup":9641,"background":9642,"Wohn":9643,"negotiating":9644,"attend":9645,"channel":9646,"grav":9647,"constitu":9648,"honest":9649,"entered":9650,"gesellschaftlichen":9651,"Malm":9652,"Ursachen":9653,"Bestimmung":9654,"itätsprinzip":9655,"lokaler":9656,"Costa":9657,"maintained":9658,"heutige":9659,"gebiet":9660,"erhebliche":9661,"Rule":9662,"wiederholt":9663,"running":9664,"Does":9665,"genuinely":9666,"wollten":9667,"verurteilen":9668,"Wahrheit":9669,"schools":9670,"äumen":9671,"kaufen":9672,"Unserer":9673,"emission":9674,"erscheinen":9675,"Garantien":9676,"Wohlstand":9677,"interpretation":9678,"Zentralbank":9679,"ioxin":9680,"Offenheit":9681,"hütung":9682,"russischen":9683,"endeavour":9684,"conservation":9685,"rechtzeitig":9686,"Ausbeutung":9687,"absence":9688,"preliminary":9689,"Dauer":9690,"Hatz":9691,"Material":9692,"Neben":9693,"Tage":9694,"Tests":9695,"Van":9696,"clause":9697,"eco":9698,"fib":9699,"hur":9700,"idakis":9701,"raums":9702,"sad":9703,"west":9704,"zweiter":9705,"undenen":9706,"ald":9707,"stab":9708,"aring":9709,"entail":9710,"geg":9711,"inger":9712,"imper":9713,"gender":9714,"daily":9715,"ctual":9716,"Vertrages":9717,"Unregelmäß":9718,"cohol":9719,"Bekannt":9720,"bens":9721,"überaus":9722,"quorum":9723,"ungsausschuß":9724,"Those":9725,"schaffung":9726,"Aussage":9727,"Vorteil":9728,"Presidents":9729,"preced":9730,"ounded":9731,"mußte":9732,"erstre":9733,"ometr":9734,"Unternehmer":9735,"Stahl":9736,"weilen":9737,"Finan":9738,"otential":9739,"begonnen":9740,"Demokraten":9741,"Gesetze":9742,"Haushaltslinie":9743,"Darauf":9744,"Besuch":9745,"Mangel":9746,"grad":9747,"gewährt":9748,"stoß":9749,"careful":9750,"widerspie":9751,"Irish":9752,"tonnes":9753,"topical":9754,"Objective":9755,"actively":9756,"zentrale":9757,"Schulden":9758,"modernisation":9759,"unabhängigen":9760,"gebieten":9761,"Belgian":9762,"deliber":9763,"Zuständigkeiten":9764,"exclusively":9765,"zählt":9766,"punish":9767,"spoke":9768,"ARE":9769,"berechtigt":9770,"keinesfalls":9771,"Comp":9772,"Erwäg":9773,"hopes":9774,"genügend":9775,"bedroht":9776,"ampagne":9777,"Kopf":9778,"sorgfältig":9779,"PHARE":9780,"Austausch":9781,"obliged":9782,"ennungsanlagen":9783,"Getre":9784,"abandon":9785,"zwangsläufig":9786,"Gerechtigkeit":9787,"Citiz":9788,"Malmström":9789,"Hatzidakis":9790,"36":9791,"97":9792,"Ev":9793,"Nahen":9794,"Respe":9795,"Sup":9796,"Wog":9797,"bese":9798,"born":9799,"echten":9800,"ght":9801,"mun":9802,"zierung":9803,"zivil":9804,"Äuß":9805,"inens":9806,"ality":9807,"aside":9808,"gezwungen":9809,"decken":9810,"oured":9811,"raid":9812,"prohib":9813,"auffordern":9814,"transe":9815,"afford":9816,"auswirken":9817,"osystem":9818,"vormittag":9819,"anticip":9820,"comings":9821,"jegliche":9822,"stri":9823,"elon":9824,"beihilfen":9825,"dargelegt":9826,"Vorstellung":9827,"interinstitutional":9828,"fru":9829,"zumal":9830,"underlying":9831,"gebühren":9832,"entry":9833,"Constitution":9834,"pense":9835,"Teile":9836,"examination":9837,"drafted":9838,"Genau":9839,"fairly":9840,"Monat":9841,"regionaler":9842,"representation":9843,"confident":9844,"finanzieren":9845,"helping":9846,"zusammenzu":9847,"property":9848,"kinds":9849,"shortcomings":9850,"Fäh":9851,"mäßigen":9852,"schneller":9853,"flexib":9854,"Belder":9855,"volume":9856,"Menschenrechtskonvention":9857,"Menschenrechtsverletzungen":9858,"befürworte":9859,"reserve":9860,"genetisch":9861,"Christdemokraten":9862,"investigation":9863,"Böge":9864,"schätzung":9865,"appointment":9866,"ökonomischen":9867,"deserves":9868,"Stabilitätspakt":9869,"Kürze":9870,"Kohäsion":9871,"ästinens":9872,"Journalisten":9873,"probleme":9874,"protocol":9875,"entrepr":9876,"Kakaobutter":9877,"Representative":9878,"Ausnahmere":9879,"explicit":9880,"theoret":9881,"Wogau":9882,"Aid":9883,"GUE":9884,"Nutz":9885,"Prop":9886,"Wass":9887,"black":9888,"dur":9889,"dum":9890,"kommission":9891,"niveau":9892,"ober":9893,"plä":9894,"infe":9895,"anträge":9896,"stag":9897,"stable":9898,"bedanken":9899,"semin":9900,"icken":9901,"verhält":9902,"verletzt":9903,"abschließend":9904,"ils":9905,"destru":9906,"alling":9907,"Verb":9908,"Under":9909,"senior":9910,"ahme":9911,"error":9912,"complement":9913,"dok":9914,"strik":9915,"enness":9916,"geraten":9917,"gerichte":9918,"travel":9919,"herit":9920,"üss":9921,"Geist":9922,"hindert":9923,"akte":9924,"fremden":9925,"Konvention":9926,"presentation":9927,"justify":9928,"debated":9929,"Consequently":9930,"Minuten":9931,"beschließen":9932,"kommer":9933,"Bürgerinnen":9934,"legislativen":9935,"sozialer":9936,"Genfer":9937,"Finanziellen":9938,"numbers":9939,"zeichen":9940,"Entschließungen":9941,"gewün":9942,"strategies":9943,"score":9944,"posts":9945,"personnel":9946,"einzusetzen":9947,"bildet":9948,"shortly":9949,"stocks":9950,"Urteil":9951,"tatsächlichen":9952,"Bowe":9953,"suspended":9954,"coordinated":9955,"fertigt":9956,"mittlung":9957,"oftmals":9958,"clarity":9959,"restore":9960,"radical":9961,"nehmern":9962,"Mittelmeerr":9963,"kontrolliert":9964,"schlecht":9965,"pursue":9966,"claims":9967,"zählen":9968,"vernünftig":9969,"qualifizierte":9970,"Ladies":9971,"geographical":9972,"App":9973,"hypo":9974,"deficit":9975,"solely":9976,"Donnerst":9977,"Akteure":9978,"collabor":9979,"obstacles":9980,"Rechtsstaatlichkeit":9981,"feedingstuffs":9982,"definitely":9983,"weapons":9984,"beantragt":9985,"Palestin":9986,"phenomenon":9987,"Welthandels":9988,"Financial":9989,"Citizens":9990,"Donnerstag":9991,"56":9992,"57":9993,"Bill":9994,"EVP":9995,"Jon":9996,"Mich":9997,"Over":9998,"Ph":9999,"Sind":10000,"iable":10001,"kund":10002,"kolle":10003,"lat":10004,"mes":10005,"pic":10006,"rent":10007,"rul":10008,"erweisen":10009,"ini":10010,"chmal":10011,"anbe":10012,"isted":10013,"alarm":10014,"derog":10015,"arms":10016,"entlicht":10017,"beeinf":10018,"getreten":10019,"igend":10020,"ames":10021,"schul":10022,"schwä":10023,"schwed":10024,"zuvor":10025,"icity":10026,"vertritt":10027,"abgesch":10028,"sogenannte":10029,"Europar":10030,"uli":10031,"Weit":10032,"comed":10033,"Straft":10034,"Stunden":10035,"Stimmen":10036,"regre":10037,"Erreichung":10038,"hergestellt":10039,"unterscheiden":10040,"unterzeichnet":10041,"ärkt":10042,"assungs":10043,"hingegen":10044,"Regard":10045,"Regime":10046,"wählen":10047,"2005":10048,"akten":10049,"Forst":10050,"Kooperations":10051,"stellte":10052,"deutschen":10053,"Übergang":10054,"welcomed":10055,"Entwicklungshilfe":10056,"gestaltung":10057,"respects":10058,"höhere":10059,"öffentlicht":10060,"lichkeiten":10061,"Standards":10062,"consumption":10063,"looked":10064,"zurückzuführen":10065,"einzelstaatlichen":10066,"guaranteeing":10067,"Besitz":10068,"leads":10069,"Formulierung":10070,"Entwicklungszusammenarbeit":10071,"schweren":10072,"Wortmeld":10073,"Without":10074,"Urspr":10075,"polluter":10076,"Geschäftsverkehr":10077,"fünfzehn":10078,"Sitzungsperiode":10079,"Gipfels":10080,"mechanism":10081,"Technologie":10082,"bearing":10083,"facility":10084,"Kriegs":10085,"reflected":10086,"Absichten":10087,"schlechter":10088,"inspections":10089,"betreiben":10090,"citizenship":10091,"verwaltung":10092,"Verhaltens":10093,"ökologischen":10094,"IPO":10095,"niedrig":10096,"Subsidiaritätsprinzip":10097,"Bildungs":10098,"Vorsitzenden":10099,"begrenzt":10100,"begründet":10101,"Klarheit":10102,"bureaucr":10103,"widmen":10104,"declared":10105,"zügig":10106,"ELDR":10107,"Gebäude":10108,"restructuring":10109,"Echelon":10110,"Unregelmäßigkeiten":10111,"anbelangt":10112,")]":10113,"98":10114,"Far":10115,"Fisher":10116,"Jap":10117,"Kann":10118,"Korr":10119,"Migr":10120,"Nacht":10121,"Trag":10122,"ader":10123,"eli":10124,"ps":10125,"push":10126,"erlebt":10127,"alcohol":10128,"bezahlen":10129,"gehe":10130,"iced":10131,"verteilt":10132,"veröffentlicht":10133,"sobald":10134,"trend":10135,"openness":10136,"ausend":10137,"lieber":10138,"liefern":10139,"quis":10140,"quar":10141,"ague":10142,"Thurs":10143,"worst":10144,"Ergän":10145,"wohn":10146,"ltreffen":10147,"unterbreiten":10148,"Entlast":10149,"früh":10150,"peripher":10151,"ierender":10152,"consisten":10153,"schließe":10154,"Detail":10155,"viewed":10156,"fäl":10157,"programms":10158,"unktions":10159,"Staates":10160,"Finland":10161,"laughter":10162,"offices":10163,"sichergestellt":10164,"Sektors":10165,"Beschrän":10166,"weisung":10167,"wiederhole":10168,"Daß":10169,"klären":10170,"Sicherung":10171,"continues":10172,"gelegte":10173,"höre":10174,"stattgefunden":10175,"Teilnahme":10176,"accident":10177,"Schutzes":10178,"norm":10179,"demokratisch":10180,"appeared":10181,"einzuführen":10182,"laufenden":10183,"UNO":10184,"abhängig":10185,"demanding":10186,"entscheidend":10187,"einzig":10188,"aktive":10189,"Gipfeltreffen":10190,"gemeinschaftliche":10191,"Jeder":10192,"ministers":10193,"Israeli":10194,"Süden":10195,"unterschiedlich":10196,"Americans":10197,"Postdienste":10198,"beantwortet":10199,"secret":10200,"gewähren":10201,"exceptions":10202,"formuliert":10203,"pursuant":10204,"biometr":10205,"erhöht":10206,"Luxemburg":10207,"deserve":10208,"Bereitschaft":10209,"tiefst":10210,"Altersversorgung":10211,"transitional":10212,"Saal":10213,"Bevölkerungsgruppen":10214,"parlamentarischen":10215,"Verzögerung":10216,"Betrugsbekämpfung":10217,"undertakings":10218,"Termin":10219,"options":10220,"Futtermittel":10221,"autonom":10222,"rechtfertigen":10223,"English":10224,"Steuerzahler":10225,"twenty":10226,"Bekanntlich":10227,"dokument":10228,");":10229,"Corr":10230,"KMU":10231,"Octo":10232,"Taten":10233,"Tonnen":10234,"Zwar":10235,"ckel":10236,"fam":10237,"fres":10238,"hous":10239,"mick":10240,"nör":10241,"ries":10242,"zard":10243,"Ök":10244,"erungen":10245,"erteilt":10246,"ersetzt":10247,"unab":10248,"reve":10249,"entfern":10250,"enttäu":10251,"bewiesen":10252,"behandlung":10253,"wies":10254,"zusagen":10255,"ilot":10256,"umsetzen":10257,"irre":10258,"tried":10259,"deswegen":10260,"vorn":10261,"vorgehen":10262,"spend":10263,"spiel":10264,"007":10265,"worthy":10266,"Ausge":10267,"Mitwirkung":10268,"accur":10269,"besorgt":10270,"cance":10271,"incident":10272,"Einstimm":10273,"assent":10274,"ills":10275,"durchzusetzen":10276,"2004":10277,"marking":10278,"standardis":10279,"site":10280,"playing":10281,"Kooperation":10282,"Intervention":10283,"Zusammensetzung":10284,"relate":10285,"article":10286,"compared":10287,"festzustellen":10288,"Rechtsrahmen":10289,"begünst":10290,"processing":10291,"centres":10292,"Flachs":10293,"fahrt":10294,"controvers":10295,"Werk":10296,"ktoren":10297,"152":10298,"ambigu":10299,"normen":10300,"Ansichten":10301,"expand":10302,"flü":10303,"gefährlich":10304,"gefährdet":10305,"fortunate":10306,"previously":10307,"verbundenen":10308,"significance":10309,"topic":10310,"clarification":10311,"domestic":10312,"Qualitäts":10313,"ethnischen":10314,"gewählt":10315,"removed":10316,"proportional":10317,"MacCor":10318,"Gespräch":10319,"kulturelle":10320,"advice":10321,"vorhandenen":10322,"explanatory":10323,"friendly":10324,"prisoners":10325,"observations":10326,"höheren":10327,"kompliziert":10328,"Leistungen":10329,"Autos":10330,"freuen":10331,"launched":10332,"stärkere":10333,"Tunis":10334,"Methode":10335,"verzerr":10336,"gebeten":10337,"vorangegangenen":10338,"Sollte":10339,"Studie":10340,"Hindernisse":10341,"FPÖ":10342,"Moldo":10343,"Ärz":10344,"temporary":10345,"Wallström":10346,"hetor":10347,"openhagen":10348,"Getreide":10349,"entreprene":10350,"Fisheries":10351,"Thursday":10352,"October":10353,"MacCormick":10354,"AP":10355,"Allow":10356,"Bl":10357,"Bab":10358,"Dad":10359,"Given":10360,"Home":10361,"Juli":10362,"Langen":10363,"Ost":10364,"SM":10365,"Sof":10366,"Treffen":10367,"fän":10368,"founded":10369,"jun":10370,"slaughter":10371,"ía":10372,"ücke":10373,"infolge":10374,"oni":10375,"onial":10376,"uneingeschränkt":10377,"revolution":10378,"ande":10379,"llar":10380,"schlage":10381,"zutiefst":10382,"verhandlungen":10383,"terin":10384,"abgesehen":10385,"Verteilung":10386,"ulf":10387,"notice":10388,"laden":10389,"Insofern":10390,"afraid":10391,"tagung":10392,"sphere":10393,"identify":10394,"bench":10395,"macro":10396,"überprüfen":10397,"jeop":10398,"Prosecutor":10399,"Erlaß":10400,"Armen":10401,"Abschaffung":10402,"weitung":10403,"nachmittag":10404,"asses":10405,"Gewerk":10406,"disp":10407,"erstens":10408,"crimes":10409,"Konvergen":10410,"loss":10411,"bestände":10412,"alties":10413,"regardless":10414,"festlegen":10415,"bislang":10416,"plus":10417,"Imp":10418,"species":10419,"klärt":10420,"liegenden":10421,"promised":10422,"promises":10423,"Steuern":10424,"inneren":10425,"existiert":10426,"paying":10427,"allows":10428,"Embar":10429,"bels":10430,"Gemeinschaftsrecht":10431,"bestehende":10432,"surround":10433,"verschmutzung":10434,"multilater":10435,"covering":10436,"Amsterdamer":10437,"doub":10438,"sagten":10439,"Südo":10440,"lokale":10441,"Dialogs":10442,"verstärkte":10443,"kontrollieren":10444,"flood":10445,"unverzüglich":10446,"benötigt":10447,"appointments":10448,"ähnlich":10449,"automatisch":10450,"ivalent":10451,"bedauere":10452,"erwartet":10453,"Verfasser":10454,"indirect":10455,"migration":10456,"Martí":10457,"mittleren":10458,"suitable":10459,"feiler":10460,"ández":10461,"Schnell":10462,"debattieren":10463,"piece":10464,"bürokrat":10465,"absurd":10466,"instreaming":10467,"sympathy":10468,"traceability":10469,"Inkrafttreten":10470,"Schicksal":10471,"precedent":10472,"Evans":10473,"Respekt":10474,"Japan":10475,"Dadurch":10476,"Konvergenz":10477,"87":10478,"Fassung":10479,"Gut":10480,"Lond":10481,"Okto":10482,"Rap":10483,"Sex":10484,"Simbabwe":10485,"bs":10486,"dig":10487,"ith":10488,"liter":10489,"ozone":10490,"ude":10491,"anhalten":10492,"itive":10493,"ieties":10494,"alition":10495,"remove":10496,"arg":10497,"aries":10498,"roh":10499,"beur":10500,"aspe":10501,"gelangt":10502,"deals":10503,"depl":10504,"forests":10505,"verbo":10506,"verdeut":10507,"abgegeben":10508,"ierhuber":10509,"hazard":10510,"sending":10511,"Reicht":10512,"Well":10513,"zego":10514,"Ausweitung":10515,"strichen":10516,"regierungs":10517,"Schierhuber":10518,"Erfordern":10519,"wodurch":10520,"beitritts":10521,"diskrimin":10522,"gebil":10523,"akes":10524,"damaging":10525,"Konsens":10526,"subsequently":10527,"merit":10528,"productive":10529,"programmen":10530,"gestatten":10531,"Freise":10532,"Freih":10533,"beschleun":10534,"vollständige":10535,"engage":10536,"Herzego":10537,"Montene":10538,"bestimmungen":10539,"confusion":10540,"viously":10541,"langsam":10542,"Durchsetzung":10543,"bedauern":10544,"gefährliche":10545,"wenigsten":10546,"atoren":10547,"Wiederherstellung":10548,"Beihilfe":10549,"jedenfalls":10550,"enthaltenen":10551,"bisherigen":10552,"himself":10553,"Industry":10554,"Vielzahl":10555,"kriterien":10556,"Können":10557,"Nichtregierungs":10558,"Dokumente":10559,"derartigen":10560,"mechanismen":10561,"itzt":10562,"concludes":10563,"verschiedener":10564,"Rubr":10565,"Beteiligten":10566,"authorised":10567,"jahres":10568,"Drittel":10569,"valuable":10570,"fifth":10571,"Ratsvor":10572,"Lärmbe":10573,"stärksten":10574,"worrying":10575,"Methoden":10576,"niederländ":10577,"Freedoms":10578,"Befürchtungen":10579,"Scotland":10580,"Kategorie":10581,"adox":10582,"Beiträge":10583,"lösung":10584,"Parlamentarier":10585,"korrig":10586,"beauftragten":10587,"Ozon":10588,"Reduzierung":10589,"heritage":10590,"Corrie":10591,"London":10592,"Oktober":10593,"49":10594,"400":10595,"Bla":10596,"Bio":10597,"Guter":10598,"Lob":10599,"Wäl":10600,"eye":10601,"gigen":10602,"nischen":10603,"pan":10604,"pal":10605,"thalten":10606,"reds":10607,"roat":10608,"leid":10609,"beziehungen":10610,"zuzu":10611,"forest":10612,"verordnung":10613,"erei":10614,"afft":10615,"demograph":10616,"suche":10617,"spite":10618,"Anwesen":10619,"doctors":10620,"partei":10621,"iene":10622,"Erschein":10623,"Errichtung":10624,"ablehnen":10625,"Vorgän":10626,"interim":10627,"herzustellen":10628,"dispar":10629,"Autom":10630,"lanz":10631,"moreover":10632,"crises":10633,"sitzung":10634,"Konzentr":10635,"angewendet":10636,"scheidet":10637,"wirkliche":10638,"gehende":10639,"Ausschüsse":10640,"Freude":10641,"Rechtspre":10642,"Rechtssicherheit":10643,"stattfindet":10644,"Werden":10645,"Like":10646,"zurückzu":10647,"Verantwortlichen":10648,"Volkes":10649,"Darin":10650,"applications":10651,"bereichen":10652,"organisierten":10653,"multination":10654,"längst":10655,"Chinese":10656,"distin":10657,"freiheiten":10658,"missible":10659,"Ratspräsidenten":10660,"July":10661,"Vertrauens":10662,"extending":10663,"Lasten":10664,"trotzdem":10665,"Vorgehensweise":10666,"Straße":10667,"ushk":10668,"affecting":10669,"divided":10670,"Verschmutzung":10671,"causing":10672,"Sachverständ":10673,"manufacturer":10674,"endgültigen":10675,"Flüchtlingen":10676,"ausführlich":10677,"Latin":10678,"ISA":10679,"observed":10680,"ceiling":10681,"Everyone":10682,"schrittweise":10683,"liste":10684,"advantages":10685,"beunruhigt":10686,"roots":10687,"irregularities":10688,"geschützt":10689,"categories":10690,"Präsidium":10691,"Eritrea":10692,"angewandt":10693,"Korrup":10694,"Montenegro":10695,"multinationals":10696,"Bitte":10697,"Cres":10698,"Kyo":10699,"Most":10700,"Noch":10701,"Rumän":10702,"Tem":10703,"Time":10704,"TAC":10705,"drop":10706,"fixed":10707,"kul":10708,"keinem":10709,"match":10710,"swi":10711,"tten":10712,"enfor":10713,"erweit":10714,"thr":10715,"thal":10716,"anwenden":10717,"reliable":10718,"anden":10719,"schar":10720,"vey":10721,"abschied":10722,"Verwirklich":10723,"Verabschied":10724,"Inner":10725,"ausgerichtet":10726,"voranzu":10727,"vorsieht":10728,"expens":10729,"expense":10730,"spanischen":10731,"änglich":10732,"übermitteln":10733,"dollar":10734,"wording":10735,"End":10736,"internen":10737,"Abhäng":10738,"staats":10739,"selbe":10740,"disappear":10741,"Auge":10742,"persu":10743,"hoher":10744,"anzig":10745,"geblieben":10746,"presenting":10747,"agrees":10748,"wirksamen":10749,"Articles":10750,"gestärkt":10751,"paar":10752,"Orient":10753,"offenen":10754,"bewerber":10755,"holds":10756,"transactions":10757,"science":10758,"referendum":10759,"sections":10760,"milch":10761,"ambod":10762,"Lebensqualität":10763,"powerful":10764,"regulated":10765,"Gemeinschaftspolitik":10766,"Haup":10767,"lacking":10768,"Energy":10769,"anzuwenden":10770,"Spann":10771,"grade":10772,"ipfel":10773,"Rückverfolg":10774,"Flugzeuge":10775,"schreit":10776,"angenommenen":10777,"Both":10778,"volunt":10779,"würdigen":10780,"metho":10781,"radik":10782,"Preise":10783,"paragraphs":10784,"assets":10785,"incorporate":10786,"speeches":10787,"duties":10788,"intensive":10789,"intensiv":10790,"Planung":10791,"Prüf":10792,"unanimity":10793,"Verteidigungspolitik":10794,"behörden":10795,"Jahrhunderts":10796,"southern":10797,"gründen":10798,"terrible":10799,"stabilisation":10800,"Gestaltung":10801,"storms":10802,"sprüche":10803,"behaupten":10804,"vigil":10805,"donors":10806,"ceilings":10807,"erwähnten":10808,"Sitzungen":10809,"anspruchs":10810,"Besonders":10811,"Unionsbürger":10812,"Innovation":10813,"Abänderungsan":10814,"eingeräumt":10815,"scrutiny":10816,"Regarding":10817,"surrounding":10818,"Nichtregierungsorganisationen":10819,"Guterres":10820,"Kyoto":10821,"erweitern":10822,"Verwirklichung":10823,"Verabschiedung":10824,"Rückverfolgbarkeit":10825,"Att":10826,"Bu":10827,"GF":10828,"Güter":10829,"IK":10830,"Jed":10831,"Kairo":10832,"Mold":10833,"None":10834,"Pak":10835,"Tenden":10836,"Wandel":10837,"WIPO":10838,"drit":10839,"eg":10840,"oting":10841,"uchen":10842,"erten":10843,"erkannt":10844,"intra":10845,"anstreben":10846,"attain":10847,"arbeits":10848,"leite":10849,"wegung":10850,"berührt":10851,"heil":10852,"heik":10853,"confu":10854,"usually":10855,"Verschie":10856,"Verordnungen":10857,"ulating":10858,"lastet":10859,"Recycling":10860,"fel":10861,"fewer":10862,"composition":10863,"Schmid":10864,"Schengen":10865,"Erinner":10866,"besitzen":10867,"besitzt":10868,"durchschnitt":10869,"ideolog":10870,"glicher":10871,"Umgang":10872,"Zeiten":10873,"whereas":10874,"ratifiz":10875,"lessons":10876,"examined":10877,"holen":10878,"ausgegeben":10879,"Verbrauchern":10880,"Sozialdemokratischen":10881,"promoted":10882,"Andal":10883,"eigentlichen":10884,"profits":10885,"containing":10886,"items":10887,"refuse":10888,"chosen":10889,"schwierige":10890,"turning":10891,"Entschließungsanträge":10892,"jährige":10893,"Obviously":10894,"hearing":10895,"indication":10896,"Schulen":10897,"traditionellen":10898,"satisfaction":10899,"britische":10900,"attempts":10901,"Asylbewerber":10902,"wogenheit":10903,"beginnt":10904,"Gerichtshofs":10905,"credit":10906,"widely":10907,"geringer":10908,"efficiently":10909,"profitieren":10910,"strictly":10911,"schätzen":10912,"qualifizierter":10913,"SPAR":10914,"combined":10915,"harmful":10916,"höchste":10917,"Gestatten":10918,"permitted":10919,"offiziell":10920,"Experten":10921,"writing":10922,"beizutragen":10923,"imagine":10924,"complicated":10925,"lobby":10926,"erleichtern":10927,"borne":10928,"konstitutionelle":10929,"transeuropäischen":10930,"Applause":10931,"Ausgewogenheit":10932,"Einstimmigkeit":10933,"Moldova":10934,"Abhängigkeit":10935,"015":10936,"52":10937,"84":10938,"Ceder":10939,"Dr":10940,"Del":10941,"EF":10942,"Evalu":10943,"Fach":10944,"Gol":10945,"Log":10946,"OT":10947,"bten":10948,"ball":10949,"cere":10950,"dden":10951,"fit":10952,"gipfel":10953,"hilf":10954,"jahre":10955,"tang":10956,"wof":10957,"za":10958,"ähe":10959,"erfreut":10960,"chain":10961,"isra":10962,"unit":10963,"aren":10964,"bedenken":10965,"gedenkt":10966,"dee":10967,"selt":10968,"schiö":10969,"zugehen":10970,"zutage":10971,"forum":10972,"verzeichnen":10973,"abschließen":10974,"isses":10975,"irable":10976,"mee":10977,"meister":10978,"lay":10979,"senden":10980,"senken":10981,"adverse":10982,"Bewuß":10983,"shop":10984,"aganda":10985,"Anwend":10986,"Anhör":10987,"strand":10988,"Mitverbr":10989,"legte":10990,"Erd":10991,"Entschäd":10992,"kontin":10993,"gelung":10994,"minute":10995,"minded":10996,"direkte":10997,"ziehe":10998,"ients":10999,"Alternative":11000,"Hinsichtlich":11001,"ohnehin":11002,"ausgehend":11003,"Kindes":11004,"scen":11005,"scandal":11006,"Standpunkte":11007,"geregelt":11008,"wholehear":11009,"kurr":11010,"ambition":11011,"institutionelle":11012,"einfache":11013,"negotiate":11014,"regulatory":11015,"opened":11016,"resulting":11017,"summer":11018,"einzubeziehen":11019,"recovery":11020,"Zahlungs":11021,"Existenz":11022,"traditions":11023,"regelmäßig":11024,"mäßigkeit":11025,"charta":11026,"entscheidender":11027,"gefährden":11028,"tourist":11029,"tourismus":11030,"deterior":11031,"Konflikte":11032,"hardly":11033,"reflects":11034,"Drittstaaten":11035,"genetic":11036,"azitäten":11037,"Fleisch":11038,"contracts":11039,"vernünftige":11040,"Special":11041,"declarations":11042,"Kurz":11043,"Diskriminierungen":11044,"Terror":11045,"militärische":11046,"deadline":11047,"vorschlägt":11048,"Emissions":11049,"Moroc":11050,"verursacht":11051,"monopolies":11052,"embargo":11053,"modernen":11054,"Gesamtheit":11055,"zero":11056,"drängt":11057,"dynamic":11058,"Finnland":11059,"wünschenswert":11060,"Gewährleistung":11061,"envisaged":11062,"bekräftigt":11063,"verringern":11064,"makro":11065,"schriftlich":11066,"angekündigt":11067,"approximately":11068,"körperschaften":11069,"intellectual":11070,"Heads":11071,"picture":11072,"corruption":11073,"entfernt":11074,"doubts":11075,"hazardous":11076,"Rubrik":11077,"Rumänien":11078,"Andalus":11079,"Cederschiö":11080,"israel":11081,"Cederschiöld":11082,"BB":11083,"Cairo":11084,"Funktions":11085,"Gibt":11086,"Its":11087,"Na":11088,"OSPAR":11089,"Pat":11090,"Pass":11091,"Rese":11092,"Sahara":11093,"Ve":11094,"aqu":11095,"budgets":11096,"city":11097,"fate":11098,"flu":11099,"jour":11100,"kern":11101,"mutz":11102,"uung":11103,"ziti":11104,"äss":11105,"ancing":11106,"unemployed":11107,"atom":11108,"itals":11109,"regen":11110,"reck":11111,"stick":11112,"armed":11113,"gedacht":11114,"gefragt":11115,"einzur":11116,"einführen":11117,"lles":11118,"scher":11119,"schedu":11120,"imor":11121,"image":11122,"vertrag":11123,"verzö":11124,"sozusagen":11125,"heber":11126,"ission":11127,"resumed":11128,"sudden":11129,"Refer":11130,"vornehmen":11131,"exec":11132,"ckheer":11133,"Paris":11134,"übersch":11135,"antisemit":11136,"feas":11137,"manche":11138,"manchmal":11139,"Schw":11140,"trading":11141,"pran":11142,"Abbau":11143,"weitaus":11144,"Entschlossen":11145,"mother":11146,"moved":11147,"Frahm":11148,"beendet":11149,"Einkommens":11150,"Gefän":11151,"treiben":11152,"Grö":11153,"periode":11154,"ideal":11155,"erstes":11156,"hood":11157,"Mitgliedstaates":11158,"zwanzig":11159,"Menschenrechten":11160,"book":11161,"systematisch":11162,"pflanz":11163,"economically":11164,"Richter":11165,"besonderer":11166,"humanitäre":11167,"otti":11168,"zeitraum":11169,"Ausschüssen":11170,"brings":11171,"penalties":11172,"realistisch":11173,"redund":11174,"brech":11175,"Herstellung":11176,"Despite":11177,"procedural":11178,"klarstellen":11179,"Werten":11180,"furthermore":11181,"erkennt":11182,"fähigen":11183,"Quite":11184,"prägt":11185,"lenken":11186,"Dienststellen":11187,"gefährlicher":11188,"educ":11189,"Ihres":11190,"gemeinsamer":11191,"suspic":11192,"missing":11193,"Energieträger":11194,"significantly":11195,"Fischereipolitik":11196,"gerechtfertigt":11197,"mißbrauch":11198,"vollem":11199,"Augenblick":11200,"langfristige":11201,"Kuckel":11202,"friends":11203,"automatically":11204,"wahlen":11205,"Good":11206,"strenge":11207,"declare":11208,"postponement":11209,"customs":11210,"geeignete":11211,"Florenz":11212,"Mobilität":11213,"Rentner":11214,"Perspektive":11215,"Duff":11216,"inevitably":11217,"spartner":11218,"gebilligt":11219,"savings":11220,"fibre":11221,"Jonckheer":11222,"bureaucratic":11223,"Verschiebung":11224,"Research":11225,"zitiere":11226,"Gefäng":11227,"51":11228,"Bre":11229,"GD":11230,"Great":11231,"Mult":11232,"Pie":11233,"Zug":11234,"gas":11235,"hielt":11236,"iated":11237,"jungen":11238,"zicht":11239,"ächt":11240,"öderal":11241,"enforce":11242,"ersta":11243,"inqu":11244,"intell":11245,"inakzeptabel":11246,"isierte":11247,"relie":11248,"stem":11249,"bewirken":11250,"teach":11251,"ingu":11252,"zugestimmt":11253,"zuzustimmen":11254,"forman":11255,"ickt":11256,"vergleich":11257,"abgeordne":11258,"abkommens":11259,"umge":11260,"laßt":11261,"affirm":11262,"ausüben":11263,"Read":11264,"vorgetragen":11265,"covers":11266,"ungsmaßnahmen":11267,"faith":11268,"Angeb":11269,"Anhang":11270,"mangeln":11271,"acted":11272,"weiten":11273,"voice":11274,"youth":11275,"displaced":11276,"hinderung":11277,"checks":11278,"nahm":11279,"marine":11280,"timber":11281,"läst":11282,"angehören":11283,"directed":11284,"direkten":11285,"Grundfreiheiten":11286,"produktion":11287,"Gemeinden":11288,"aterie":11289,"believes":11290,"contam":11291,"planung":11292,"puts":11293,"ausgeführt":11294,"programming":11295,"Krie":11296,"Kranken":11297,"references":11298,"sorry":11299,"kodex":11300,"belg":11301,"collection":11302,"buy":11303,"staatlicher":11304,"Wirtschaftspolitik":11305,"Wirtschaftswachstum":11306,"Fortsetzung":11307,"UNM":11308,"eventually":11309,"roads":11310,"flights":11311,"aufgeworfen":11312,"Vertretung":11313,"Rückkehr":11314,"Subventionen":11315,"civilian":11316,"Gesetzes":11317,"Urheber":11318,"Beschäftigungspolitik":11319,"Zunahme":11320,"Strategien":11321,"Tatsachen":11322,"remaining":11323,"beteiligten":11324,"erinnere":11325,"strengthened":11326,"Schulmilch":11327,"skills":11328,"green":11329,"Legitim":11330,"persönlichen":11331,"Protokolls":11332,"Mängel":11333,"Veränderung":11334,"Friedensprozeß":11335,"vereinbart":11336,"reagiert":11337,"unanimous":11338,"quantit":11339,"NGL":11340,"eingereichten":11341,"Aktionspläne":11342,"Klamt":11343,"deadlines":11344,"Argumente":11345,"gründet":11346,"spezifische":11347,"festen":11348,"Führung":11349,"vertreter":11350,"priorit":11351,"angeblich":11352,"apparent":11353,"occurred":11354,"monopoly":11355,"schwerwiegende":11356,"Handlungen":11357,"Wichtigkeit":11358,"reiterate":11359,"Defizite":11360,"meantime":11361,"deeply":11362,"comparison":11363,"gradually":11364,"hundreds":11365,"italienischen":11366,"Besteuerung":11367,"convenience":11368,"natürlichen":11369,"Einschränkung":11370,"stätigkeit":11371,"Gebietskörperschaften":11372,"Wähler":11373,"stronger":11374,"Welthandelsorganisation":11375,"Automobil":11376,"Entschlossenheit":11377,"Cha":11378,"Could":11379,"Culture":11380,"Cuba":11381,"Dort":11382,"IV":11383,"Kurs":11384,"Lam":11385,"Massen":11386,"Oper":11387,"cofin":11388,"daten":11389,"fis":11390,"korn":11391,"mant":11392,"sin":11393,"sight":11394,"äbe":11395,"üt":11396,"cha":11397,"deriv":11398,"arise":11399,"bevölker":11400,"became":11401,"bezeichnen":11402,"geplan":11403,"einseit":11404,"dele":11405,"detr":11406,"dependent":11407,"sektors":11408,"scheinen":11409,"verank":11410,"verteilung":11411,"abuses":11412,"beruf":11413,"berichten":11414,"wirft":11415,"aufgaben":11416,"sugar":11417,"Bezeichnung":11418,"Bewirtschaftung":11419,"änge":11420,"überlegen":11421,"überprüft":11422,"feature":11423,"Angleich":11424,"Ausgleich":11425,"Ausgang":11426,"manip":11427,"Schot":11428,"füll":11429,"fühlen":11430,"aca":11431,"Vorwand":11432,"Abfällen":11433,"unterbreitet":11434,"unterstrichen":11435,"weitem":11436,"hindern":11437,"pled":11438,"durchsetzen":11439,"teilungen":11440,"anzen":11441,"saw":11442,"minim":11443,"angewiesen":11444,"boost":11445,"ratified":11446,"occurr":11447,"tragic":11448,"luft":11449,"wiederaufgenommen":11450,"zugute":11451,"vollziehen":11452,"Genuß":11453,"Heran":11454,"offences":11455,"ölkern":11456,"accepting":11457,"Monday":11458,"Arbeitsgruppe":11459,"sorgung":11460,"controlled":11461,"züge":11462,"kurze":11463,"kurzen":11464,"Sozialdemokraten":11465,"Informationstechn":11466,"negotiation":11467,"Ministerrat":11468,"Antisemit":11469,"cultiv":11470,"Norden":11471,"Barón":11472,"persist":11473,"energies":11474,"leaving":11475,"wegungen":11476,"krank":11477,"showing":11478,"detaill":11479,"negativ":11480,"monitored":11481,"fertig":11482,"Lebensmitteln":11483,"orgungs":11484,"Textes":11485,"equivalent":11486,"severe":11487,"emphasised":11488,"jährlichen":11489,"Investitions":11490,"enormen":11491,"zentralen":11492,"Natura":11493,"banks":11494,"preparatory":11495,"talked":11496,"Verwaltungen":11497,"Angst":11498,"Questions":11499,"beglückwünsche":11500,"electricity":11501,"garantiert":11502,"Jugendlichen":11503,"obtained":11504,"constitutes":11505,"associations":11506,"depends":11507,"haushalt":11508,"settlement":11509,"apparently":11510,"konstruktiven":11511,"katastrophen":11512,"Romania":11513,"Beratungen":11514,"parlamentarische":11515,"Telekommun":11516,"drängen":11517,"grenzüberschreitende":11518,"projekte":11519,"erwähnte":11520,"ofinanz":11521,"Kennzeichnung":11522,"spolitischen":11523,"Städte":11524,"diesbezüglichen":11525,"beiträgt":11526,"equipment":11527,"städt":11528,"Insbesondere":11529,"Anmerkungen":11530,"knapp":11531,"copy":11532,"Bedürfnisse":11533,"Berufs":11534,"sincerely":11535,"Protection":11536,"Constitutional":11537,"Ärzte":11538,"Pakistan":11539,"OTC":11540,"Bewußtsein":11541,"Schottland":11542,"94":11543,"Bul":11544,"Ehre":11545,"Jör":11546,"Naz":11547,"Ser":11548,"Somm":11549,"baus":11550,"gie":11551,"ivers":11552,"kan":11553,"ned":11554,"nungs":11555,"pone":11556,"sought":11557,"vina":11558,"wage":11559,"watch":11560,"zig":11561,"ermut":11562,"esten":11563,"unfortunate":11564,"atures":11565,"rec":11566,"reiz":11567,"reisen":11568,"stance":11569,"stieg":11570,"arten":11571,"bewirtschaftung":11572,"team":11573,"wild":11574,"verstoßen":11575,"tering":11576,"berg":11577,"ilen":11578,"users":11579,"desper":11580,"mitzu":11581,"willkommen":11582,"feder":11583,"faß":11584,"wieweit":11585,"strugg":11586,"wood":11587,"warning":11588,"obliegt":11589,"Berger":11590,"ured":11591,"grown":11592,"wenngleich":11593,"drug":11594,"akis":11595,"someone":11596,"Konserv":11597,"hierbei":11598,"justif":11599,"landwirtschaftlichen":11600,"Aufsicht":11601,"Deriv":11602,"deutliche":11603,"bestre":11604,"otal":11605,"whereby":11606,"gehenden":11607,"seeks":11608,"Umweltausschuß":11609,"Lehren":11610,"zugänglich":11611,"Davon":11612,"generation":11613,"societies":11614,"thanking":11615,"Arbeitsweise":11616,"scrapie":11617,"looks":11618,"Ebenen":11619,"150":11620,"creates":11621,"contributed":11622,"postpone":11623,"genauer":11624,"einzugehen":11625,"Management":11626,"privatisation":11627,"successfully":11628,"charges":11629,"populations":11630,"Stellungnahmen":11631,"excuse":11632,"distingu":11633,"gemeinsames":11634,"suspend":11635,"Stabilisierungs":11636,"subsidy":11637,"stream":11638,"Linken":11639,"Juden":11640,"philosoph":11641,"consequence":11642,"Mißverständ":11643,"Konflikten":11644,"verfüg":11645,"ugoslaw":11646,"praktische":11647,"Tätigkeiten":11648,"exceptional":11649,"bürgern":11650,"027":11651,"blind":11652,"jeweils":11653,"bevorstehenden":11654,"Banotti":11655,"Wirksamkeit":11656,"Nordic":11657,"Pflichten":11658,"rigorous":11659,"ähnliche":11660,"ökonomische":11661,"verbindlich":11662,"veranlaßt":11663,"verteidigt":11664,"Rothley":11665,"Latein":11666,"Romano":11667,"ariat":11668,"habitats":11669,"Verzögerungen":11670,"stipulated":11671,"Vermittlungsverfahren":11672,"delegates":11673,"erweitert":11674,"Beobach":11675,"Versicherungs":11676,"contact":11677,"gewählten":11678,"length":11679,"Niederlanden":11680,"taxpayers":11681,"Klein":11682,"Kirk":11683,"beseitigen":11684,"Ernährungs":11685,"durchgeführten":11686,"reservations":11687,"infringe":11688,"geleistete":11689,"marginal":11690,"barriers":11691,"Erwägungen":11692,"destruction":11693,"consistency":11694,"Freisetzung":11695,"swift":11696,"wholeheartedly":11697,"Kuckelkorn":11698,"Jörg":11699,"54":11700,"800":11701,"Air":11702,"Hal":11703,"Prem":11704,"Potential":11705,"Sten":11706,"Ta":11707,"Völkern":11708,"Wille":11709,"battle":11710,"hing":11711,"iary":11712,"nament":11713,"osen":11714,"richtet":11715,"sac":11716,"size":11717,"ziert":11718,"és":11719,"üst":11720,"übung":11721,"erstellt":11722,"anke":11723,"unfair":11724,"uneingeschrän":11725,"atlant":11726,"orts":11727,"alien":11728,"reconc":11729,"recy":11730,"stände":11731,"argu":11732,"route":11733,"beweisen":11734,"befug":11735,"bekannten":11736,"geklärt":11737,"einhalten":11738,"deutet":11739,"weaken":11740,"zuver":11741,"vermitteln":11742,"verehrten":11743,"abgeben":11744,"raising":11745,"utmost":11746,"keen":11747,"proud":11748,"hafen":11749,"Verstär":11750,"Verkauf":11751,"Verhütung":11752,"gesp":11753,"indis":11754,"vorhaben":11755,"sphase":11756,"endung":11757,"Betroffen":11758,"übergreifen":11759,"überwinden":11760,"sichere":11761,"Angehör":11762,"Anbetra":11763,"door":11764,"string":11765,"Mitro":11766,"beibehalten":11767,"Vorder":11768,"Frass":11769,"Fristen":11770,"possibilities":11771,"nachläss":11772,"selten":11773,"prejud":11774,"dissemin":11775,"treffend":11776,"licate":11777,"Common":11778,"undermine":11779,"drückt":11780,"setzungs":11781,"Konvent":11782,"learning":11783,"firms":11784,"Forum":11785,"merkt":11786,"Zusammenhalts":11787,"Übertragung":11788,"igert":11789,"surely":11790,"Arbeitnehmern":11791,"Mittelausstattung":11792,"Sehr":11793,"pair":11794,"pielt":11795,"election":11796,"begun":11797,"Nachdem":11798,"Nachfrage":11799,"Finanzmittel":11800,"transnational":11801,"gewonnen":11802,"strategische":11803,"investors":11804,"ssern":11805,"erforderliche":11806,"Geschle":11807,"Verantwortungs":11808,"negotiated":11809,"regulate":11810,"demokratischer":11811,"Antibiot":11812,"sums":11813,"wünscht":11814,"Ergebnissen":11815,"globale":11816,"expressing":11817,"expressly":11818,"Zahlungen":11819,"External":11820,"Generationen":11821,"eventuell":11822,"Jahresbericht":11823,"fourth":11824,"Kulturen":11825,"straight":11826,"Öffnung":11827,"dringlich":11828,"Sprach":11829,"verantwortung":11830,"kritischen":11831,"Märkten":11832,"connected":11833,"reinforce":11834,"failing":11835,"beantragen":11836,"befürwortet":11837,"refugee":11838,"testing":11839,"scientists":11840,"biolog":11841,"wissenschaftliche":11842,"Gesprächen":11843,"Hoffnungen":11844,"Albanian":11845,"mäh":11846,"observation":11847,"Führungs":11848,"ausgewogene":11849,"wältigung":11850,"Follow":11851,"Eingreif":11852,"türkische":11853,"territories":11854,"schwerwiegenden":11855,"bedaure":11856,"advocate":11857,"widmet":11858,"präzise":11859,"Finnish":11860,"mündlichen":11861,"nahezu":11862,"Müll":11863,"Mitentscheidungsverfahren":11864,"gewisser":11865,"Dringlichkeit":11866,"Directorate":11867,"Effektivität":11868,"beeinträchtigt":11869,"spüren":11870,"Mandat":11871,"Davies":11872,"Drogen":11873,"Ernennung":11874,"Betriebs":11875,"Fette":11876,"destroyed":11877,"genießen":11878,"Betracht":11879,"Eisenbahn":11880,"Disziplinarverfahren":11881,"fremdenfeind":11882,"latest":11883,"schwedischen":11884,"SMEs":11885,"digital":11886,"Freihandels":11887,"Crespo":11888,"voluntary":11889,"Moldau":11890,"Erinnerung":11891,"UNMIK":11892,"fiscal":11893,"detriment":11894,"Antisemitismus":11895,"Kirkhope":11896,"Verstärkung":11897,"Anbetracht":11898,"Frassoni":11899,"Bern":11900,"Bauern":11901,"Cer":11902,"Eur":11903,"Fif":11904,"Hunder":11905,"Listen":11906,"Que":11907,"SA":11908,"Spr":11909,"Tisch":11910,"Tank":11911,"Who":11912,"ades":11913,"aktionen":11914,"biß":11915,"cul":11916,"fur":11917,"hof":11918,"ibel":11919,"jk":11920,"jugoslaw":11921,"phas":11922,"rhetor":11923,"uier":11924,"ersuchen":11925,"uncertainty":11926,"rely":11927,"remit":11928,"stammen":11929,"toug":11930,"geteilt":11931,"aman":11932,"schäden":11933,"verwirklichen":11934,"abr":11935,"lichkeits":11936,"hrt":11937,"provo":11938,"user":11939,"gesto":11940,"gespielt":11941,"withdrawn":11942,"grass":11943,"Reise":11944,"steel":11945,"überras":11946,"shares":11947,"igence":11948,"annakis":11949,"Stur":11950,"ienen":11951,"fence":11952,"llenn":11953,"outset":11954,"möge":11955,"mangel":11956,"ayannakis":11957,"accompan":11958,"accommod":11959,"heitlich":11960,"untersuchen":11961,"enshr":11962,"Parlamenten":11963,"disput":11964,"konfront":11965,"host":11966,"ücken":11967,"betone":11968,"minor":11969,"Kontext":11970,"Maat":11971,"justification":11972,"provider":11973,"Grundlagen":11974,"Grundprinzip":11975,"fuel":11976,"rating":11977,"greatly":11978,"Minen":11979,"farms":11980,"sterben":11981,"führenden":11982,"specified":11983,"Hinweise":11984,"häre":11985,"respecting":11986,"statten":11987,"Vereinigte":11988,"Montag":11989,"Haushaltsausschuß":11990,"Arbeitslosen":11991,"bestimmung":11992,"Amt":11993,"airport":11994,"sprinzip":11995,"agency":11996,"Sozialisten":11997,"Bedienste":11998,"viable":11999,"Produzenten":12000,"healthy":12001,"privile":12002,"Demokratischen":12003,"Verhandlung":12004,"Subst":12005,"harmonised":12006,"offered":12007,"quoten":12008,"Staatsbürger":12009,"Konflikts":12010,"electoral":12011,"praktischen":12012,"Betrü":12013,"Haft":12014,"buildings":12015,"broader":12016,"Einwanderer":12017,"suggestion":12018,"suggestions":12019,"credible":12020,"immense":12021,"transfers":12022,"wirksamer":12023,"investigations":12024,"Ideen":12025,"Kommunikations":12026,"quantity":12027,"billigen":12028,"logical":12029,"Papayannakis":12030,"ossier":12031,"targeted":12032,"attacks":12033,"Swiss":12034,"delivered":12035,"weakness":12036,"Schwerpunkt":12037,"unzureichend":12038,"bureauc":12039,"behauptet":12040,"überwachen":12041,"mündliche":12042,"Bürokrat":12043,"Entsorgung":12044,"Profess":12045,"respektiert":12046,"erörtern":12047,"Bosnien":12048,"korrekt":12049,"zerstört":12050,"towns":12051,"vermieden":12052,"genehmigt":12053,"prospects":12054,"vorrangig":12055,"expertise":12056,"Zulassung":12057,"dahingehend":12058,"multinationalen":12059,"Staatsanwal":12060,"fresh":12061,"Wälder":12062,"disparities":12063,"Konzentration":12064,"kontinuier":12065,"Bulgar":12066,"Sommer":12067,"Premier":12068,"Mitrovic":12069,"accompanied":12070,"08":12071,"024":12072,"EPP":12073,"Hence":12074,"Koch":12075,"Lank":12076,"Sri":12077,"Suche":12078,"Ton":12079,"Tieren":12080,"Vog":12081,"eb":12082,"fon":12083,"flächen":12084,"froh":12085,"hern":12086,"idem":12087,"irak":12088,"klausel":12089,"müsse":12090,"pest":12091,"tschaften":12092,"wanderung":12093,"ym":12094,"yle":12095,"zy":12096,"ère":12097,"enabling":12098,"era":12099,"ersetzen":12100,"inhabit":12101,"chines":12102,"thilfe":12103,"ancies":12104,"unions":12105,"unannehmbar":12106,"ita":12107,"reported":12108,"reception":12109,"ionage":12110,"armen":12111,"below":12112,"aspir":12113,"defe":12114,"depr":12115,"sell":12116,"secon":12117,"zuerst":12118,"eds":12119,"terung":12120,"genhuber":12121,"confer":12122,"conjun":12123,"umgehend":12124,"allmäh":12125,"Verstö":12126,"Unsicherheit":12127,"lagt":12128,"Inspe":12129,"exports":12130,"Beziehung":12131,"benutzt":12132,"Wechsel":12133,"ivoc":12134,"facto":12135,"Stunde":12136,"räume":12137,"Ausbau":12138,"eln":12139,"beider":12140,"Ermittl":12141,"mod":12142,"pret":12143,"preise":12144,"pretext":12145,"ptions":12146,"sake":12147,"folglich":12148,"Ratifizierung":12149,"justit":12150,"Aufforderung":12151,"problematisch":12152,"cert":12153,"Freie":12154,"belief":12155,"Kommissare":12156,"drafts":12157,"Rahmenbedingungen":12158,"Hohe":12159,"kehrt":12160,"vollständigen":12161,"klärung":12162,"generate":12163,"generations":12164,"scre":12165,"Gerichte":12166,"promise":12167,"lussen":12168,"Branche":12169,"kämpft":12170,"defining":12171,"Produkten":12172,"strength":12173,"Mehrwert":12174,"prevented":12175,"unique":12176,"aufgetreten":12177,"mäßige":12178,"wenigstens":12179,"exceeded":12180,"refused":12181,"Grundrechtecharta":12182,"equivoc":12183,"resulted":12184,"Außenminister":12185,"fortsetzen":12186,"kritisch":12187,"Basken":12188,"sexuellen":12189,"Investment":12190,"Kapitel":12191,"derartiger":12192,"gesetzten":12193,"accordingly":12194,"preparations":12195,"Fernsehen":12196,"Fernseh":12197,"dienstleistungen":12198,"legitimacy":12199,"Garc":12200,"Verteidigungs":12201,"interessant":12202,"persönliche":12203,"Beamte":12204,"gründlich":12205,"xenophobic":12206,"1989":12207,"Iraqi":12208,"Verletzungen":12209,"festhalten":12210,"gewaltige":12211,"österreichische":12212,"höchsten":12213,"ausreichende":12214,"gefühl":12215,"coastal":12216,"grenzüberschreitenden":12217,"religious":12218,"Northern":12219,"Heimatland":12220,"eröffnet":12221,"Paket":12222,"Städten":12223,"Konsultation":12224,"Kontakt":12225,"Atlantic":12226,"nutrit":12227,"repeatedly":12228,"Pensionsfonds":12229,"Kompetenz":12230,"Bewerberländern":12231,"griechischen":12232,"Universal":12233,"percentage":12234,"foresee":12235,"Gefühl":12236,"Äußerungen":12237,"fruit":12238,"collaboration":12239,"beeinflussen":12240,"reveal":12241,"controversial":12242,"dispute":12243,"beitrittswilligen":12244,"Rechtsprechung":12245,"ushkits":12246,"Abänderungsanträge":12247,"Nonetheless":12248,"Heranführungs":12249,"bißchen":12250,"bureaucracy":12251,"Bürokratie":12252,"Premierminister":12253,"Mitrovica":12254,"Voggenhuber":12255,"07":12256,"025":12257,"Bon":12258,"Hern":12259,"Mess":12260,"Morgan":12261,"Rest":12262,"SC":12263,"Surely":12264,"Titel":12265,"ather":12266,"aded":12267,"category":12268,"ecut":12269,"föder":12270,"kultur":12271,"kenntnis":12272,"latz":12273,"mg":12274,"rats":12275,"sess":12276,"vin":12277,"wreck":12278,"enger":12279,"erfreu":12280,"inet":12281,"chtern":12282,"ongoing":12283,"derjenigen":12284,"stay":12285,"stolz":12286,"betriebe":12287,"begeg":12288,"eintreten":12289,"einbeziehen":12290,"oman":12291,"schwere":12292,"forgot":12293,"icated":12294,"verändern":12295,"verheer":12296,"resign":12297,"Verbind":12298,"notably":12299,"auswärt":12300,"sensib":12301,"steuern":12302,"Weil":12303,"Anreiz":12304,"paradox":12305,"Ausführung":12306,"Schad":12307,"weite":12308,"Einleitung":12309,"anderungs":12310,"disagree":12311,"könne":12312,"hinein":12313,"performan":12314,"izin":12315,"ansäss":12316,"sichtig":12317,"save":12318,"larger":12319,"mines":12320,"europäisches":12321,"Dell":12322,"Defence":12323,"hierzu":12324,"Soweit":12325,"guter":12326,"debatte":12327,"welcomes":12328,"Asia":12329,"Conserv":12330,"male":12331,"Jack":12332,"continuation":12333,"Monopol":12334,"kunden":12335,"wished":12336,"agencies":12337,"zurückkommen":12338,"corre":12339,"corresponding":12340,"abilität":12341,"foodstuffs":12342,"favourable":12343,"Beschäftigten":12344,"resource":12345,"lebenden":12346,"Marktwirtschaft":12347,"Solange":12348,"verschoben":12349,"Zwei":12350,"ethical":12351,"heißen":12352,"constra":12353,"einziges":12354,"amtierenden":12355,"Flughafen":12356,"passing":12357,"tatsächliche":12358,"Süd":12359,"sych":12360,"marketing":12361,"kritisiert":12362,"Nahrungsmitteln":12363,"Postdienst":12364,"repräsent":12365,"unabhängige":12366,"secution":12367,"adequately":12368,"zeichneten":12369,"bedeutende":12370,"ALE":12371,"amerikanische":12372,"konzentriert":12373,"fishermen":12374,"getroffenen":12375,"Patentamt":12376,"Einwände":12377,"Niemand":12378,"fachung":12379,"anerkennen":12380,"schuldig":12381,"effiziente":12382,"effizienter":12383,"entscheidungen":12384,"langfristigen":12385,"conducted":12386,"infrastructures":12387,"übereinstimmen":12388,"rupt":12389,"geeignet":12390,"settle":12391,"Emissionen":12392,"Carthy":12393,"Dafürhalten":12394,"Beratung":12395,"Wichtig":12396,"Scrapie":12397,"Obergrenze":12398,"attached":12399,"diplomatic":12400,"multiannual":12401,"respektieren":12402,"gekenn":12403,"Mitentscheidung":12404,"McCarthy":12405,"occupied":12406,"erörtert":12407,"gewöhnlich":12408,"hundred":12409,"Bosnia":12410,"warmly":12411,"verknü":12412,"soldiers":12413,"benachteiligten":12414,"mobility":12415,"dieselben":12416,"preserve":12417,"CITES":12418,"shock":12419,"kommerzie":12420,"Palestinian":12421,"regrett":12422,"Ergänzung":12423,"unabding":12424,"Sextourismus":12425,"gebildet":12426,"Korruption":12427,"Spannungen":12428,"Evaluierung":12429,"Morocco":12430,"Lamy":12431,"Following":12432,"disputes":12433,"conjunction":12434,"93":12435,"Action":12436,"Bou":12437,"Bör":12438,"Colog":12439,"Danu":12440,"Fakten":12441,"Kau":12442,"Köl":12443,"Licht":12444,"Rad":12445,"Roh":12446,"Sar":12447,"TS":12448,"Timor":12449,"Total":12450,"Wald":12451,"catastrop":12452,"eyes":12453,"fat":12454,"foss":12455,"hour":12456,"hosp":12457,"ky":12458,"kür":12459,"ole":12460,"psych":12461,"risik":12462,"smo":12463,"tier":12464,"angesehen":12465,"anstelle":12466,"una":12467,"unequivoc":12468,"atmosp":12469,"alban":12470,"reven":12471,"republik":12472,"derselben":12473,"rot":12474,"rous":12475,"bew":12476,"bewahren":12477,"geplant":12478,"einnehmen":12479,"eingerichtet":12480,"einschlä":12481,"eingebrachten":12482,"auert":12483,"widen":12484,"wides":12485,"search":12486,"zuständige":12487,"zukünftigen":12488,"zustande":12489,"verbrauch":12490,"verdienen":12491,"tenden":12492,"genes":12493,"ilty":12494,"nez":12495,"confin":12496,"profound":12497,"umgehen":12498,"erequis":12499,"aufbauen":12500,"traum":12501,"petr":12502,"desirable":12503,"Verstoß":12504,"Verbrech":12505,"ifferenz":12506,"notion":12507,"tap":12508,"Belastung":12509,"übermittelt":12510,"ungsprozeß":12511,"Mrd":12512,"polog":12513,"jeglicher":12514,"Aussagen":12515,"Erwer":12516,"wozu":12517,"darlegen":12518,"prime":12519,"prerequis":12520,"intergovernmental":12521,"herange":12522,"hersteller":12523,"untersucht":12524,"ugt":12525,"beitreten":12526,"Früh":12527,"president":12528,"nachdenken":12529,"Einschätzung":12530,"frustr":12531,"Gebrauch":12532,"Gewässer":12533,"Grenze":12534,"langem":12535,"perpetr":12536,"serb":12537,"drin":12538,"Umfeld":12539,"footing":12540,"subsequent":12541,"systematic":12542,"Derzeit":12543,"guilty":12544,"Zucker":12545,"lastungen":12546,"schieben":12547,"ttung":12548,"Alba":12549,"engaged":12550,"generated":12551,"Afrikas":12552,"2020":12553,"Standpun":12554,"gereien":12555,"gerechte":12556,"visible":12557,"helped":12558,"epidem":12559,"movements":12560,"progressive":12561,"surface":12562,"kontrollen":12563,"released":12564,"flüss":12565,"leaves":12566,"Auffassungen":12567,"zunehmend":12568,"größter":12569,"Arbeitsplatz":12570,"congratulating":12571,"Jews":12572,"Posit":12573,"turned":12574,"Entschließungsentwurf":12575,"clarified":12576,"consequently":12577,"Kommissionsvorschlag":12578,"zusätzlich":12579,"Dokumenten":12580,"Schulz":12581,"focused":12582,"amerika":12583,"motor":12584,"bilateralen":12585,"transferred":12586,"Peru":12587,"contract":12588,"Beschlüssen":12589,"Geltungs":12590,"elektronische":12591,"Klär":12592,"rejection":12593,"geäußerten":12594,"Dikt":12595,"ernsthafte":12596,"ökologische":12597,"petition":12598,"appreciation":12599,"Fridays":12600,"endgültige":12601,"rechnen":12602,"Inseln":12603,"Umstände":12604,"erläutert":12605,"katastrophe":12606,"enhance":12607,"Währungsunion":12608,"schwemm":12609,"Defizit":12610,"revised":12611,"nachzudenken":12612,"Verlaufe":12613,"nützlich":12614,"appelliere":12615,"biotechnology":12616,"incentive":12617,"Bilanz":12618,"Altfahr":12619,"abstained":12620,"komplex":12621,"journalists":12622,"pleasure":12623,"verpflichten":12624,"physical":12625,"enttäuscht":12626,"verboten":12627,"lästigung":12628,"verankert":12629,"Angleichung":12630,"füllung":12631,"Stenzel":12632,"Euratom":12633,"Betrügereien":12634,"Jackson":12635,"Cologne":12636,"Danube":12637,"Köln":12638,"71":12639,"Bur":12640,"EP":12641,"Kan":12642,"Mollar":12643,"Nähe":12644,"OF":12645,"Py":12646,"Pen":12647,"Polit":12648,"Spar":12649,"Sens":12650,"Tol":12651,"Tausende":12652,"UEN":12653,"gall":12654,"ham":12655,"hum":12656,"lassungen":12657,"mur":12658,"sah":12659,"uft":12660,"vine":12661,"wine":12662,"ügen":12663,"erium":12664,"ansehen":12665,"ativer":12666,"ituation":12667,"ork":12668,"recourse":12669,"stein":12670,"strä":12671,"arising":12672,"rolle":12673,"leute":12674,"betr":12675,"beweist":12676,"einräumen":12677,"lls":12678,"verbot":12679,"race":12680,"raises":12681,"davor":12682,"uts":12683,"umb":12684,"usal":12685,"descr":12686,"Vermittlung":12687,"gesonder":12688,"ulous":12689,"ausländ":12690,"ausgestattet":12691,"tagt":12692,"tackl":12693,"uster":12694,"vorsehen":12695,"Before":12696,"Anlage":12697,"outstanding":12698,"Ausland":12699,"legum":12700,"Erkennt":12701,"Erfüllung":12702,"brid":12703,"interne":12704,"interinstitutionellen":12705,"Berg":12706,"weitreichen":12707,"partial":12708,"kenne":12709,"spect":12710,"pread":12711,"Aufen":12712,"ideology":12713,"ünglich":12714,"erstmals":12715,"konz":12716,"konsequ":12717,"schenken":12718,"Essen":12719,"Umstruktur":12720,"decent":12721,"newsp":12722,"Dezentral":12723,"fohlen":12724,"Grundrecht":12725,"mergers":12726,"ziele":12727,"forderten":12728,"gleichermaßen":12729,"empfohlen":12730,"harma":12731,"ifications":12732,"socially":12733,"gestanden":12734,"Seix":12735,"rière":12736,"Zielsetzung":12737,"everywhere":12738,"compete":12739,"Orte":12740,"Themas":12741,"Thematik":12742,"engl":12743,"Berichterstattern":12744,"acceptance":12745,"Vereinfachung":12746,"reize":12747,"sorgt":12748,"Alles":12749,"leichter":12750,"reduzieren":12751,"funded":12752,"wärts":12753,"Lebensbedingungen":12754,"verfahrens":12755,"technologie":12756,"technologischen":12757,"fähige":12758,"Export":12759,"vorgesehene":12760,"multip":12761,"availability":12762,"prinzipiell":12763,"phone":12764,"gesetzlichen":12765,"enorme":12766,"Protocol":12767,"addressing":12768,"verstärkten":12769,"reserved":12770,"interpreted":12771,"encouraged":12772,"Gedanke":12773,"Reding":12774,"Königreichs":12775,"ursprünglich":12776,"neighbours":12777,"competences":12778,"Vorsitzende":12779,"Erwägung":12780,"willingness":12781,"strengen":12782,"estimates":12783,"reibungs":12784,"Mechanismus":12785,"experiences":12786,"erwarte":12787,"eliminate":12788,"surprise":12789,"northern":12790,"umfangreiche":12791,"gegenseitigen":12792,"schauen":12793,"Kategorien":12794,"erlaubt":12795,"Flora":12796,"bedeutsam":12797,"kleineren":12798,"prospect":12799,"Viertens":12800,"shape":12801,"exemption":12802,"mobile":12803,"strafrechtlichen":12804,"belebung":12805,"fasc":12806,"Rindern":12807,"Habit":12808,"dänischen":12809,"Auseinandersetzung":12810,"Paritätischen":12811,"Bestreben":12812,"Assoziierungsabkommen":12813,"abandoned":12814,"scoreboard":12815,"Mittelmeerraum":12816,"entrepreneur":12817,"Ratsvorsitz":12818,"enforcement":12819,"Schmidt":12820,"Anhörung":12821,"antisemitism":12822,"bevölkerung":12823,"Serben":12824,"reconcile":12825,"llennium":12826,"widespread":12827,"Toler":12828,"Seixas":12829,"011":12830,"62":12831,"67":12832,"Aug":12833,"Cas":12834,"CAP":12835,"Eth":12836,"ETA":12837,"Gal":12838,"Kor":12839,"Kluft":12840,"Kofinanz":12841,"UC":12842,"Wün":12843,"Wests":12844,"York":12845,"abel":12846,"dioxin":12847,"gl":12848,"gig":12849,"habil":12850,"iber":12851,"kä":12852,"kin":12853,"lend":12854,"mt":12855,"mas":12856,"ming":12857,"mischung":12858,"nomin":12859,"tte":12860,"tank":12861,"uen":12862,"ule":12863,"vague":12864,"öte":12865,"erfaßt":12866,"insufficient":12867,"chr":12868,"chnet":12869,"thres":12870,"onom":12871,"onsten":12872,"ano":12873,"anx":12874,"anhand":12875,"itarian":12876,"rede":12877,"recall":12878,"ario":12879,"rohung":12880,"bedenk":12881,"gefallen":12882,"gezahlt":12883,"geehrten":12884,"geprägt":12885,"einiges":12886,"devoted":12887,"devast":12888,"igern":12889,"amed":12890,"weckt":12891,"wechsel":12892,"schlicht":12893,"zucht":12894,"eding":12895,"abzielen":12896,"rain":12897,"resident":12898,"usi":12899,"aufkommen":12900,"desired":12901,"gesucht":12902,"supran":12903,"Refu":12904,"span":12905,"adding":12906,"änen":12907,"benutzen":12908,"mainstreaming":12909,"agno":12910,"Anpass":12911,"Anreize":12912,"ftig":12913,"Endes":12914,"regierung":12915,"mangelt":12916,"ettering":12917,"Erst":12918,"Erde":12919,"Vorsicht":12920,"unterliegen":12921,"Eines":12922,"Einwohner":12923,"Geheim":12924,"disappointed":12925,"durchgesetzt":12926,"teln":12927,"ansonsten":12928,"hohes":12929,"läuf":12930,"underline":12931,"taine":12932,"decade":12933,"angepaßt":12934,"cessed":12935,"Aufhebung":12936,"laud":12937,"effektive":12938,"western":12939,"beschrieben":12940,"wake":12941,"Alkoh":12942,"retire":12943,"Allgem":12944,"differently":12945,"Steigerung":12946,"investieren":12947,"Gemeinschaftsebene":12948,"definieren":12949,"kostet":12950,"eingehend":12951,"Fehlen":12952,"visory":12953,"integral":12954,"integriert":12955,"Empf":12956,"Turmes":12957,"Luf":12958,"eigentliche":12959,"democratically":12960,"Havel":12961,"ehrter":12962,"judges":12963,"receiving":12964,"zunehmende":12965,"lowest":12966,"atorium":12967,"cutting":12968,"congratulations":12969,"Partnern":12970,"wahrnehmen":12971,"Summe":12972,"Menschenrechtskommission":12973,"treaty":12974,"Staatsangehör":12975,"advanced":12976,"Naturkatastrophen":12977,"befürchten":12978,"grundlegend":12979,"angemessenen":12980,"Drittländer":12981,"Opposition":12982,"Schlußfolgerung":12983,"euros":12984,"sentence":12985,"illegalen":12986,"Stellenwert":12987,"Präm":12988,"sämtlichen":12989,"kauft":12990,"umweltfreund":12991,"divide":12992,"division":12993,"Verbrennungsanlagen":12994,"beinhalten":12995,"campaigns":12996,"vertrete":12997,"listened":12998,"thousand":12999,"erneuerbarer":13000,"Leistung":13001,"Poettering":13002,"konstruktive":13003,"Wissenschaftler":13004,"Mitgliedsländer":13005,"Infrastrukturen":13006,"discipline":13007,"veränderten":13008,"experienced":13009,"ergänzt":13010,"Hunger":13011,"Donau":13012,"Konsequenz":13013,"Kürzung":13014,"gradual":13015,"eröffnen":13016,"erlauben":13017,"Syrien":13018,"vorbehalt":13019,"departments":13020,"gestehen":13021,"Liebe":13022,"Alternat":13023,"Territorium":13024,"beobachten":13025,"bedauerlich":13026,"Tradition":13027,"Verursacherprinzip":13028,"Fähigkeit":13029,"tangible":13030,"wofür":13031,"scheduled":13032,"feasible":13033,"Vordergrund":13034,"konfrontiert":13035,"Professor":13036,"García":13037,"ecutive":13038,"August":13039,"supranational":13040,"Refuge":13041,"Alkohol":13042,".\"":13043,"01":13044,"012":13045,"65":13046,"Bus":13047,"Glau":13048,"IM":13049,"Ill":13050,"Morg":13051,"Opt":13052,"Osteuropa":13053,"Sal":13054,"Somit":13055,"Val":13056,"apolog":13057,"blic":13058,"eu":13059,"hit":13060,"ked":13061,"lassung":13062,"pus":13063,"rum":13064,"scri":13065,"äglich":13066,"ötz":13067,"ergeb":13068,"inflation":13069,"ched":13070,"chap":13071,"united":13072,"alitäten":13073,"replaced":13074,"lease":13075,"bewähr":13076,"bedür":13077,"befugnisse":13078,"gewer":13079,"einigt":13080,"ault":13081,"dev":13082,"secur":13083,"lly":13084,"weich":13085,"scha":13086,"schön":13087,"oud":13088,"verbleiben":13089,"verhandeln":13090,"verkaufen":13091,"olmet":13092,"emb":13093,"empt":13094,"heugen":13095,"usionen":13096,"ceeded":13097,"alli":13098,"Verheugen":13099,"ulative":13100,"noticed":13101,"lax":13102,"aussehen":13103,"oura":13104,"tast":13105,"Revolution":13106,"vorgelegte":13107,"Beurteilung":13108,"Bewältigung":13109,"antini":13110,"Their":13111,"agog":13112,"Anschluß":13113,"ernste":13114,"location":13115,"wass":13116,"Ausgehend":13117,"Ausbild":13118,"Schon":13119,"Europäisches":13120,"geringen":13121,"forming":13122,"herd":13123,"igem":13124,"Framework":13125,"Fraktions":13126,"nachkommen":13127,"frank":13128,"assum":13129,"Gewiß":13130,"ankommen":13131,"Commun":13132,"driving":13133,"akts":13134,"barbar":13135,"Maes":13136,"presents":13137,"pful":13138,"pfern":13139,"losses":13140,"whenever":13141,"effektiver":13142,"appalling":13143,"lasting":13144,"balances":13145,"organise":13146,"ohes":13147,"technischer":13148,"Lehr":13149,"zugreifen":13150,"plötz":13151,"Ziels":13152,"everybody":13153,"Marok":13154,"Margall":13155,"differenz":13156,"countryside":13157,"hopefully":13158,"Genf":13159,"Finanzmärkte":13160,"offene":13161,"statute":13162,"helpful":13163,"Haushaltsmittel":13164,"Artikels":13165,"Bestät":13166,"medic":13167,"integrate":13168,"enthusi":13169,"accountable":13170,"Daran":13171,"objections":13172,"einzuhalten":13173,"enlarged":13174,"transportation":13175,"Amerikaner":13176,"Wasserpolitik":13177,"Flugzeug":13178,"erklärte":13179,"civilisation":13180,"cuts":13181,"widerspricht":13182,"quellen":13183,"fourteen":13184,"choices":13185,"anada":13186,"quoted":13187,"kräften":13188,"gesetzgebung":13189,"hardt":13190,"irgendwo":13191,"aufzubauen":13192,"angesprochenen":13193,"Großteil":13194,"historical":13195,"Vorgehens":13196,"nachhaltig":13197,"maxim":13198,"vernünftigen":13199,"Harbour":13200,"Kommissionsmitglieder":13201,"qualifizierten":13202,"fears":13203,"dauerhaften":13204,"ausgewogenen":13205,"endgültig":13206,"droht":13207,"Resolutionen":13208,"verursachen":13209,"dramatic":13210,"estimate":13211,"estimated":13212,"Sozialschutzes":13213,"dereg":13214,"donor":13215,"tolerance":13216,"surprised":13217,"Gewährung":13218,"stößt":13219,"leadership":13220,"beeinträchtigen":13221,"diesbezügliche":13222,"Realisierung":13223,"appellieren":13224,"obligatorische":13225,"dieselbe":13226,"zulässig":13227,"kreis":13228,"Säule":13229,"slightly":13230,"Generaldirektion":13231,"Legislativ":13232,"killed":13233,"atalog":13234,"acknowledged":13235,"channels":13236,"confidential":13237,"derogations":13238,"Entlastungsverfahren":13239,"accurate":13240,"argue":13241,"palästinens":13242,"TACIS":13243,"Tendenz":13244,"Delors":13245,"cereals":13246,"Entschädigung":13247,"überschritten":13248,"Konservativen":13249,"Betroffenen":13250,"stringent":13251,"Certain":13252,"enshrined":13253,"performance":13254,"Börsen":13255,"Verbrechens":13256,"Westsahara":13257,"Morgantini":13258,"Margallo":13259,"600":13260,"Cohes":13261,"EW":13262,"Fil":13263,"Mag":13264,"Mutter":13265,"OL":13266,"OGA":13267,"Pet":13268,"POL":13269,"Vo":13270,"bungen":13271,"commission":13272,"cure":13273,"cuss":13274,"cattle":13275,"dl":13276,"fan":13277,"gos":13278,"lern":13279,"mischen":13280,"sauber":13281,"ux":13282,"uum":13283,"enkt":13284,"inher":13285,"inhaft":13286,"chsten":13287,"estens":13288,"units":13289,"orted":13290,"albeit":13291,"stad":13292,"stamm":13293,"arres":13294,"began":13295,"begangen":13296,"beträgt":13297,"bezahlt":13298,"geachtet":13299,"ungerecht":13300,"einbringen":13301,"andt":13302,"auta":13303,"delicate":13304,"versteht":13305,"verkün":13306,"emot":13307,"berichte":13308,"hebt":13309,"wirr":13310,"ump":13311,"aufs":13312,"fürchte":13313,"pel":13314,"desto":13315,"Verts":13316,"Vertrieben":13317,"Unrecht":13318,"mengen":13319,"Innen":13320,"senz":13321,"exte":13322,"coalition":13323,"Beim":13324,"Bevor":13325,"Beide":13326,"Beförderung":13327,"Bewegung":13328,"sharing":13329,"ungsstelle":13330,"008":13331,"Streichung":13332,"outlined":13333,"Ausübung":13334,"strange":13335,"registr":13336,"Schiene":13337,"Erneuer":13338,"formed":13339,"Vorfeld":13340,"intern":13341,"kannte":13342,"tremend":13343,"langes":13344,"ansion":13345,"konsult":13346,"Communities":13347,"bett":13348,"damal":13349,"decreas":13350,"geschäd":13351,"arbeiteten":13352,"träglich":13353,"ignore":13354,"systemen":13355,"operative":13356,"invited":13357,"chnungen":13358,"pectives":13359,"Überschwemm":13360,"empfehlen":13361,"igerweise":13362,"Bereits":13363,"struck":13364,"Confederal":13365,"complied":13366,"internationally":13367,"klass":13368,"Sea":13369,"festgeschrieben":13370,"resolving":13371,"organising":13372,"Gros":13373,"zweif":13374,"bewertet":13375,"essence":13376,"gather":13377,"gewahr":13378,"Haushaltskontroll":13379,"Arbeitsbedingungen":13380,"accused":13381,"prompt":13382,"dürften":13383,"communauta":13384,"signing":13385,"functions":13386,"verschieben":13387,"completed":13388,"wachsam":13389,"Projekts":13390,"Indones":13391,"Grünbuch":13392,"organisieren":13393,"organisierte":13394,"aufgehoben":13395,"Amerika":13396,"völl":13397,"violated":13398,"coordinate":13399,"jährliche":13400,"verantwortlichen":13401,"indicate":13402,"irgendeiner":13403,"reserves":13404,"Redezeit":13405,"incinerators":13406,"älteren":13407,"gültig":13408,"authorisation":13409,"Präsenz":13410,"habt":13411,"juristischen":13412,"vereinbarten":13413,"concentration":13414,"Instance":13415,"Wiederaufnahme":13416,"Einzelheiten":13417,"consistently":13418,"restrictive":13419,"weltweiten":13420,"alternat":13421,"suggests":13422,"diseases":13423,"ynamik":13424,"grundsätzliche":13425,"Mittelmeerpolitik":13426,"ossiers":13427,"GAP":13428,"contradiction":13429,"ehemalige":13430,"Emission":13431,"Grenzwerte":13432,"Corbett":13433,"experiencing":13434,"Hungers":13435,"Telefon":13436,"Scient":13437,"Schiffs":13438,"thirteen":13439,"kapital":13440,"makers":13441,"Vorbehalte":13442,"advantaged":13443,"Trotzdem":13444,"approxim":13445,"gewählte":13446,"südlichen":13447,"örtlichen":13448,"incentives":13449,"Kompetenzen":13450,"contradictions":13451,"Gremium":13452,"Gesichtspunkt":13453,"decentralised":13454,"externen":13455,"greift":13456,"Gesetzgebungs":13457,"Vizepräsidentin":13458,"schlimmsten":13459,"iques":13460,"explicitly":13461,"Beschränkungen":13462,"Biotechnologie":13463,"expensive":13464,"vigilant":13465,"Gefängnis":13466,"derivatives":13467,"deprived":13468,"forgotten":13469,"Toleranz":13470,"Kofinanzierung":13471,"Cohesion":13472,"OGAW":13473,"communautaire":13474,"017":13475,"Category":13476,"Dal":13477,"Dine":13478,"Differenz":13479,"Ed":13480,"Elles":13481,"FF":13482,"Gas":13483,"Lange":13484,"Mod":13485,"Merk":13486,"Moura":13487,"Please":13488,"Sport":13489,"Sake":13490,"Youth":13491,"adays":13492,"dated":13493,"gige":13494,"horr":13495,"iberal":13496,"kter":13497,"ls":13498,"nar":13499,"nutz":13500,"pfer":13501,"sl":13502,"sale":13503,"tions":13504,"tighten":13505,"uk":13506,"zo":13507,"engu":13508,"ering":13509,"inburg":13510,"anger":13511,"anlagen":13512,"thet":13513,"recru":13514,"story":13515,"entschuld":13516,"befried":13517,"asion":13518,"asing":13519,"tox":13520,"geänder":13521,"geliefert":13522,"unglaub":13523,"denoun":13524,"llari":13525,"schicht":13526,"forcing":13527,"icate":13528,"verwirk":13529,"embra":13530,"raw":13531,"racht":13532,"gene":13533,"netz":13534,"proactive":13535,"processed":13536,"irrespective":13537,"resort":13538,"diesmal":13539,"aufer":13540,"Verfolgung":13541,"Verhinderung":13542,"ifun":13543,"opath":13544,"ulted":13545,"menge":13546,"lasten":13547,"affair":13548,"atell":13549,"Rechen":13550,"Relig":13551,"vorlegt":13552,"Paragraph":13553,"Betriebe":13554,"übergehen":13555,"shif":13556,"shame":13557,"shift":13558,"feels":13559,"agers":13560,"ungsantrag":13561,"ibly":13562,"Stich":13563,"lobens":13564,"apital":13565,"Aussicht":13566,"Mitbürger":13567,"Erfassung":13568,"wooll":13569,"wars":13570,"track":13571,"traged":13572,"besagt":13573,"interception":13574,"Berengu":13575,"herauszu":13576,"commended":13577,"selber":13578,"preis":13579,"prece":13580,"disagreement":13581,"cheap":13582,"earth":13583,"uds":13584,"hohem":13585,"handed":13586,"install":13587,"reicher":13588,"decades":13589,"geschä":13590,"Unterlagen":13591,"Decour":13592,"foot":13593,"foster":13594,"plain":13595,"placing":13596,"systematically":13597,"produkte":13598,"monat":13599,"ragm":13600,"Zuge":13601,"Jahrzehn":13602,"Freund":13603,"beschluß":13604,"technisch":13605,"Rahmens":13606,"planet":13607,"Leid":13608,"ihrerseits":13609,"bewerten":13610,"generous":13611,"socio":13612,"divers":13613,"gained":13614,"representing":13615,"klarer":13616,"maßgeb":13617,"existieren":13618,"approaches":13619,"genaue":13620,"Organen":13621,"Gleichwohl":13622,"Daraus":13623,"summar":13624,"Indien":13625,"konkreter":13626,"Medina":13627,"demanded":13628,"explos":13629,"Wortlaut":13630,"länen":13631,"Instrumenten":13632,"aktiven":13633,"participating":13634,"Bedingung":13635,"Stabilisierung":13636,"audit":13637,"streit":13638,"arrive":13639,"arrived":13640,"Außenhandel":13641,"rasche":13642,"kritisieren":13643,"sustained":13644,"mandatory":13645,"blood":13646,"meint":13647,"gewässer":13648,"grundlegender":13649,"Beschlußfähigkeit":13650,"mitglieder":13651,"productivity":13652,"criticisms":13653,"defended":13654,"Widerstand":13655,"pursued":13656,"Prozesse":13657,"hundert":13658,"Verhältnisse":13659,"Decision":13660,"contrast":13661,"ströme":13662,"1986":13663,"mistakes":13664,"badly":13665,"Danke":13666,"oppelt":13667,"geographischen":13668,"wachsenden":13669,"gewaltigen":13670,"classification":13671,"Persön":13672,"Yugoslav":13673,"angeboten":13674,"veranlassen":13675,"Lohn":13676,"hydro":13677,"sprüch":13678,"flags":13679,"Privatisierung":13680,"Menschheit":13681,"enhanced":13682,"observers":13683,"schweigen":13684,
[...]
